{
  "version": "1.0",
  "truncation": null,
  "padding": null,
  "added_tokens": [
    {
      "id": 0,
      "content": "[PAD]",
      "single_word": false,
      "lstrip": false,
      "rstrip": false,
      "normalized": false,
      "special": true
    },
    {
      "id": 1,
      "content": "[UNK]",
      "single_word": false,
      "lstrip": false,
      "rstrip": false,
      "normalized": false,
      "special": true
    },
    {
      "id": 2,
      "content": "[BOS]",
      "single_word": false,
      "lstrip": false,
      "rstrip": false,
      "normalized": false,
      "special": true
    },
    {
      "id": 3,
      "content": "[EOS]",
      "single_word": false,
      "lstrip": false,
      "rstrip": false,
      "normalized": false,
      "special": true
    }
  ],
  "normalizer": null,
  "pre_tokenizer": {
    "type": "Whitespace"
  },
  "post_processor": {
    "type": "TemplateProcessing",
    "single": [
      {
        "SpecialToken": {
          "id": "[BOS]",
          "type_id": 0
        }
      },
      {
        "Sequence": {
          "id": "A",
          "type_id": 0
        }
      },
      {
        "SpecialToken": {
          "id": "[EOS]",
          "type_id": 0
        }
      }
    ],
    "pair": [
      {
        "Sequence": {
          "id": "A",
          "type_id": 0
        }
      },
      {
        "Sequence": {
          "id": "B",
          "type_id": 1
        }
      }
    ],
    "special_tokens": {
      "[BOS]": {
        "id": "[BOS]",
        "ids": [
          2
        ],
        "tokens": [
          "[BOS]"
        ]
      },
      "[EOS]": {
        "id": "[EOS]",
        "ids": [
          3
        ],
        "tokens": [
          "[EOS]"
        ]
      }
    }
  },
  "decoder": null,
  "model": {
    "type": "BPE",
    "dropout": null,
    "unk_token": null,
    "continuing_subword_prefix": "##",
    "end_of_word_suffix": null,
    "fuse_unk": false,
    "byte_fallback": false,
    "ignore_merges": false,
    "vocab": {
      "[PAD]": 0,
      "[UNK]": 1,
      "[BOS]": 2,
      "[EOS]": 3,
      "!": 4,
      "%": 5,
      ",": 6,
      "-": 7,
      "/": 8,
      "0": 9,
      "1": 10,
      "2": 11,
      "3": 12,
      "4": 13,
      "5": 14,
      "6": 15,
      "7": 16,
      "8": 17,
      "9": 18,
      ":": 19,
      ";": 20,
      "?": 21,
      "A": 22,
      "B": 23,
      "C": 24,
      "D": 25,
      "E": 26,
      "F": 27,
      "G": 28,
      "H": 29,
      "I": 30,
      "J": 31,
      "K": 32,
      "L": 33,
      "M": 34,
      "N": 35,
      "O": 36,
      "P": 37,
      "Q": 38,
      "R": 39,
      "S": 40,
      "T": 41,
      "U": 42,
      "V": 43,
      "W": 44,
      "X": 45,
      "Y": 46,
      "Z": 47,
      "a": 48,
      "b": 49,
      "c": 50,
      "d": 51,
      "e": 52,
      "f": 53,
      "g": 54,
      "h": 55,
      "i": 56,
      "j": 57,
      "k": 58,
      "l": 59,
      "m": 60,
      "n": 61,
      "o": 62,
      "p": 63,
      "q": 64,
      "r": 65,
      "s": 66,
      "t": 67,
      "u": 68,
      "v": 69,
      "w": 70,
      "x": 71,
      "y": 72,
      "z": 73,
      "²": 74,
      "³": 75,
      "¹": 76,
      "À": 77,
      "Á": 78,
      "Â": 79,
      "Ã": 80,
      "Ä": 81,
      "Å": 82,
      "Æ": 83,
      "Ç": 84,
      "È": 85,
      "É": 86,
      "Ê": 87,
      "Ë": 88,
      "Ì": 89,
      "Í": 90,
      "Î": 91,
      "Ð": 92,
      "Ñ": 93,
      "Ò": 94,
      "Ó": 95,
      "Ô": 96,
      "Õ": 97,
      "Ö": 98,
      "Ø": 99,
      "Ù": 100,
      "Ú": 101,
      "Û": 102,
      "Ü": 103,
      "Ý": 104,
      "Þ": 105,
      "ß": 106,
      "à": 107,
      "á": 108,
      "â": 109,
      "ã": 110,
      "ä": 111,
      "å": 112,
      "æ": 113,
      "ç": 114,
      "è": 115,
      "é": 116,
      "ê": 117,
      "ë": 118,
      "ì": 119,
      "í": 120,
      "î": 121,
      "ï": 122,
      "ð": 123,
      "ñ": 124,
      "ò": 125,
      "ó": 126,
      "ô": 127,
      "õ": 128,
      "ö": 129,
      "ø": 130,
      "ù": 131,
      "ú": 132,
      "û": 133,
      "ü": 134,
      "ý": 135,
      "þ": 136,
      "ÿ": 137,
      "Ā": 138,
      "ā": 139,
      "Ă": 140,
      "ă": 141,
      "ą": 142,
      "Ć": 143,
      "ć": 144,
      "Ĉ": 145,
      "ĉ": 146,
      "ċ": 147,
      "Č": 148,
      "č": 149,
      "Ď": 150,
      "ď": 151,
      "Đ": 152,
      "đ": 153,
      "Ē": 154,
      "ē": 155,
      "Ĕ": 156,
      "ĕ": 157,
      "ė": 158,
      "ę": 159,
      "Ě": 160,
      "ě": 161,
      "Ĝ": 162,
      "ĝ": 163,
      "Ğ": 164,
      "ğ": 165,
      "Ġ": 166,
      "ġ": 167,
      "Ģ": 168,
      "ģ": 169,
      "Ħ": 170,
      "ħ": 171,
      "ĩ": 172,
      "Ī": 173,
      "ī": 174,
      "ĭ": 175,
      "į": 176,
      "İ": 177,
      "ı": 178,
      "ĵ": 179,
      "Ķ": 180,
      "ķ": 181,
      "ĺ": 182,
      "ļ": 183,
      "Ľ": 184,
      "ľ": 185,
      "ŀ": 186,
      "Ł": 187,
      "ł": 188,
      "ń": 189,
      "Ņ": 190,
      "ņ": 191,
      "ň": 192,
      "Ŋ": 193,
      "ŋ": 194,
      "Ō": 195,
      "ō": 196,
      "Ŏ": 197,
      "ŏ": 198,
      "Ő": 199,
      "ő": 200,
      "Œ": 201,
      "œ": 202,
      "ŕ": 203,
      "Ř": 204,
      "ř": 205,
      "Ś": 206,
      "ś": 207,
      "Ŝ": 208,
      "ŝ": 209,
      "Ş": 210,
      "ş": 211,
      "Š": 212,
      "š": 213,
      "Ţ": 214,
      "ţ": 215,
      "ť": 216,
      "ŧ": 217,
      "ũ": 218,
      "Ū": 219,
      "ū": 220,
      "Ŭ": 221,
      "ŭ": 222,
      "ů": 223,
      "ű": 224,
      "ų": 225,
      "ŵ": 226,
      "ŷ": 227,
      "ź": 228,
      "Ż": 229,
      "ż": 230,
      "Ž": 231,
      "ž": 232,
      "Ɓ": 233,
      "Ɔ": 234,
      "Ǝ": 235,
      "Ə": 236,
      "Ɛ": 237,
      "ƒ": 238,
      "ƛ": 239,
      "ơ": 240,
      "ư": 241,
      "Ƶ": 242,
      "ƾ": 243,
      "ƿ": 244,
      "ǀ": 245,
      "ǁ": 246,
      "ǂ": 247,
      "ǃ": 248,
      "Ǎ": 249,
      "ǎ": 250,
      "ǐ": 251,
      "ǒ": 252,
      "Ǔ": 253,
      "ǔ": 254,
      "ǘ": 255,
      "ǚ": 256,
      "ǜ": 257,
      "ǝ": 258,
      "ǣ": 259,
      "ǧ": 260,
      "ǫ": 261,
      "ǰ": 262,
      "ǵ": 263,
      "Ƿ": 264,
      "Ǻ": 265,
      "ȏ": 266,
      "Ș": 267,
      "ș": 268,
      "Ț": 269,
      "ț": 270,
      "Ȝ": 271,
      "ȝ": 272,
      "ȟ": 273,
      "ȭ": 274,
      "ȳ": 275,
      "ȼ": 276,
      "Ɂ": 277,
      "ɐ": 278,
      "ɑ": 279,
      "ɒ": 280,
      "ɓ": 281,
      "ɔ": 282,
      "ɕ": 283,
      "ɖ": 284,
      "ɗ": 285,
      "ɘ": 286,
      "ə": 287,
      "ɚ": 288,
      "ɛ": 289,
      "ɜ": 290,
      "ɝ": 291,
      "ɟ": 292,
      "ɡ": 293,
      "ɢ": 294,
      "ɣ": 295,
      "ɤ": 296,
      "ɥ": 297,
      "ɦ": 298,
      "ɨ": 299,
      "ɩ": 300,
      "ɪ": 301,
      "ɫ": 302,
      "ɬ": 303,
      "ɭ": 304,
      "ɮ": 305,
      "ɯ": 306,
      "ɰ": 307,
      "ɱ": 308,
      "ɲ": 309,
      "ɴ": 310,
      "ɵ": 311,
      "ɸ": 312,
      "ɹ": 313,
      "ɺ": 314,
      "ɻ": 315,
      "ɼ": 316,
      "ɽ": 317,
      "ɾ": 318,
      "ɿ": 319,
      "ʀ": 320,
      "ʁ": 321,
      "ʂ": 322,
      "ʃ": 323,
      "ʄ": 324,
      "ʈ": 325,
      "ʉ": 326,
      "ʊ": 327,
      "ʋ": 328,
      "ʌ": 329,
      "ʍ": 330,
      "ʎ": 331,
      "ʏ": 332,
      "ʐ": 333,
      "ʑ": 334,
      "ʒ": 335,
      "ʔ": 336,
      "ʕ": 337,
      "ʖ": 338,
      "ʘ": 339,
      "ʙ": 340,
      "ʝ": 341,
      "ʟ": 342,
      "ʡ": 343,
      "ʢ": 344,
      "ʣ": 345,
      "ʥ": 346,
      "ʦ": 347,
      "ʧ": 348,
      "ʨ": 349,
      "١": 350,
      "۱": 351,
      "۳": 352,
      "۶": 353,
      "०": 354,
      "१": 355,
      "२": 356,
      "४": 357,
      "६": 358,
      "১": 359,
      "৫": 360,
      "፬": 361,
      "១": 362,
      "៧": 363,
      "ᴘ": 364,
      "ᵻ": 365,
      "ᵽ": 366,
      "ḇ": 367,
      "ḍ": 368,
      "ḏ": 369,
      "ḑ": 370,
      "ḓ": 371,
      "ḕ": 372,
      "Ḗ": 373,
      "ḗ": 374,
      "Ḥ": 375,
      "ḥ": 376,
      "Ḩ": 377,
      "ḩ": 378,
      "Ḫ": 379,
      "ḫ": 380,
      "ḯ": 381,
      "ḱ": 382,
      "Ḳ": 383,
      "ḳ": 384,
      "Ḵ": 385,
      "ḵ": 386,
      "Ḷ": 387,
      "ḷ": 388,
      "ḻ": 389,
      "ṁ": 390,
      "ṃ": 391,
      "ṅ": 392,
      "Ṇ": 393,
      "ṇ": 394,
      "ṉ": 395,
      "ṓ": 396,
      "ṕ": 397,
      "ṗ": 398,
      "Ṙ": 399,
      "ṙ": 400,
      "Ṛ": 401,
      "ṛ": 402,
      "ṟ": 403,
      "ṡ": 404,
      "Ṣ": 405,
      "ṣ": 406,
      "ṫ": 407,
      "Ṭ": 408,
      "ṭ": 409,
      "Ṯ": 410,
      "ṯ": 411,
      "ṱ": 412,
      "Ẓ": 413,
      "ẓ": 414,
      "ẕ": 415,
      "ẖ": 416,
      "ẗ": 417,
      "ẞ": 418,
      "ạ": 419,
      "ả": 420,
      "ấ": 421,
      "ầ": 422,
      "ẩ": 423,
      "ậ": 424,
      "ắ": 425,
      "ẵ": 426,
      "ặ": 427,
      "Ẹ": 428,
      "ẹ": 429,
      "ẻ": 430,
      "ẽ": 431,
      "ế": 432,
      "ề": 433,
      "ễ": 434,
      "ệ": 435,
      "Ị": 436,
      "ị": 437,
      "Ọ": 438,
      "ọ": 439,
      "ỏ": 440,
      "ố": 441,
      "ồ": 442,
      "ổ": 443,
      "ộ": 444,
      "ớ": 445,
      "ờ": 446,
      "ở": 447,
      "ợ": 448,
      "ủ": 449,
      "ứ": 450,
      "ừ": 451,
      "ử": 452,
      "ữ": 453,
      "ự": 454,
      "ỳ": 455,
      "ỹ": 456,
      "⁰": 457,
      "⁴": 458,
      "₂": 459,
      "₃": 460,
      "₄": 461,
      "✝": 462,
      "ꜣ": 463,
      "Ꜥ": 464,
      "ꜥ": 465,
      "Ꞌ": 466,
      "ꞌ": 467,
      "ꭦ": 468,
      "ﬁ": 469,
      "ﬂ": 470,
      "１": 471,
      "２": 472,
      "３": 473,
      "４": 474,
      "５": 475,
      "７": 476,
      "𝼉": 477,
      "##D": 478,
      "##e": 479,
      "##n": 480,
      "##t": 481,
      "##a": 482,
      "##r": 483,
      "##m": 484,
      "##i": 485,
      "##p": 486,
      "##v": 487,
      "##g": 488,
      "##l": 489,
      "##â": 490,
      "##c": 491,
      "##o": 492,
      "##s": 493,
      "##b": 494,
      "##u": 495,
      "##h": 496,
      "##ț": 497,
      "##ă": 498,
      "##d": 499,
      "##L": 500,
      "##P": 501,
      "##x": 502,
      "##w": 503,
      "##y": 504,
      "##z": 505,
      "##f": 506,
      "##é": 507,
      "##í": 508,
      "##á": 509,
      "##A": 510,
      "##8": 511,
      "##0": 512,
      "##9": 513,
      "##R": 514,
      "##E": 515,
      "##N": 516,
      "##k": 517,
      "##ã": 518,
      "##ô": 519,
      "##6": 520,
      "##I": 521,
      "##M": 522,
      "##O": 523,
      "##ç": 524,
      "##7": 525,
      "##3": 526,
      "##W": 527,
      "##ɪ": 528,
      "##j": 529,
      "##5": 530,
      "##2": 531,
      "##C": 532,
      "##1": 533,
      "##ș": 534,
      "##H": 535,
      "##S": 536,
      "##K": 537,
      "##ó": 538,
      "##F": 539,
      "##q": 540,
      "##ñ": 541,
      "##4": 542,
      "##ä": 543,
      "##ā": 544,
      "##ņ": 545,
      "##š": 546,
      "##B": 547,
      "##U": 548,
      "##G": 549,
      "##õ": 550,
      "##ë": 551,
      "##ō": 552,
      "##è": 553,
      "##ö": 554,
      "##ê": 555,
      "##ć": 556,
      "##ü": 557,
      "##T": 558,
      "##V": 559,
      "##J": 560,
      "##ú": 561,
      "##å": 562,
      "##ż": 563,
      "##ž": 564,
      "##Z": 565,
      "##ṣ": 566,
      "##č": 567,
      "##ř": 568,
      "##ň": 569,
      "##æ": 570,
      "##à": 571,
      "##î": 572,
      "##ŝ": 573,
      "##ứ": 574,
      "##Y": 575,
      "##X": 576,
      "##ï": 577,
      "##ş": 578,
      "##ą": 579,
      "##ß": 580,
      "##ə": 581,
      "##ɨ": 582,
      "##ɡ": 583,
      "##ɐ": 584,
      "##Á": 585,
      "##ı": 586,
      "##ğ": 587,
      "##ē": 588,
      "##ð": 589,
      "##Q": 590,
      "##ø": 591,
      "##ţ": 592,
      "##ł": 593,
      "##ū": 594,
      "##ŏ": 595,
      "##ī": 596,
      "##ḍ": 597,
      "##ḗ": 598,
      "##ę": 599,
      "##ń": 600,
      "##ɔ": 601,
      "##ě": 602,
      "##ɛ": 603,
      "##ò": 604,
      "##ʊ": 605,
      "##ɹ": 606,
      "##ǐ": 607,
      "##:": 608,
      "##ʁ": 609,
      "##ť": 610,
      "##ɑ": 611,
      "##É": 612,
      "##Ó": 613,
      "##Ǝ": 614,
      "##ė": 615,
      "##ļ": 616,
      "##ɾ": 617,
      "##ũ": 618,
      "##ḩ": 619,
      "##ì": 620,
      "##ś": 621,
      "##ő": 622,
      "##ʃ": 623,
      "##ǔ": 624,
      "##ʒ": 625,
      "##þ": 626,
      "##ŭ": 627,
      "##ʌ": 628,
      "##ḥ": 629,
      "##ẽ": 630,
      "##ľ": 631,
      "##ý": 632,
      "##ǎ": 633,
      "##?": 634,
      "##ṯ": 635,
      "##ḏ": 636,
      "##ù": 637,
      "##ɬ": 638,
      "##ų": 639,
      "##ǒ": 640,
      "##ǃ": 641,
      "##ǁ": 642,
      "##ǧ": 643,
      "##œ": 644,
      "##ọ": 645,
      "##!": 646,
      "##ʔ": 647,
      "##ŋ": 648,
      "##ŀ": 649,
      "##ṅ": 650,
      "##û": 651,
      "##ḇ": 652,
      "##ű": 653,
      "##đ": 654,
      "##ḫ": 655,
      "##ɲ": 656,
      "##,": 657,
      "##;": 658,
      "##ɻ": 659,
      "##ɖ": 660,
      "##ɯ": 661,
      "##ɒ": 662,
      "##ġ": 663,
      "##ɣ": 664,
      "##Ú": 665,
      "##Ö": 666,
      "##ṙ": 667,
      "##ư": 668,
      "##ờ": 669,
      "##ʑ": 670,
      "##ů": 671,
      "##ṃ": 672,
      "##ồ": 673,
      "##Ã": 674,
      "##ơ": 675,
      "##ȏ": 676,
      "##ɕ": 677,
      "##ź": 678,
      "##ɴ": 679,
      "##ɢ": 680,
      "##ɮ": 681,
      "##ị": 682,
      "##ʋ": 683,
      "##ʨ": 684,
      "##ĭ": 685,
      "##ɵ": 686,
      "##ʦ": 687,
      "##ṭ": 688,
      "##Š": 689,
      "##Æ": 690,
      "##ħ": 691,
      "##ɫ": 692,
      "##ĩ": 693,
      "##ȝ": 694,
      "##ɦ": 695,
      "##ả": 696,
      "##ǣ": 697,
      "##ʀ": 698,
      "##ĕ": 699,
      "##ǜ": 700,
      "##ŕ": 701,
      "##ố": 702,
      "##ɟ": 703,
      "##ṇ": 704,
      "##ṉ": 705,
      "##ɘ": 706,
      "##Î": 707,
      "##ầ": 708,
      "##ʂ": 709,
      "##ŧ": 710,
      "##ẓ": 711,
      "##ĺ": 712,
      "##ộ": 713,
      "##ʏ": 714,
      "##Ɔ": 715,
      "##Ê": 716,
      "##Œ": 717,
      "##ừ": 718,
      "##ạ": 719,
      "##ǝ": 720,
      "##Ç": 721,
      "##-": 722,
      "##ế": 723,
      "##ÿ": 724,
      "##ṱ": 725,
      "##ớ": 726,
      "##Ɛ": 727,
      "##ǰ": 728,
      "##Ø": 729,
      "##Ā": 730,
      "##ɥ": 731,
      "##Ṣ": 732,
      "##Â": 733,
      "##/": 734,
      "##ȼ": 735,
      "##È": 736,
      "##₃": 737,
      "##ʐ": 738,
      "##ᵻ": 739,
      "##ắ": 740,
      "##ď": 741,
      "##०": 742,
      "##४": 743,
      "##६": 744,
      "##ɱ": 745,
      "##ʉ": 746,
      "##ĝ": 747,
      "##ỹ": 748,
      "##Å": 749,
      "##ữ": 750,
      "##ɭ": 751,
      "##ǀ": 752,
      "##Ş": 753,
      "##５": 754,
      "##７": 755,
      "##ỏ": 756,
      "##ḷ": 757,
      "##ꜥ": 758,
      "##Č": 759,
      "##ẹ": 760,
      "##ỳ": 761,
      "##ɰ": 762,
      "##ấ": 763,
      "##ǚ": 764,
      "##ʈ": 765,
      "##ẖ": 766,
      "##ʧ": 767,
      "##ĵ": 768,
      "##ȳ": 769,
      "##ệ": 770,
      "##ŵ": 771,
      "##ʎ": 772,
      "##ʝ": 773,
      "##ḕ": 774,
      "##į": 775,
      "##ṗ": 776,
      "##ﬁ": 777,
      "##ṓ": 778,
      "##ḓ": 779,
      "##ȟ": 780,
      "##ẵ": 781,
      "##Í": 782,
      "##ẕ": 783,
      "##İ": 784,
      "##ṡ": 785,
      "##ṛ": 786,
      "##ủ": 787,
      "##ƛ": 788,
      "##ậ": 789,
      "##%": 790,
      "##Ä": 791,
      "##ʕ": 792,
      "##Ù": 793,
      "##ķ": 794,
      "##ẩ": 795,
      "##Ô": 796,
      "##ḱ": 797,
      "##ự": 798,
      "##ǫ": 799,
      "##ề": 800,
      "##ḳ": 801,
      "##ễ": 802,
      "##ṫ": 803,
      "##ɝ": 804,
      "##Ü": 805,
      "##Ī": 806,
      "##Ð": 807,
      "##ḯ": 808,
      "##ᵽ": 809,
      "##ẻ": 810,
      "##ĉ": 811,
      "##ᴘ": 812,
      "##ɓ": 813,
      "##Ɂ": 814,
      "##ɜ": 815,
      "##ṕ": 816,
      "##Ƶ": 817,
      "##ɼ": 818,
      "##ổ": 819,
      "##¹": 820,
      "##À": 821,
      "##ở": 822,
      "##⁰": 823,
      "##ɗ": 824,
      "##ʟ": 825,
      "##ɤ": 826,
      "##ꜣ": 827,
      "##ɽ": 828,
      "##ģ": 829,
      "##ʍ": 830,
      "##ȭ": 831,
      "##ɸ": 832,
      "##ꞌ": 833,
      "##ử": 834,
      "##ċ": 835,
      "##ǵ": 836,
      "##ḵ": 837,
      "##ʢ": 838,
      "##ợ": 839,
      "##ƿ": 840,
      "##ṟ": 841,
      "##ẗ": 842,
      "##Ì": 843,
      "##ǂ": 844,
      "##ḑ": 845,
      "##ṁ": 846,
      "##ʣ": 847,
      "##ŷ": 848,
      "##۳": 849,
      "##۶": 850,
      "##ǘ": 851,
      "##ɚ": 852,
      "##ɩ": 853,
      "##ặ": 854,
      "##১": 855,
      "##ḻ": 856,
      "de": 857,
      "##ra": 858,
      "##nt": 859,
      "##ad": 860,
      "##ri": 861,
      "##os": 862,
      "##es": 863,
      "##or": 864,
      "##er": 865,
      "##an": 866,
      "##as": 867,
      "##al": 868,
      "um": 869,
      "##st": 870,
      "co": 871,
      "##ro": 872,
      "##ão": 873,
      "##ic": 874,
      "##ar": 875,
      "##in": 876,
      "##id": 877,
      "##me": 878,
      "##en": 879,
      "##el": 880,
      "##ia": 881,
      "##on": 882,
      "em": 883,
      "##is": 884,
      "do": 885,
      "da": 886,
      "com": 887,
      "##re": 888,
      "##it": 889,
      "##il": 890,
      "uma": 891,
      "##ado": 892,
      "no": 893,
      "##un": 894,
      "##em": 895,
      "##ol": 896,
      "##ul": 897,
      "##nte": 898,
      "##ção": 899,
      "##at": 900,
      "##do": 901,
      "##am": 902,
      "##ue": 903,
      "se": 904,
      "##io": 905,
      "19": 906,
      "##ei": 907,
      "##oi": 908,
      "##ist": 909,
      "na": 910,
      "##te": 911,
      "##nc": 912,
      "##ta": 913,
      "##to": 914,
      "20": 915,
      "##de": 916,
      "foi": 917,
      "##iv": 918,
      "##ec": 919,
      "##ada": 920,
      "que": 921,
      "est": 922,
      "por": 923,
      "##ara": 924,
      "##ade": 925,
      "##ica": 926,
      "##tu": 927,
      "##iz": 928,
      "##eg": 929,
      "##ci": 930,
      "##us": 931,
      "##ras": 932,
      "##om": 933,
      "con": 934,
      "##ant": 935,
      "ou": 936,
      "##ha": 937,
      "##oc": 938,
      "##da": 939,
      "##et": 940,
      "##ou": 941,
      "es": 942,
      "##im": 943,
      "##idade": 944,
      "##ent": 945,
      "pro": 946,
      "##ab": 947,
      "su": 948,
      "##eiro": 949,
      "##ico": 950,
      "pel": 951,
      "##ric": 952,
      "##ano": 953,
      "##ido": 954,
      "##gu": 955,
      "##qu": 956,
      "##ação": 957,
      "##ais": 958,
      "##mente": 959,
      "como": 960,
      "##ho": 961,
      "##ment": 962,
      "in": 963,
      "##ig": 964,
      "##le": 965,
      "##res": 966,
      "##ens": 967,
      "##rasil": 968,
      "para": 969,
      "##ran": 970,
      "##ria": 971,
      "##ac": 972,
      "##aliz": 973,
      "##og": 974,
      "##pe": 975,
      "##bro": 976,
      "po": 977,
      "dos": 978,
      "re": 979,
      "##ês": 980,
      "##ora": 981,
      "##ida": 982,
      "##um": 983,
      "##ista": 984,
      "##ip": 985,
      "esp": 986,
      "##mento": 987,
      "##ce": 988,
      "201": 989,
      "##ões": 990,
      "des": 991,
      "200": 992,
      "##ir": 993,
      "##ur": 994,
      "##ov": 995,
      "at": 996,
      "##ap": 997,
      "##ag": 998,
      "Est": 999,
      "an": 1000,
      "##di": 1001,
      "##ut": 1002,
      "ex": 1003,
      "##meric": 1004,
      "hab": 1005,
      "al": 1006,
      "as": 1007,
      "##art": 1008,
      "##av": 1009,
      "##ém": 1010,
      "qu": 1011,
      "Al": 1012,
      "##ev": 1013,
      "loc": 1014,
      "pri": 1015,
      "##ião": 1016,
      "##ados": 1017,
      "##embro": 1018,
      "pela": 1019,
      "##onal": 1020,
      "##rio": 1021,
      "americ": 1022,
      "##ana": 1023,
      "##ers": 1024,
      "18": 1025,
      "di": 1026,
      "brasil": 1027,
      "##ma": 1028,
      "##ub": 1029,
      "##ai": 1030,
      "os": 1031,
      "##amb": 1032,
      "##so": 1033,
      "sua": 1034,
      "##orte": 1035,
      "##ru": 1036,
      "##hec": 1037,
      "##ura": 1038,
      "##ob": 1039,
      "mais": 1040,
      "reg": 1041,
      "##era": 1042,
      "##po": 1043,
      "##ranc": 1044,
      "##lia": 1045,
      "##ern": 1046,
      "comp": 1047,
      "##ed": 1048,
      "ent": 1049,
      "comun": 1050,
      "localiz": 1051,
      "##ncia": 1052,
      "cidade": 1053,
      "ar": 1054,
      "##co": 1055,
      "ap": 1056,
      "Em": 1057,
      "##mo": 1058,
      "##esa": 1059,
      "##ira": 1060,
      "##ros": 1061,
      "fil": 1062,
      "##ça": 1063,
      "ao": 1064,
      "americano": 1065,
      "das": 1066,
      "##antes": 1067,
      "conhec": 1068,
      "##min": 1069,
      "##ador": 1070,
      "##ulo": 1071,
      "##ân": 1072,
      "estado": 1073,
      "##he": 1074,
      "Con": 1075,
      "##ot": 1076,
      "##and": 1077,
      "##ít": 1078,
      "##eira": 1079,
      "##ando": 1080,
      "##ções": 1081,
      "##la": 1082,
      "##undo": 1083,
      "##pul": 1084,
      "##od": 1085,
      "##ambém": 1086,
      "##que": 1087,
      "##ing": 1088,
      "##rig": 1089,
      "##ito": 1090,
      "habit": 1091,
      "##tiv": 1092,
      "comuna": 1093,
      "per": 1094,
      "##du": 1095,
      "##ino": 1096,
      "##ari": 1097,
      "##if": 1098,
      "também": 1099,
      "##ns": 1100,
      "##go": 1101,
      "ter": 1102,
      "região": 1103,
      "era": 1104,
      "##ca": 1105,
      "brasileiro": 1106,
      "##ina": 1107,
      "Un": 1108,
      "##itu": 1109,
      "esc": 1110,
      "habitantes": 1111,
      "##bol": 1112,
      "popul": 1113,
      "##ass": 1114,
      "for": 1115,
      "##endo": 1116,
      "entre": 1117,
      "##rit": 1118,
      "##ero": 1119,
      "ad": 1120,
      "##almente": 1121,
      "##dado": 1122,
      "Ch": 1123,
      "pelo": 1124,
      "199": 1125,
      "##éci": 1126,
      "##ente": 1127,
      "##ont": 1128,
      "sé": 1129,
      "pol": 1130,
      "ser": 1131,
      "cl": 1132,
      "##adas": 1133,
      "franc": 1134,
      "##mp": 1135,
      "##cional": 1136,
      "##ess": 1137,
      "##ília": 1138,
      "ab": 1139,
      "fam": 1140,
      "cont": 1141,
      "prime": 1142,
      "seu": 1143,
      "##est": 1144,
      "##ion": 1145,
      "##iss": 1146,
      "##ch": 1147,
      "##inha": 1148,
      "##ço": 1149,
      "mar": 1150,
      "##ib": 1151,
      "##ne": 1152,
      "nas": 1153,
      "##ve": 1154,
      "localizada": 1155,
      "Pa": 1156,
      "tem": 1157,
      "norte": 1158,
      "198": 1159,
      "##aneiro": 1160,
      "espéci": 1161,
      "##rito": 1162,
      "##íp": 1163,
      "##ís": 1164,
      "##tugu": 1165,
      "km": 1166,
      "Por": 1167,
      "atu": 1168,
      "Ar": 1169,
      "são": 1170,
      "Brasil": 1171,
      "##oss": 1172,
      "São": 1173,
      "An": 1174,
      "##ôn": 1175,
      "##ez": 1176,
      "Es": 1177,
      "família": 1178,
      "ch": 1179,
      "##ores": 1180,
      "##ute": 1181,
      "Re": 1182,
      "ag": 1183,
      "##ast": 1184,
      "##istra": 1185,
      "##unic": 1186,
      "Ma": 1187,
      "par": 1188,
      "##eu": 1189,
      "tra": 1190,
      "portugu": 1191,
      "##dio": 1192,
      "197": 1193,
      "##ato": 1194,
      "##este": 1195,
      "##iro": 1196,
      "part": 1197,
      "##icos": 1198,
      "As": 1199,
      "##ário": 1200,
      "##ên": 1201,
      "202": 1202,
      "##utebol": 1203,
      "##pres": 1204,
      "##arta": 1205,
      "##orn": 1206,
      "nome": 1207,
      "prov": 1208,
      "##erra": 1209,
      "dep": 1210,
      "conhecido": 1211,
      "espécie": 1212,
      "##tiva": 1213,
      "cri": 1214,
      "##anç": 1215,
      "##int": 1216,
      "##osto": 1217,
      "##ministra": 1218,
      "##dia": 1219,
      "##ense": 1220,
      "Mar": 1221,
      "##az": 1222,
      "##idos": 1223,
      "##ja": 1224,
      "##enso": 1225,
      "rom": 1226,
      "##rea": 1227,
      "17": 1228,
      "Seg": 1229,
      "##ência": 1230,
      "In": 1231,
      "até": 1232,
      "administra": 1233,
      "##ten": 1234,
      "##gl": 1235,
      "nov": 1236,
      "ma": 1237,
      "##ui": 1238,
      "munic": 1239,
      "rec": 1240,
      "##ela": 1241,
      "Os": 1242,
      "nos": 1243,
      "população": 1244,
      "196": 1245,
      "##ici": 1246,
      "##ril": 1247,
      "10": 1248,
      "##und": 1249,
      "##idas": 1250,
      "ant": 1251,
      "or": 1252,
      "##eb": 1253,
      "seg": 1254,
      "int": 1255,
      "##cio": 1256,
      "censo": 1257,
      "of": 1258,
      "##ral": 1259,
      "Com": 1260,
      "##ípio": 1261,
      "##uro": 1262,
      "##ivers": 1263,
      "dis": 1264,
      "não": 1265,
      "##eri": 1266,
      "##lo": 1267,
      "dist": 1268,
      "##cia": 1269,
      "ac": 1270,
      "15": 1271,
      "cons": 1272,
      "en": 1273,
      "##ga": 1274,
      "##lica": 1275,
      "Gu": 1276,
      "prof": 1277,
      "filme": 1278,
      "polít": 1279,
      "Su": 1280,
      "jog": 1281,
      "pr": 1282,
      "##artamento": 1283,
      "cor": 1284,
      "##ias": 1285,
      "##ín": 1286,
      "##át": 1287,
      "##anda": 1288,
      "francesa": 1289,
      "const": 1290,
      "##aniz": 1291,
      "sob": 1292,
      "Sant": 1293,
      "##op": 1294,
      "##ard": 1295,
      "##ende": 1296,
      "##tal": 1297,
      "##lb": 1298,
      "dens": 1299,
      "Cam": 1300,
      "##rande": 1301,
      "município": 1302,
      "densidade": 1303,
      "el": 1304,
      "16": 1305,
      "Rio": 1306,
      "##acional": 1307,
      "Jo": 1308,
      "departamento": 1309,
      "##na": 1310,
      "##ust": 1311,
      "anos": 1312,
      "administrativa": 1313,
      "##icas": 1314,
      "Condado": 1315,
      "##vi": 1316,
      "português": 1317,
      "car": 1318,
      "área": 1319,
      "res": 1320,
      "dire": 1321,
      "##ição": 1322,
      "futebol": 1323,
      "maio": 1324,
      "Foi": 1325,
      "##ulho": 1326,
      "lanç": 1327,
      "12": 1328,
      "tinha": 1329,
      "2000": 1330,
      "##vel": 1331,
      "álb": 1332,
      "2010": 1333,
      "princ": 1334,
      "195": 1335,
      "cap": 1336,
      "##end": 1337,
      "##rica": 1338,
      "ob": 1339,
      "pl": 1340,
      "##rie": 1341,
      "##anh": 1342,
      "##gra": 1343,
      "##tubro": 1344,
      "##ord": 1345,
      "Segundo": 1346,
      "##unho": 1347,
      "##ter": 1348,
      "##isão": 1349,
      "##vol": 1350,
      "pa": 1351,
      "194": 1352,
      "Nov": 1353,
      "##ón": 1354,
      "can": 1355,
      "##rav": 1356,
      "form": 1357,
      "ele": 1358,
      "sub": 1359,
      "##ud": 1360,
      "11": 1361,
      "##ema": 1362,
      "set": 1363,
      "agosto": 1364,
      "##tura": 1365,
      "dez": 1366,
      "produ": 1367,
      "##iano": 1368,
      "julho": 1369,
      "##elo": 1370,
      "##esso": 1371,
      "pres": 1372,
      "##anha": 1373,
      "##ase": 1374,
      "##rans": 1375,
      "hist": 1376,
      "##ári": 1377,
      "##ign": 1378,
      "perten": 1379,
      "The": 1380,
      "##íncia": 1381,
      "##ivo": 1382,
      "março": 1383,
      "##ever": 1384,
      "14": 1385,
      "oc": 1386,
      "cant": 1387,
      "##uto": 1388,
      "##ang": 1389,
      ":;": 1390,
      "##urante": 1391,
      "##pera": 1392,
      "##ús": 1393,
      "##culo": 1394,
      "cer": 1395,
      "outubro": 1396,
      "Am": 1397,
      "Paulo": 1398,
      "álbum": 1399,
      "setembro": 1400,
      "princip": 1401,
      "out": 1402,
      "mil": 1403,
      "##ita": 1404,
      "##ena": 1405,
      "De": 1406,
      "pre": 1407,
      "##les": 1408,
      "##úb": 1409,
      "##ome": 1410,
      "##riz": 1411,
      "Le": 1412,
      "##cul": 1413,
      "##orm": 1414,
      "##ós": 1415,
      "##ort": 1416,
      "##00": 1417,
      "##eral": 1418,
      "janeiro": 1419,
      "13": 1420,
      "Ant": 1421,
      "parte": 1422,
      "junho": 1423,
      "orig": 1424,
      "estad": 1425,
      "##orre": 1426,
      "Lu": 1427,
      "##ades": 1428,
      "##ola": 1429,
      "##ional": 1430,
      "##bal": 1431,
      "club": 1432,
      "Car": 1433,
      "##ismo": 1434,
      "fora": 1435,
      "província": 1436,
      "Part": 1437,
      "##evereiro": 1438,
      "abril": 1439,
      "##ital": 1440,
      "##ava": 1441,
      "##cion": 1442,
      "##lic": 1443,
      "cam": 1444,
      "##va": 1445,
      "mu": 1446,
      "##pos": 1447,
      "##odo": 1448,
      "brasileira": 1449,
      "série": 1450,
      "##fer": 1451,
      "##up": 1452,
      "novembro": 1453,
      "mas": 1454,
      "dezembro": 1455,
      "art": 1456,
      "ass": 1457,
      "político": 1458,
      "##rist": 1459,
      "dirig": 1460,
      "on": 1461,
      "pertence": 1462,
      "##ér": 1463,
      "##gal": 1464,
      "193": 1465,
      "##unid": 1466,
      "##fe": 1467,
      "primeiro": 1468,
      "inc": 1469,
      "##óp": 1470,
      "##ima": 1471,
      "país": 1472,
      "##ios": 1473,
      "us": 1474,
      "##lu": 1475,
      "met": 1476,
      "##ram": 1477,
      "lat": 1478,
      "##és": 1479,
      "##rior": 1480,
      "No": 1481,
      "##enas": 1482,
      "tel": 1483,
      "##unt": 1484,
      "##ge": 1485,
      "Cl": 1486,
      "ingl": 1487,
      "##ás": 1488,
      "cham": 1489,
      "##iga": 1490,
      "##bo": 1491,
      "durante": 1492,
      "gre": 1493,
      "##unidense": 1494,
      "##imo": 1495,
      "Sul": 1496,
      "desc": 1497,
      "Janeiro": 1498,
      "trans": 1499,
      "desen": 1500,
      "St": 1501,
      "pelos": 1502,
      "está": 1503,
      "##ert": 1504,
      "##iva": 1505,
      "me": 1506,
      "##ay": 1507,
      "##ide": 1508,
      "fevereiro": 1509,
      "realiz": 1510,
      "ano": 1511,
      "enc": 1512,
      "##rin": 1513,
      "col": 1514,
      "gên": 1515,
      "gru": 1516,
      "##íf": 1517,
      "##unda": 1518,
      "##ória": 1519,
      "foram": 1520,
      "##gua": 1521,
      "conhecida": 1522,
      "##inal": 1523,
      "##ite": 1524,
      "Portu": 1525,
      "localizado": 1526,
      "##dade": 1527,
      "Portugal": 1528,
      "mes": 1529,
      "##ét": 1530,
      "Ab": 1531,
      "Estados": 1532,
      "##II": 1533,
      "##au": 1534,
      "primeira": 1535,
      "##ares": 1536,
      "Esp": 1537,
      "século": 1538,
      "##ell": 1539,
      "mai": 1540,
      "##ine": 1541,
      "##íst": 1542,
      "Ol": 1543,
      "banda": 1544,
      "ital": 1545,
      "pertencente": 1546,
      "espec": 1547,
      "gol": 1548,
      "lançado": 1549,
      "Unidos": 1550,
      "##has": 1551,
      "##iana": 1552,
      "##rm": 1553,
      "##ânia": 1554,
      "sobre": 1555,
      "conc": 1556,
      "##entes": 1557,
      "##aix": 1558,
      "##iu": 1559,
      "##ila": 1560,
      "##hos": 1561,
      "dirigido": 1562,
      "estadunidense": 1563,
      "##overn": 1564,
      "compos": 1565,
      "##iliz": 1566,
      "Rom": 1567,
      "disp": 1568,
      "##olog": 1569,
      "192": 1570,
      "##vent": 1571,
      "##dição": 1572,
      "te": 1573,
      "Nova": 1574,
      "##ug": 1575,
      "tendo": 1576,
      "profiss": 1577,
      "vez": 1578,
      "inf": 1579,
      "##gre": 1580,
      "##rop": 1581,
      "dia": 1582,
      "##per": 1583,
      "imp": 1584,
      "##ult": 1585,
      "##cial": 1586,
      "Grande": 1587,
      "situ": 1588,
      "un": 1589,
      "Fran": 1590,
      "dec": 1591,
      "##ula": 1592,
      "##ill": 1593,
      "cerca": 1594,
      "sendo": 1595,
      "du": 1596,
      "cat": 1597,
      "##ária": 1598,
      "##ak": 1599,
      "seus": 1600,
      "##idae": 1601,
      "inglês": 1602,
      "##êm": 1603,
      "##aram": 1604,
      "Pro": 1605,
      "##ie": 1606,
      "##be": 1607,
      "##dor": 1608,
      "##ól": 1609,
      "equ": 1610,
      "##peon": 1611,
      "gênero": 1612,
      "##itos": 1613,
      "am": 1614,
      "##ele": 1615,
      "##dem": 1616,
      "Franc": 1617,
      "##agem": 1618,
      "##je": 1619,
      "distrito": 1620,
      "##ona": 1621,
      "##ian": 1622,
      "##ossui": 1623,
      "empres": 1624,
      "##undi": 1625,
      "Univers": 1626,
      "25": 1627,
      "##osa": 1628,
      "il": 1629,
      "cas": 1630,
      "Reg": 1631,
      "##rá": 1632,
      "Cat": 1633,
      "produz": 1634,
      "min": 1635,
      "romaniz": 1636,
      "rel": 1637,
      "##idades": 1638,
      "##ron": 1639,
      "grego": 1640,
      "onde": 1641,
      "alem": 1642,
      "##igo": 1643,
      "##stitu": 1644,
      "grupo": 1645,
      "Jos": 1646,
      "Ele": 1647,
      "pub": 1648,
      "fun": 1649,
      "##pa": 1650,
      "Cal": 1651,
      "##peonato": 1652,
      "nat": 1653,
      "so": 1654,
      "mús": 1655,
      "21": 1656,
      "##pora": 1657,
      "##anto": 1658,
      "Bar": 1659,
      "segundo": 1660,
      "##se": 1661,
      "compet": 1662,
      "segu": 1663,
      "dest": 1664,
      "pe": 1665,
      "##ik": 1666,
      "##man": 1667,
      "##rada": 1668,
      "##ício": 1669,
      "##él": 1670,
      "desenvol": 1671,
      "24": 1672,
      "191": 1673,
      "sem": 1674,
      "sul": 1675,
      "##erg": 1676,
      "ci": 1677,
      "##sa": 1678,
      "latim": 1679,
      "22": 1680,
      "##atro": 1681,
      "##ton": 1682,
      "##her": 1683,
      "##ifica": 1684,
      "##ceu": 1685,
      "org": 1686,
      "##ório": 1687,
      "Para": 1688,
      "##itar": 1689,
      "##rib": 1690,
      "##ede": 1691,
      "desde": 1692,
      "30": 1693,
      "auto": 1694,
      "##undial": 1695,
      "qual": 1696,
      "Col": 1697,
      "fre": 1698,
      "##ários": 1699,
      "##mentos": 1700,
      "23": 1701,
      "##dos": 1702,
      "Min": 1703,
      "Qu": 1704,
      "##land": 1705,
      "base": 1706,
      "##tos": 1707,
      "So": 1708,
      "##ond": 1709,
      "nasc": 1710,
      "##ix": 1711,
      "Na": 1712,
      "govern": 1713,
      "##greja": 1714,
      "##indo": 1715,
      "cent": 1716,
      "##ata": 1717,
      "##ntes": 1718,
      "##ific": 1719,
      "maior": 1720,
      "ext": 1721,
      "##lin": 1722,
      "##ock": 1723,
      "partic": 1724,
      "##ris": 1725,
      "torn": 1726,
      "##ich": 1727,
      "francês": 1728,
      "##ública": 1729,
      "##mas": 1730,
      "##uc": 1731,
      "At": 1732,
      "El": 1733,
      "##ímp": 1734,
      "##ério": 1735,
      "pass": 1736,
      "div": 1737,
      "Mo": 1738,
      "##adores": 1739,
      "##ep": 1740,
      "gols": 1741,
      "##ow": 1742,
      "##ical": 1743,
      "capital": 1744,
      "26": 1745,
      "mat": 1746,
      "Pol": 1747,
      "im": 1748,
      "##ry": 1749,
      "ind": 1750,
      "##met": 1751,
      "##ritân": 1752,
      "pers": 1753,
      "ut": 1754,
      "##via": 1755,
      "encont": 1756,
      "Estende": 1757,
      "28": 1758,
      "##eve": 1759,
      "##za": 1760,
      "27": 1761,
      "##ologia": 1762,
      "mus": 1763,
      "##con": 1764,
      "##alá": 1765,
      "telev": 1766,
      "cin": 1767,
      "gu": 1768,
      "liv": 1769,
      "public": 1770,
      "americana": 1771,
      "Ap": 1772,
      "##present": 1773,
      "Euro": 1774,
      "##ota": 1775,
      "##der": 1776,
      "##ong": 1777,
      "##all": 1778,
      "Ver": 1779,
      "##uns": 1780,
      "come": 1781,
      "##ental": 1782,
      "tr": 1783,
      "##ipe": 1784,
      "sede": 1785,
      "##lt": 1786,
      "Partidas": 1787,
      "dois": 1788,
      "Se": 1789,
      ":,": 1790,
      "condado": 1791,
      "mod": 1792,
      "Campeonato": 1793,
      "apenas": 1794,
      "La": 1795,
      "##emb": 1796,
      "##éc": 1797,
      "Cor": 1798,
      "trabal": 1799,
      "inte": 1800,
      "sist": 1801,
      "mé": 1802,
      "##anc": 1803,
      "##uta": 1804,
      "##ach": 1805,
      "##ae": 1806,
      "##son": 1807,
      "##ogos": 1808,
      "utiliz": 1809,
      "##ual": 1810,
      "##istas": 1811,
      "##das": 1812,
      "Par": 1813,
      "profissional": 1814,
      "##imento": 1815,
      "Cent": 1816,
      "fund": 1817,
      "29": 1818,
      "##rado": 1819,
      "class": 1820,
      "Sal": 1821,
      "##pre": 1822,
      "Int": 1823,
      "##ração": 1824,
      "televisão": 1825,
      "França": 1826,
      "Or": 1827,
      "##pois": 1828,
      "Is": 1829,
      "##por": 1830,
      "##idera": 1831,
      "escrito": 1832,
      "##elh": 1833,
      "##emin": 1834,
      "##erv": 1835,
      "edição": 1836,
      "##ór": 1837,
      "##ost": 1838,
      "forma": 1839,
      "ho": 1840,
      "cient": 1841,
      "ofici": 1842,
      "##des": 1843,
      "ins": 1844,
      "##ale": 1845,
      "##rita": 1846,
      "##elho": 1847,
      "##anos": 1848,
      "##erto": 1849,
      "##nia": 1850,
      "Fil": 1851,
      "sim": 1852,
      "estú": 1853,
      "Per": 1854,
      "Ex": 1855,
      "##our": 1856,
      "pesso": 1857,
      "##resent": 1858,
      "Po": 1859,
      "design": 1860,
      "##tor": 1861,
      "Rep": 1862,
      "faz": 1863,
      "Tra": 1864,
      "britân": 1865,
      "aos": 1866,
      "apresent": 1867,
      "sido": 1868,
      "##adora": 1869,
      "##gues": 1870,
      "fl": 1871,
      "quando": 1872,
      "represent": 1873,
      "Te": 1874,
      "Ass": 1875,
      "##ki": 1876,
      "alemão": 1877,
      "lista": 1878,
      "##ular": 1879,
      "Ca": 1880,
      "Jogos": 1881,
      "ca": 1882,
      "Mundial": 1883,
      "Can": 1884,
      "Santa": 1885,
      "##ática": 1886,
      "Norte": 1887,
      "estúdio": 1888,
      "Man": 1889,
      "med": 1890,
      "##óg": 1891,
      "composit": 1892,
      "##vido": 1893,
      "##ças": 1894,
      "grande": 1895,
      "##ogo": 1896,
      "##idente": 1897,
      "##úm": 1898,
      "particip": 1899,
      "contra": 1900,
      "##org": 1901,
      "mesmo": 1902,
      "##quia": 1903,
      "##lex": 1904,
      "##ace": 1905,
      "estr": 1906,
      "Rec": 1907,
      "José": 1908,
      "três": 1909,
      "##ate": 1910,
      "clubes": 1911,
      "Guerra": 1912,
      "rus": 1913,
      "nacional": 1914,
      "inter": 1915,
      "principal": 1916,
      "cantora": 1917,
      "Um": 1918,
      "Ne": 1919,
      "vol": 1920,
      "ver": 1921,
      "organiz": 1922,
      "duas": 1923,
      "##oso": 1924,
      "Ge": 1925,
      "##rico": 1926,
      "pos": 1927,
      "##apon": 1928,
      "def": 1929,
      "##jo": 1930,
      "ba": 1931,
      "Universidade": 1932,
      "Esta": 1933,
      "canção": 1934,
      "##eno": 1935,
      "##rias": 1936,
      "atualiz": 1937,
      "##ala": 1938,
      "escrit": 1939,
      "Joh": 1940,
      "Igreja": 1941,
      "tít": 1942,
      "Maria": 1943,
      "##eta": 1944,
      "Th": 1945,
      "suas": 1946,
      "Ac": 1947,
      "Lis": 1948,
      "##ança": 1949,
      "##utos": 1950,
      "fic": 1951,
      "clube": 1952,
      "constru": 1953,
      "Fl": 1954,
      "lín": 1955,
      "pode": 1956,
      "##ural": 1957,
      "190": 1958,
      "af": 1959,
      "##aco": 1960,
      "##ial": 1961,
      "científ": 1962,
      "João": 1963,
      "##rôn": 1964,
      "Ad": 1965,
      "##fia": 1966,
      "grav": 1967,
      "lit": 1968,
      "Mari": 1969,
      "And": 1970,
      "##porada": 1971,
      "Região": 1972,
      "##én": 1973,
      "##oca": 1974,
      "##inda": 1975,
      "num": 1976,
      "atualizadas": 1977,
      "##ice": 1978,
      "Il": 1979,
      "##orta": 1980,
      "Sp": 1981,
      "tod": 1982,
      "##ncias": 1983,
      "ref": 1984,
      "ára": 1985,
      "após": 1986,
      "rio": 1987,
      "##ensão": 1988,
      "##ver": 1989,
      "Pri": 1990,
      "##th": 1991,
      "futebolista": 1992,
      "história": 1993,
      "Bo": 1994,
      "II": 1995,
      "República": 1996,
      "considera": 1997,
      "tip": 1998,
      "##ins": 1999,
      "189": 2000,
      "##enh": 2001,
      "##mes": 2002,
      "profess": 2003,
      "men": 2004,
      "##ime": 2005,
      "##utor": 2006,
      "##ím": 2007,
      "##elação": 2008,
      "japon": 2009,
      "##etos": 2010,
      "##itas": 2011,
      "##ire": 2012,
      "##aris": 2013,
      "sistema": 2014,
      "cul": 2015,
      "##ba": 2016,
      "##boa": 2017,
      "##ornal": 2018,
      "perí": 2019,
      "Ba": 2020,
      "##mel": 2021,
      "filho": 2022,
      "Fre": 2023,
      "territ": 2024,
      "##unto": 2025,
      "Sh": 2026,
      "##ier": 2027,
      "##udo": 2028,
      "depois": 2029,
      "plant": 2030,
      "Lisboa": 2031,
      "31": 2032,
      "##rida": 2033,
      "##tá": 2034,
      "##ago": 2035,
      "Des": 2036,
      "ocorre": 2037,
      "Pr": 2038,
      "final": 2039,
      "árabe": 2040,
      "cu": 2041,
      "geral": 2042,
      "##ód": 2043,
      "local": 2044,
      "##ernacional": 2045,
      "##ons": 2046,
      "##vo": 2047,
      "##pl": 2048,
      "##ível": 2049,
      "##ego": 2050,
      "Possui": 2051,
      "Sil": 2052,
      "##rag": 2053,
      "##eiros": 2054,
      "##ore": 2055,
      "conf": 2056,
      "##íde": 2057,
      "##ações": 2058,
      "constelação": 2059,
      "outros": 2060,
      "##let": 2061,
      "Club": 2062,
      "##ven": 2063,
      "estre": 2064,
      "jogo": 2065,
      "##reira": 2066,
      "Esc": 2067,
      "##ilo": 2068,
      "##ído": 2069,
      "música": 2070,
      "Cast": 2071,
      "##ff": 2072,
      "##ático": 2073,
      "##iel": 2074,
      "##ze": 2075,
      "Sa": 2076,
      "Roma": 2077,
      "Futebol": 2078,
      "poss": 2079,
      "##erc": 2080,
      "##ans": 2081,
      "##lio": 2082,
      "título": 2083,
      "##ka": 2084,
      "empresa": 2085,
      "##mit": 2086,
      "##sia": 2087,
      "##édia": 2088,
      "##osta": 2089,
      "##érica": 2090,
      "##ocia": 2091,
      "##ráf": 2092,
      "the": 2093,
      "Cas": 2094,
      "Au": 2095,
      "histó": 2096,
      "##no": 2097,
      "mundo": 2098,
      "estão": 2099,
      "Porto": 2100,
      "##rat": 2101,
      "progra": 2102,
      "partir": 2103,
      "mon": 2104,
      "ast": 2105,
      "pes": 2106,
      "Estado": 2107,
      "##inho": 2108,
      "populacional": 2109,
      "servi": 2110,
      "terc": 2111,
      "##ph": 2112,
      "nascido": 2113,
      "fal": 2114,
      "russo": 2115,
      "##fo": 2116,
      "período": 2117,
      "mo": 2118,
      "italiano": 2119,
      "origin": 2120,
      "##ack": 2121,
      "Nacional": 2122,
      "Be": 2123,
      "188": 2124,
      "##rol": 2125,
      "##âm": 2126,
      "Oc": 2127,
      "cur": 2128,
      "event": 2129,
      "proc": 2130,
      "et": 2131,
      "ven": 2132,
      "ún": 2133,
      "italiana": 2134,
      "Wil": 2135,
      "temporada": 2136,
      "##igu": 2137,
      "Val": 2138,
      "Reino": 2139,
      "##ônia": 2140,
      "jornal": 2141,
      "Fede": 2142,
      "atriz": 2143,
      "Espanha": 2144,
      "rei": 2145,
      "chamado": 2146,
      "sol": 2147,
      "##rama": 2148,
      "##ímpicos": 2149,
      "cantor": 2150,
      "Imp": 2151,
      "ilha": 2152,
      "arqu": 2153,
      "vezes": 2154,
      "Co": 2155,
      "pequ": 2156,
      "competição": 2157,
      "tur": 2158,
      "##ance": 2159,
      "asc": 2160,
      "portuguesa": 2161,
      "##edade": 2162,
      "disput": 2163,
      "##esta": 2164,
      "bair": 2165,
      "escritor": 2166,
      "vila": 2167,
      "dias": 2168,
      "Cop": 2169,
      "##abel": 2170,
      "##are": 2171,
      "Alem": 2172,
      "##árias": 2173,
      "##ht": 2174,
      "##isco": 2175,
      "anim": 2176,
      "ator": 2177,
      "euro": 2178,
      "Ag": 2179,
      "##bur": 2180,
      "2011": 2181,
      "##rg": 2182,
      "##iões": 2183,
      "For": 2184,
      "começ": 2185,
      "##eleção": 2186,
      "bra": 2187,
      "##amento": 2188,
      "território": 2189,
      "##arac": 2190,
      "En": 2191,
      "##alha": 2192,
      "##cos": 2193,
      "às": 2194,
      "ante": 2195,
      "2008": 2196,
      "Mus": 2197,
      "atrav": 2198,
      "##veis": 2199,
      "inclu": 2200,
      "##ância": 2201,
      "##inas": 2202,
      "##ham": 2203,
      "Pl": 2204,
      "Paris": 2205,
      "##cionais": 2206,
      "elet": 2207,
      "##icl": 2208,
      "##ung": 2209,
      "ainda": 2210,
      "últ": 2211,
      "sing": 2212,
      "##ua": 2213,
      "musical": 2214,
      "receb": 2215,
      "##peu": 2216,
      "Mont": 2217,
      "##ológ": 2218,
      "##oma": 2219,
      "Nat": 2220,
      "gra": 2221,
      "opera": 2222,
      "##GC": 2223,
      "núm": 2224,
      "lig": 2225,
      "##ane": 2226,
      "##one": 2227,
      "##ispo": 2228,
      "²,": 2229,
      "Carl": 2230,
      "##ante": 2231,
      "teve": 2232,
      "femin": 2233,
      "din": 2234,
      "##inado": 2235,
      "##rou": 2236,
      "Rob": 2237,
      "hum": 2238,
      "##ivos": 2239,
      "muito": 2240,
      "espanh": 2241,
      "2012": 2242,
      "##erta": 2243,
      "2016": 2244,
      "termo": 2245,
      "##isa": 2246,
      "##oro": 2247,
      "nasceu": 2248,
      "sign": 2249,
      "militar": 2250,
      "Ed": 2251,
      "NGC": 2252,
      "##eros": 2253,
      "exist": 2254,
      "##itude": 2255,
      "rock": 2256,
      "##ius": 2257,
      "língua": 2258,
      "is": 2259,
      "##ádio": 2260,
      "##quer": 2261,
      "Pal": 2262,
      "irm": 2263,
      "Ang": 2264,
      "2007": 2265,
      "##tas": 2266,
      "##rb": 2267,
      "##ke": 2268,
      "##ólica": 2269,
      "início": 2270,
      "##ece": 2271,
      "##xia": 2272,
      "##ys": 2273,
      "##ft": 2274,
      "##ordo": 2275,
      "##ille": 2276,
      "##rim": 2277,
      "prop": 2278,
      "ju": 2279,
      "fundada": 2280,
      "pint": 2281,
      "Met": 2282,
      "Me": 2283,
      "quatro": 2284,
      "John": 2285,
      "person": 2286,
      "tre": 2287,
      "den": 2288,
      "San": 2289,
      "Americ": 2290,
      "importa": 2291,
      "Gl": 2292,
      "##ências": 2293,
      "professor": 2294,
      "##nto": 2295,
      "av": 2296,
      "##xim": 2297,
      "Tem": 2298,
      "##erna": 2299,
      "compositor": 2300,
      "bar": 2301,
      "ra": 2302,
      "##omb": 2303,
      "atual": 2304,
      "##tivo": 2305,
      "##mb": 2306,
      "divers": 2307,
      "##ese": 2308,
      "##rista": 2309,
      "2018": 2310,
      "origem": 2311,
      "Pat": 2312,
      "América": 2313,
      "Mat": 2314,
      "##mos": 2315,
      "##ama": 2316,
      "##ré": 2317,
      "##riormente": 2318,
      "Ent": 2319,
      "##jeto": 2320,
      "antiga": 2321,
      "inst": 2322,
      "situada": 2323,
      "tipo": 2324,
      "antigo": 2325,
      "Ra": 2326,
      "##dios": 2327,
      "criado": 2328,
      "2021": 2329,
      "horas": 2330,
      "simp": 2331,
      "##uz": 2332,
      "##rial": 2333,
      "##ença": 2334,
      "##ável": 2335,
      "estrel": 2336,
      "##guesia": 2337,
      "galá": 2338,
      "criada": 2339,
      "pessoas": 2340,
      "países": 2341,
      "já": 2342,
      "187": 2343,
      "Ho": 2344,
      "sex": 2345,
      "##cção": 2346,
      "Império": 2347,
      "Aqu": 2348,
      "atualmente": 2349,
      "##tado": 2350,
      "difer": 2351,
      "Sai": 2352,
      "2001": 2353,
      "ge": 2354,
      "del": 2355,
      "2015": 2356,
      "2014": 2357,
      "##cu": 2358,
      "186": 2359,
      "minutos": 2360,
      "Ped": 2361,
      "através": 2362,
      "2013": 2363,
      "pap": 2364,
      "Lond": 2365,
      "##rid": 2366,
      "##ash": 2367,
      "Sua": 2368,
      "centro": 2369,
      "segunda": 2370,
      "Alemanha": 2371,
      "##gent": 2372,
      "2009": 2373,
      "##ânt": 2374,
      "##undos": 2375,
      "Uma": 2376,
      "Mad": 2377,
      "científica": 2378,
      "refer": 2379,
      "##íci": 2380,
      "produzido": 2381,
      "##ann": 2382,
      "##erais": 2383,
      "Mé": 2384,
      "ep": 2385,
      "##ónia": 2386,
      "usado": 2387,
      "lon": 2388,
      "bas": 2389,
      "##ál": 2390,
      "conj": 2391,
      "##ruz": 2392,
      "galáxia": 2393,
      "##ret": 2394,
      "##car": 2395,
      "metros": 2396,
      "déc": 2397,
      "quad": 2398,
      "##ída": 2399,
      "pal": 2400,
      "cir": 2401,
      "simples": 2402,
      "gen": 2403,
      "tor": 2404,
      "constitu": 2405,
      "prod": 2406,
      "2006": 2407,
      "cr": 2408,
      "Bat": 2409,
      "ascensão": 2410,
      "home": 2411,
      "##guns": 2412,
      "##ística": 2413,
      "##ok": 2414,
      "##êmio": 2415,
      "Ela": 2416,
      "##inte": 2417,
      "governo": 2418,
      "##itânia": 2419,
      "inv": 2420,
      "##enn": 2421,
      "2019": 2422,
      "##são": 2423,
      "apro": 2424,
      "equip": 2425,
      "Mart": 2426,
      "possui": 2427,
      "cicl": 2428,
      "Jap": 2429,
      "vida": 2430,
      "morte": 2431,
      "aut": 2432,
      "##íb": 2433,
      "algu": 2434,
      "##quist": 2435,
      "##duz": 2436,
      "Alb": 2437,
      "viv": 2438,
      "##áss": 2439,
      "2004": 2440,
      "ret": 2441,
      "Vi": 2442,
      "cada": 2443,
      "membro": 2444,
      "fe": 2445,
      "##jet": 2446,
      "tempo": 2447,
      "##vio": 2448,
      "Olímpicos": 2449,
      "la": 2450,
      "000": 2451,
      "##uel": 2452,
      "segundos": 2453,
      "##ún": 2454,
      "##lay": 2455,
      "Mic": 2456,
      "jogos": 2457,
      "Copa": 2458,
      "exib": 2459,
      "##into": 2460,
      "Fo": 2461,
      "drama": 2462,
      "ne": 2463,
      "man": 2464,
      "Pra": 2465,
      "##dep": 2466,
      "suc": 2467,
      "Ta": 2468,
      "##linação": 2469,
      "##ise": 2470,
      "oficial": 2471,
      "número": 2472,
      "presidente": 2473,
      "to": 2474,
      "##bi": 2475,
      "XV": 2476,
      "2005": 2477,
      "##pes": 2478,
      "todos": 2479,
      "outras": 2480,
      "britânico": 2481,
      "Mil": 2482,
      "política": 2483,
      "resp": 2484,
      "publicado": 2485,
      "lug": 2486,
      "##tion": 2487,
      "alt": 2488,
      "##den": 2489,
      "rev": 2490,
      "Bl": 2491,
      "Pe": 2492,
      "##lico": 2493,
      "Bu": 2494,
      "Seu": 2495,
      "##bre": 2496,
      "direcção": 2497,
      "mov": 2498,
      "Cons": 2499,
      "antes": 2500,
      "vis": 2501,
      "##ônio": 2502,
      "Carlos": 2503,
      "denom": 2504,
      "flor": 2505,
      "Saint": 2506,
      "pai": 2507,
      "Cap": 2508,
      "##orge": 2509,
      "vários": 2510,
      "##esse": 2511,
      "Pet": 2512,
      "##dic": 2513,
      "então": 2514,
      "campe": 2515,
      "TV": 2516,
      "vers": 2517,
      "##amp": 2518,
      "Ro": 2519,
      "2017": 2520,
      "Alex": 2521,
      "declinação": 2522,
      "Ha": 2523,
      "livro": 2524,
      "##ames": 2525,
      "cal": 2526,
      "carac": 2527,
      "ib": 2528,
      "Comp": 2529,
      "tot": 2530,
      "##rão": 2531,
      "mascul": 2532,
      "realizado": 2533,
      "meio": 2534,
      "##dit": 2535,
      "recta": 2536,
      "##iros": 2537,
      "##yl": 2538,
      "##eix": 2539,
      "Tur": 2540,
      "comédia": 2541,
      "acordo": 2542,
      "apar": 2543,
      "Ingl": 2544,
      "Je": 2545,
      "##ativa": 2546,
      "##rem": 2547,
      "##usa": 2548,
      "##ley": 2549,
      "##dico": 2550,
      "ép": 2551,
      "Este": 2552,
      "eletrôn": 2553,
      "##áb": 2554,
      "##adamente": 2555,
      "##ionais": 2556,
      "##íg": 2557,
      "Mal": 2558,
      "carreira": 2559,
      "pra": 2560,
      "chamada": 2561,
      "emb": 2562,
      "rela": 2563,
      "Londres": 2564,
      "##ár": 2565,
      "espécies": 2566,
      "Du": 2567,
      "Fer": 2568,
      "##sh": 2569,
      "##ili": 2570,
      "##men": 2571,
      "Dav": 2572,
      "##plo": 2573,
      "relig": 2574,
      "presente": 2575,
      "sedi": 2576,
      "univers": 2577,
      "Aust": 2578,
      "##ridade": 2579,
      "começou": 2580,
      "##rios": 2581,
      "Japão": 2582,
      "##dif": 2583,
      "##agn": 2584,
      "185": 2585,
      "##orma": 2586,
      "Mon": 2587,
      "Ter": 2588,
      "2020": 2589,
      "arm": 2590,
      "matem": 2591,
      "##ãos": 2592,
      "Verão": 2593,
      "##gem": 2594,
      "bairro": 2595,
      "##cel": 2596,
      "tota": 2597,
      "totais": 2598,
      "Mac": 2599,
      "and": 2600,
      "##ulher": 2601,
      "Bel": 2602,
      "insetos": 2603,
      "bem": 2604,
      "2025": 2605,
      "##ética": 2606,
      "##ardo": 2607,
      "ide": 2608,
      "tornou": 2609,
      "Nas": 2610,
      "##cl": 2611,
      "##ique": 2612,
      "rep": 2613,
      "principais": 2614,
      "##tes": 2615,
      "Ju": 2616,
      "chin": 2617,
      "Francisco": 2618,
      "Char": 2619,
      "Bro": 2620,
      "Go": 2621,
      "Cont": 2622,
      "##ições": 2623,
      "Hen": 2624,
      "super": 2625,
      "##ingu": 2626,
      "##reg": 2627,
      "##ândia": 2628,
      "##ity": 2629,
      "Itá": 2630,
      "##enha": 2631,
      "##aval": 2632,
      "freguesia": 2633,
      "single": 2634,
      "Med": 2635,
      "##ístico": 2636,
      "ativ": 2637,
      "##agens": 2638,
      "##neio": 2639,
      "melh": 2640,
      "##teros": 2641,
      "50": 2642,
      "ela": 2643,
      "catego": 2644,
      "ordem": 2645,
      "Her": 2646,
      "He": 2647,
      "Santo": 2648,
      "##hões": 2649,
      "2024": 2650,
      "Ste": 2651,
      "Partido": 2652,
      "Calif": 2653,
      "fin": 2654,
      "crist": 2655,
      "desenvolvido": 2656,
      "rot": 2657,
      "planta": 2658,
      "2003": 2659,
      "pat": 2660,
      "encontra": 2661,
      "Ber": 2662,
      "##ole": 2663,
      "seleção": 2664,
      "##ópteros": 2665,
      "##órm": 2666,
      "Ben": 2667,
      "##ney": 2668,
      "natural": 2669,
      "econ": 2670,
      "adv": 2671,
      "##zo": 2672,
      "Paul": 2673,
      "Europa": 2674,
      "equipe": 2675,
      "década": 2676,
      "gén": 2677,
      "1990": 2678,
      "##iais": 2679,
      "##cito": 2680,
      "ol": 2681,
      "Itália": 2682,
      "##metros": 2683,
      "##emas": 2684,
      "##eram": 2685,
      "40": 2686,
      "le": 2687,
      "##ânico": 2688,
      "##icais": 2689,
      "2022": 2690,
      "au": 2691,
      "##ços": 2692,
      "cast": 2693,
      "##aran": 2694,
      "##ect": 2695,
      "podem": 2696,
      "##ork": 2697,
      "##ren": 2698,
      "popular": 2699,
      "tri": 2700,
      "##abe": 2701,
      "utilizado": 2702,
      "cheg": 2703,
      "terceiro": 2704,
      "jogador": 2705,
      "Minas": 2706,
      "Ga": 2707,
      "Dom": 2708,
      "Bas": 2709,
      "New": 2710,
      "##ti": 2711,
      "##eses": 2712,
      "vari": 2713,
      "Pedro": 2714,
      "Sol": 2715,
      "##ioc": 2716,
      "Atu": 2717,
      "##órmula": 2718,
      "##aixa": 2719,
      "##ick": 2720,
      "programa": 2721,
      "ocorreu": 2722,
      "sal": 2723,
      "##arca": 2724,
      "183": 2725,
      "##ást": 2726,
      "##idental": 2727,
      "##onhec": 2728,
      "##amente": 2729,
      "espanhol": 2730,
      "alguns": 2731,
      "Centro": 2732,
      "##aterra": 2733,
      "institu": 2734,
      "Record": 2735,
      "baseado": 2736,
      "ens": 2737,
      "situado": 2738,
      "##ôm": 2739,
      "##erno": 2740,
      "Sc": 2741,
      "época": 2742,
      "Católica": 2743,
      "lev": 2744,
      "##onha": 2745,
      "contin": 2746,
      "2002": 2747,
      "feminino": 2748,
      "Bra": 2749,
      "oficialmente": 2750,
      "jornalista": 2751,
      "##ía": 2752,
      "leg": 2753,
      "sa": 2754,
      "##ight": 2755,
      "##eles": 2756,
      "bat": 2757,
      "##yn": 2758,
      "eram": 2759,
      "japonês": 2760,
      "conjunto": 2761,
      "lugar": 2762,
      "Atl": 2763,
      "Segunda": 2764,
      "Ph": 2765,
      "ps": 2766,
      "##duc": 2767,
      "##cas": 2768,
      "Internacional": 2769,
      "Inglaterra": 2770,
      "púb": 2771,
      "designada": 2772,
      "europeu": 2773,
      "Gra": 2774,
      "evento": 2775,
      "##ile": 2776,
      "fro": 2777,
      "##ts": 2778,
      "próp": 2779,
      "inici": 2780,
      "Af": 2781,
      "Sch": 2782,
      "##abo": 2783,
      "184": 2784,
      "III": 2785,
      "principalmente": 2786,
      "##culos": 2787,
      "mont": 2788,
      "crít": 2789,
      "##ército": 2790,
      "core": 2791,
      "1980": 2792,
      "Fern": 2793,
      "##ori": 2794,
      "Alpes": 2795,
      "Vol": 2796,
      "her": 2797,
      "fundado": 2798,
      "hom": 2799,
      "##ólogo": 2800,
      "memb": 2801,
      "formada": 2802,
      "União": 2803,
      "Terra": 2804,
      "distrib": 2805,
      "fís": 2806,
      "##ure": 2807,
      "neg": 2808,
      "dem": 2809,
      "comer": 2810,
      "prt": 2811,
      "oeste": 2812,
      "quil": 2813,
      "Sen": 2814,
      "guerra": 2815,
      "##ót": 2816,
      "1996": 2817,
      "##ução": 2818,
      "##ya": 2819,
      "##ênio": 2820,
      "##eza": 2821,
      "Har": 2822,
      "vi": 2823,
      "XI": 2824,
      "##issão": 2825,
      "estabel": 2826,
      "torneio": 2827,
      "trad": 2828,
      "##val": 2829,
      "##anas": 2830,
      "##icional": 2831,
      "ata": 2832,
      "1999": 2833,
      "##hi": 2834,
      "Silva": 2835,
      "lí": 2836,
      "Az": 2837,
      "várias": 2838,
      "Gerais": 2839,
      "China": 2840,
      "água": 2841,
      "simplesmente": 2842,
      "ave": 2843,
      "comum": 2844,
      "Arm": 2845,
      "descrita": 2846,
      "Ín": 2847,
      "##ress": 2848,
      "atuava": 2849,
      "Leste": 2850,
      "classe": 2851,
      "##liam": 2852,
      "##fa": 2853,
      "##estiv": 2854,
      "##ilidade": 2855,
      "##wa": 2856,
      "modelo": 2857,
      "##enci": 2858,
      "linha": 2859,
      "##ono": 2860,
      "##ográf": 2861,
      "comunidade": 2862,
      "eng": 2863,
      "##aria": 2864,
      "geralmente": 2865,
      "##form": 2866,
      "##onte": 2867,
      "##frica": 2868,
      "pró": 2869,
      "descob": 2870,
      "Im": 2871,
      "Santos": 2872,
      "op": 2873,
      "William": 2874,
      "##iral": 2875,
      "masculino": 2876,
      "África": 2877,
      "##ebra": 2878,
      "1998": 2879,
      "Crist": 2880,
      "##âne": 2881,
      "##olit": 2882,
      "Mu": 2883,
      "Camp": 2884,
      "dent": 2885,
      "##gar": 2886,
      "divisão": 2887,
      "##ation": 2888,
      "aqu": 2889,
      "##quanto": 2890,
      "comb": 2891,
      "poder": 2892,
      "##écn": 2893,
      "##eiras": 2894,
      "##iam": 2895,
      "##ques": 2896,
      "2023": 2897,
      "Trata": 2898,
      "##iras": 2899,
      "impera": 2900,
      "Alexand": 2901,
      "fab": 2902,
      "##ificação": 2903,
      "##ivas": 2904,
      "Cha": 2905,
      "Dem": 2906,
      "estud": 2907,
      "indi": 2908,
      "incl": 2909,
      "estabelec": 2910,
      "Hol": 2911,
      "Cu": 2912,
      "autoridade": 2913,
      "este": 2914,
      "género": 2915,
      "Polónia": 2916,
      "##ulos": 2917,
      "indep": 2918,
      "1970": 2919,
      "mulher": 2920,
      "##ex": 2921,
      "##hia": 2922,
      "##rando": 2923,
      "especi": 2924,
      "##amo": 2925,
      "##endente": 2926,
      "##reto": 2927,
      "cinema": 2928,
      "nascida": 2929,
      "##ossa": 2930,
      "##ínio": 2931,
      "##iri": 2932,
      "trabalho": 2933,
      "Luís": 2934,
      "originalmente": 2935,
      "##aceae": 2936,
      "estrelado": 2937,
      "##ificado": 2938,
      "Pap": 2939,
      "val": 2940,
      "##gio": 2941,
      "##ck": 2942,
      "romano": 2943,
      "tec": 2944,
      "Prime": 2945,
      "advog": 2946,
      "##ovi": 2947,
      "##ússia": 2948,
      "##órnia": 2949,
      "total": 2950,
      "hav": 2951,
      "Mor": 2952,
      "##vimento": 2953,
      "cinco": 2954,
      "Borg": 2955,
      "povo": 2956,
      "##tou": 2957,
      "Dis": 2958,
      "Pan": 2959,
      "ve": 2960,
      "Califórnia": 2961,
      "Costa": 2962,
      "original": 2963,
      "Ven": 2964,
      "##guas": 2965,
      "##icamente": 2966,
      "realizada": 2967,
      "##ague": 2968,
      "##arin": 2969,
      "produção": 2970,
      "bispo": 2971,
      "escrita": 2972,
      "leste": 2973,
      "trop": 2974,
      "pad": 2975,
      "1988": 2976,
      "milhões": 2977,
      "##xico": 2978,
      "##ónio": 2979,
      "Era": 2980,
      "Pres": 2981,
      "aust": 2982,
      "trabalh": 2983,
      "mult": 2984,
      "aproxim": 2985,
      "##ski": 2986,
      "Ori": 2987,
      "##ontes": 2988,
      "termin": 2989,
      "via": 2990,
      "##fre": 2991,
      "Pi": 2992,
      "Atualmente": 2993,
      "##ville": 2994,
      "pou": 2995,
      "considerado": 2996,
      "##odia": 2997,
      "##inos": 2998,
      "defin": 2999,
      "##orr": 3000,
      "Miss": 3001,
      "##atos": 3002,
      "##ativo": 3003,
      "artista": 3004,
      "1992": 3005,
      "nota": 3006,
      "produzida": 3007,
      "integra": 3008,
      "Liv": 3009,
      "##hão": 3010,
      "assim": 3011,
      "obra": 3012,
      "Wal": 3013,
      "importante": 3014,
      "##gia": 3015,
      "Unido": 3016,
      "quím": 3017,
      "##ícia": 3018,
      "Do": 3019,
      "filha": 3020,
      "britânica": 3021,
      "##maz": 3022,
      "##isó": 3023,
      "ori": 3024,
      "##perior": 3025,
      "##ogra": 3026,
      "##cimento": 3027,
      "pesqu": 3028,
      "longo": 3029,
      "todo": 3030,
      "##ber": 3031,
      "propri": 3032,
      "##rest": 3033,
      "lançada": 3034,
      "Salv": 3035,
      "##ólico": 3036,
      "Ara": 3037,
      "pont": 3038,
      "sur": 3039,
      "Cruz": 3040,
      "##arde": 3041,
      "membros": 3042,
      "Rod": 3043,
      "Dan": 3044,
      "gran": 3045,
      "182": 3046,
      "diretor": 3047,
      "Dist": 3048,
      "romance": 3049,
      "##igos": 3050,
      "inic": 3051,
      "1994": 3052,
      "##ind": 3053,
      "canal": 3054,
      "1997": 3055,
      "campeão": 3056,
      "Que": 3057,
      "prova": 3058,
      "significa": 3059,
      "##inta": 3060,
      "##ipal": 3061,
      "##estival": 3062,
      "1995": 3063,
      "##arto": 3064,
      "categoria": 3065,
      "estru": 3066,
      "100": 3067,
      "32": 3068,
      "##esp": 3069,
      "##quete": 3070,
      "personagem": 3071,
      "direção": 3072,
      "##ington": 3073,
      "ocup": 3074,
      "##ves": 3075,
      "##tar": 3076,
      "1991": 3077,
      "além": 3078,
      "Monte": 3079,
      "real": 3080,
      "desta": 3081,
      "Ior": 3082,
      "rap": 3083,
      "exem": 3084,
      "##ini": 3085,
      "##icação": 3086,
      "##aixo": 3087,
      "Tor": 3088,
      "espiral": 3089,
      "polaco": 3090,
      "cel": 3091,
      "espa": 3092,
      "Gal": 3093,
      "ibne": 3094,
      "##oiv": 3095,
      "episó": 3096,
      "##urgo": 3097,
      "Associa": 3098,
      "##egre": 3099,
      "Oliv": 3100,
      "##ene": 3101,
      "Iorque": 3102,
      "##port": 3103,
      "tradicional": 3104,
      "Casa": 3105,
      "cole": 3106,
      "##para": 3107,
      "sue": 3108,
      "Ban": 3109,
      "##ropolit": 3110,
      "Lou": 3111,
      "edit": 3112,
      "##uí": 3113,
      "##avam": 3114,
      "##ward": 3115,
      "##iocese": 3116,
      "único": 3117,
      "##iou": 3118,
      "Gre": 3119,
      "##ler": 3120,
      "##obo": 3121,
      "##III": 3122,
      "numa": 3123,
      "##una": 3124,
      "##gentina": 3125,
      "35": 3126,
      "##ars": 3127,
      "##ner": 3128,
      "estreia": 3129,
      "##enos": 3130,
      "México": 3131,
      "Munic": 3132,
      "##istro": 3133,
      "##ld": 3134,
      "Vir": 3135,
      "cláss": 3136,
      "Sam": 3137,
      "Mc": 3138,
      "Mas": 3139,
      "há": 3140,
      "ganh": 3141,
      "metal": 3142,
      "Federal": 3143,
      "1993": 3144,
      "lib": 3145,
      "1989": 3146,
      "##gust": 3147,
      "nacionais": 3148,
      "Bol": 3149,
      "prote": 3150,
      "##intes": 3151,
      "##metro": 3152,
      "##rom": 3153,
      "pelas": 3154,
      "Eg": 3155,
      "##ior": 3156,
      "reconhec": 3157,
      "estudo": 3158,
      "Franco": 3159,
      "##antino": 3160,
      "Br": 3161,
      "##ceae": 3162,
      "Clube": 3163,
      "36": 3164,
      "##mina": 3165,
      "internacional": 3166,
      "chinês": 3167,
      "##ech": 3168,
      "1987": 3169,
      "rad": 3170,
      "participou": 3171,
      "Lib": 3172,
      "arte": 3173,
      "social": 3174,
      "##tora": 3175,
      "Gar": 3176,
      "##ky": 3177,
      "junt": 3178,
      "##oivodia": 3179,
      "produtor": 3180,
      "Tom": 3181,
      "All": 3182,
      "##iado": 3183,
      "advogado": 3184,
      "Vila": 3185,
      "##ball": 3186,
      "fontes": 3187,
      "regiões": 3188,
      "##peri": 3189,
      "denomin": 3190,
      "##cer": 3191,
      "escol": 3192,
      "consist": 3193,
      "##elas": 3194,
      "##ãe": 3195,
      "##alácio": 3196,
      "che": 3197,
      "fez": 3198,
      "relação": 3199,
      "movimento": 3200,
      "seja": 3201,
      "##oração": 3202,
      "##use": 3203,
      "ação": 3204,
      "trein": 3205,
      "lim": 3206,
      "uso": 3207,
      "##ético": 3208,
      "especial": 3209,
      "##omia": 3210,
      "Records": 3211,
      "Rev": 3212,
      "1986": 3213,
      "result": 3214,
      "voivodia": 3215,
      "disputada": 3216,
      "alemã": 3217,
      "Canad": 3218,
      "maioria": 3219,
      "fede": 3220,
      "Mag": 3221,
      "lado": 3222,
      "religios": 3223,
      "algumas": 3224,
      "vo": 3225,
      "##cido": 3226,
      "devido": 3227,
      "Sim": 3228,
      "escola": 3229,
      "##ju": 3230,
      "técn": 3231,
      "##reve": 3232,
      "Ir": 3233,
      "Mos": 3234,
      "Ser": 3235,
      "1985": 3236,
      "Loi": 3237,
      "##rança": 3238,
      "disc": 3239,
      "1960": 3240,
      "branc": 3241,
      "primeiros": 3242,
      "##iram": 3243,
      "Di": 3244,
      "Gen": 3245,
      "processo": 3246,
      "Institu": 3247,
      "divid": 3248,
      "recebeu": 3249,
      "transl": 3250,
      "interior": 3251,
      "enquanto": 3252,
      "Liga": 3253,
      "Estação": 3254,
      "incluindo": 3255,
      "palav": 3256,
      "má": 3257,
      "##vid": 3258,
      "Bal": 3259,
      "##how": 3260,
      "##ínc": 3261,
      "##ídeos": 3262,
      "Salvador": 3263,
      "dup": 3264,
      "Ce": 3265,
      "##leta": 3266,
      "Real": 3267,
      "Mel": 3268,
      "médico": 3269,
      "Sou": 3270,
      "##ng": 3271,
      "posição": 3272,
      "##aca": 3273,
      "nobre": 3274,
      "indiv": 3275,
      "Los": 3276,
      "rede": 3277,
      "Aquitânia": 3278,
      "##orme": 3279,
      "fronte": 3280,
      "Div": 3281,
      "partidas": 3282,
      "hoje": 3283,
      "##ificamente": 3284,
      "passou": 3285,
      "público": 3286,
      "ta": 3287,
      "elei": 3288,
      "Rússia": 3289,
      "dados": 3290,
      "##ly": 3291,
      "##astia": 3292,
      "estação": 3293,
      "1982": 3294,
      "Sé": 3295,
      "Bahia": 3296,
      "1976": 3297,
      "seguinte": 3298,
      "Lei": 3299,
      "norm": 3300,
      "##berg": 3301,
      "referi": 3302,
      "mot": 3303,
      "##tt": 3304,
      "corpo": 3305,
      "James": 3306,
      "Dou": 3307,
      "Lin": 3308,
      "##oria": 3309,
      "versão": 3310,
      "US": 3311,
      "##pt": 3312,
      "conquist": 3313,
      "astero": 3314,
      "relacion": 3315,
      "Wor": 3316,
      "fim": 3317,
      "##ônimo": 3318,
      "Prêmio": 3319,
      "Também": 3320,
      "##óf": 3321,
      "der": 3322,
      "Din": 3323,
      "eleito": 3324,
      "Vic": 3325,
      "##rar": 3326,
      "filmes": 3327,
      "Men": 3328,
      "##ecut": 3329,
      "casa": 3330,
      "deri": 3331,
      "##ará": 3332,
      "bot": 3333,
      "##ony": 3334,
      "Res": 3335,
      "1983": 3336,
      "profissionais": 3337,
      "Rib": 3338,
      "##han": 3339,
      "anteriormente": 3340,
      "##wn": 3341,
      "##ipl": 3342,
      "seguintes": 3343,
      "##oral": 3344,
      "lança": 3345,
      "Altos": 3346,
      "181": 3347,
      "ali": 3348,
      "Robert": 3349,
      "esta": 3350,
      "##ento": 3351,
      "##reas": 3352,
      "##tural": 3353,
      "1984": 3354,
      "1972": 3355,
      "alc": 3356,
      "País": 3357,
      "Hist": 3358,
      "Da": 3359,
      "fer": 3360,
      "católico": 3361,
      "Após": 3362,
      "##ivil": 3363,
      "quais": 3364,
      "33": 3365,
      "##orreu": 3366,
      "Er": 3367,
      "camp": 3368,
      "##bl": 3369,
      "estilo": 3370,
      "dentro": 3371,
      "##gos": 3372,
      "##uss": 3373,
      "diferentes": 3374,
      "melhor": 3375,
      "exp": 3376,
      "1979": 3377,
      "##atura": 3378,
      "Borgonha": 3379,
      "##olis": 3380,
      "muitas": 3381,
      "Gran": 3382,
      "espor": 3383,
      "##vér": 3384,
      "canad": 3385,
      "Christ": 3386,
      "Alegre": 3387,
      "instru": 3388,
      "To": 3389,
      "todas": 3390,
      "composta": 3391,
      "deter": 3392,
      "Oh": 3393,
      "##mental": 3394,
      "David": 3395,
      "Índia": 3396,
      "autom": 3397,
      "aproximadamente": 3398,
      "##dores": 3399,
      "mol": 3400,
      "##deste": 3401,
      "##ografia": 3402,
      "especificamente": 3403,
      "empresário": 3404,
      "interpre": 3405,
      "japonesa": 3406,
      "##emia": 3407,
      "papel": 3408,
      "##rí": 3409,
      "##essa": 3410,
      "atua": 3411,
      "rem": 3412,
      "déci": 3413,
      "August": 3414,
      "último": 3415,
      "imperador": 3416,
      "Bur": 3417,
      "Fórmula": 3418,
      "##ood": 3419,
      "##feito": 3420,
      "##agos": 3421,
      "Fa": 3422,
      "##rina": 3423,
      "soci": 3424,
      "desenvolvimento": 3425,
      "organização": 3426,
      "refere": 3427,
      "1981": 3428,
      "cultura": 3429,
      "##endência": 3430,
      "##rique": 3431,
      "##ford": 3432,
      "##ife": 3433,
      "##landês": 3434,
      "##ark": 3435,
      "##age": 3436,
      "Stu": 3437,
      "##by": 3438,
      "Jul": 3439,
      "Mundo": 3440,
      "let": 3441,
      "Hel": 3442,
      "##uk": 3443,
      "composto": 3444,
      "envol": 3445,
      "Marin": 3446,
      "deput": 3447,
      "menos": 3448,
      "maiores": 3449,
      "##ps": 3450,
      "irmão": 3451,
      "Rei": 3452,
      "##porto": 3453,
      "seis": 3454,
      "1975": 3455,
      "mor": 3456,
      "tarde": 3457,
      "##ani": 3458,
      "Const": 3459,
      "##arina": 3460,
      "estim": 3461,
      "sec": 3462,
      "grandes": 3463,
      "Canadá": 3464,
      "##ciais": 3465,
      "##éria": 3466,
      "##omas": 3467,
      "poeta": 3468,
      "caracter": 3469,
      "##ling": 3470,
      "##FA": 3471,
      "IV": 3472,
      "Como": 3473,
      "pintor": 3474,
      "##dições": 3475,
      "alta": 3476,
      "##rimento": 3477,
      "edif": 3478,
      "outro": 3479,
      "41": 3480,
      "Ród": 3481,
      "1978": 3482,
      "Gru": 3483,
      "docu": 3484,
      "##xic": 3485,
      "central": 3486,
      "##án": 3487,
      "ir": 3488,
      "respons": 3489,
      "tex": 3490,
      "##sos": 3491,
      "Super": 3492,
      "Del": 3493,
      "##tus": 3494,
      "freque": 3495,
      "##ordeste": 3496,
      "##omo": 3497,
      "Ródano": 3498,
      "##uição": 3499,
      "Cidade": 3500,
      "artístico": 3501,
      "quarto": 3502,
      "representa": 3503,
      "mãe": 3504,
      "38": 3505,
      "igreja": 3506,
      "Sy": 3507,
      "bo": 3508,
      "projeto": 3509,
      "##ênia": 3510,
      "##rália": 3511,
      "Ros": 3512,
      "##anhia": 3513,
      "unidade": 3514,
      "Set": 3515,
      "ren": 3516,
      "Portugu": 3517,
      "esposa": 3518,
      "42": 3519,
      "My": 3520,
      "World": 3521,
      "45": 3522,
      "altitude": 3523,
      "##quim": 3524,
      "Antônio": 3525,
      "dom": 3526,
      "##letismo": 3527,
      "sediada": 3528,
      "Austrália": 3529,
      "##umb": 3530,
      "compositora": 3531,
      "Central": 3532,
      "poste": 3533,
      "volta": 3534,
      "XX": 3535,
      "##ium": 3536,
      "band": 3537,
      "##iação": 3538,
      "##tual": 3539,
      "Filho": 3540,
      "##cha": 3541,
      "líder": 3542,
      "##eceu": 3543,
      "tal": 3544,
      "34": 3545,
      "##vada": 3546,
      "##orue": 3547,
      "##omp": 3548,
      "novo": 3549,
      "37": 3550,
      "sete": 3551,
      "fol": 3552,
      "##ats": 3553,
      "##icial": 3554,
      "sin": 3555,
      "##ume": 3556,
      "##íl": 3557,
      "Escola": 3558,
      "formado": 3559,
      "sucesso": 3560,
      "jov": 3561,
      "só": 3562,
      "##hael": 3563,
      "fac": 3564,
      "##ux": 3565,
      "##ímpico": 3566,
      "##ximo": 3567,
      "única": 3568,
      "voc": 3569,
      "Manuel": 3570,
      "encontrada": 3571,
      "Dire": 3572,
      "##assa": 3573,
      "1974": 3574,
      "histori": 3575,
      "War": 3576,
      "##don": 3577,
      "##itória": 3578,
      "Alto": 3579,
      "Ci": 3580,
      "##gas": 3581,
      "qualquer": 3582,
      "##ídeo": 3583,
      "##olo": 3584,
      "plan": 3585,
      "substitu": 3586,
      "##ides": 3587,
      "##ânica": 3588,
      "Distrito": 3589,
      "##illa": 3590,
      "Tre": 3591,
      "data": 3592,
      "Tel": 3593,
      "##alo": 3594,
      "plantas": 3595,
      "1973": 3596,
      "Loire": 3597,
      "estava": 3598,
      "cres": 3599,
      "Entre": 3600,
      "indiano": 3601,
      "serviço": 3602,
      "##ish": 3603,
      "Cre": 3604,
      "##ílio": 3605,
      "Jes": 3606,
      "Argentina": 3607,
      "Democ": 3608,
      "##écia": 3609,
      "canadense": 3610,
      "39": 3611,
      "FI": 3612,
      "##âmetro": 3613,
      "havia": 3614,
      "revista": 3615,
      "nível": 3616,
      "##inh": 3617,
      "grupos": 3618,
      "turco": 3619,
      "influ": 3620,
      "##quência": 3621,
      "180": 3622,
      "##conte": 3623,
      "muitos": 3624,
      "##nes": 3625,
      "treinador": 3626,
      "lingu": 3627,
      "construído": 3628,
      "##utador": 3629,
      "gl": 3630,
      "peix": 3631,
      "##rus": 3632,
      "concelho": 3633,
      "determin": 3634,
      "##isl": 3635,
      "##eibol": 3636,
      "ciclista": 3637,
      "inclui": 3638,
      "##ey": 3639,
      "dedic": 3640,
      "Primeira": 3641,
      "sat": 3642,
      "Norm": 3643,
      "1968": 3644,
      "1964": 3645,
      "Ast": 3646,
      "##áp": 3647,
      "##amba": 3648,
      "##esar": 3649,
      "##alh": 3650,
      "##ualmente": 3651,
      "##ónoma": 3652,
      "##íncipe": 3653,
      "##éu": 3654,
      "##ics": 3655,
      "##unha": 3656,
      "asteroide": 3657,
      "60": 3658,
      "Wh": 3659,
      "##ko": 3660,
      "##dução": 3661,
      "Rich": 3662,
      "ensino": 3663,
      "Ou": 3664,
      "##mar": 3665,
      "##cent": 3666,
      "##ker": 3667,
      "##avo": 3668,
      "47": 3669,
      "Estádio": 3670,
      "vel": 3671,
      "sent": 3672,
      "##ones": 3673,
      "Trans": 3674,
      "##ães": 3675,
      "##ensis": 3676,
      "##ks": 3677,
      "têm": 3678,
      "luta": 3679,
      "##ológico": 3680,
      "prom": 3681,
      "##jas": 3682,
      "Ocidental": 3683,
      "Michael": 3684,
      "1977": 3685,
      "##augu": 3686,
      "lançamento": 3687,
      "exemplo": 3688,
      "##vérnia": 3689,
      "Acad": 3690,
      "serviu": 3691,
      "Tr": 3692,
      "##ciado": 3693,
      "publicada": 3694,
      "diversos": 3695,
      "##aga": 3696,
      "Auvérnia": 3697,
      "estrutura": 3698,
      "Arqu": 3699,
      "mesma": 3700,
      "Instituto": 3701,
      "surg": 3702,
      "Novo": 3703,
      "amp": 3704,
      "ambi": 3705,
      "##vado": 3706,
      "mant": 3707,
      "castelh": 3708,
      "##ritos": 3709,
      "músico": 3710,
      "coreano": 3711,
      "objet": 3712,
      "Festival": 3713,
      "##CA": 3714,
      "##isc": 3715,
      "Comun": 3716,
      "##ilv": 3717,
      "##xas": 3718,
      "deix": 3719,
      "##rael": 3720,
      "álbuns": 3721,
      "##peia": 3722,
      "cuja": 3723,
      "##pon": 3724,
      "##íça": 3725,
      "Sec": 3726,
      "Federação": 3727,
      "York": 3728,
      "##órios": 3729,
      "Paran": 3730,
      "Govern": 3731,
      "Loc": 3732,
      "1971": 3733,
      "tent": 3734,
      "engenh": 3735,
      "179": 3736,
      "pequena": 3737,
      "luz": 3738,
      "pré": 3739,
      "eles": 3740,
      "##ulas": 3741,
      "##anças": 3742,
      "##rac": 3743,
      "tro": 3744,
      "1969": 3745,
      "Cin": 3746,
      "##cou": 3747,
      "##uf": 3748,
      "junto": 3749,
      "##old": 3750,
      "dram": 3751,
      "##elmente": 3752,
      "Lat": 3753,
      "Mi": 3754,
      "idade": 3755,
      "Jean": 3756,
      "armas": 3757,
      "##gh": 3758,
      "contro": 3759,
      "Gon": 3760,
      "Ilha": 3761,
      "eletrônico": 3762,
      "ident": 3763,
      "Lo": 3764,
      "autor": 3765,
      "perto": 3766,
      "livre": 3767,
      "Ohio": 3768,
      "##vida": 3769,
      "diversas": 3770,
      "mundial": 3771,
      "sen": 3772,
      "##estre": 3773,
      "##burgo": 3774,
      "Tim": 3775,
      "construção": 3776,
      "##uma": 3777,
      "Angeles": 3778,
      "exibida": 3779,
      "1965": 3780,
      "expres": 3781,
      "##ger": 3782,
      "1950": 3783,
      "corre": 3784,
      "direito": 3785,
      "localiza": 3786,
      "##todo": 3787,
      "dig": 3788,
      "##izado": 3789,
      "campo": 3790,
      "##uais": 3791,
      "Gmina": 3792,
      "pessoa": 3793,
      "##deia": 3794,
      "Oliveira": 3795,
      "##eron": 3796,
      "pron": 3797,
      "##ípios": 3798,
      "Anton": 3799,
      "emiss": 3800,
      "##ji": 3801,
      "1963": 3802,
      "merc": 3803,
      "objeto": 3804,
      "bel": 3805,
      "Ram": 3806,
      "##esc": 3807,
      "SB": 3808,
      "lo": 3809,
      "George": 3810,
      "##ave": 3811,
      "##urso": 3812,
      "##eroporto": 3813,
      "educ": 3814,
      "costa": 3815,
      "terceira": 3816,
      "##osp": 3817,
      "nova": 3818,
      "Suécia": 3819,
      "domin": 3820,
      "##hora": 3821,
      "Cant": 3822,
      "apo": 3823,
      "nomes": 3824,
      "##urais": 3825,
      "gmin": 3826,
      "fabric": 3827,
      "gminy": 3828,
      "##ive": 3829,
      "contam": 3830,
      "Jorge": 3831,
      "estrela": 3832,
      "igu": 3833,
      "1967": 3834,
      "castelhano": 3835,
      "hip": 3836,
      "zona": 3837,
      "Pen": 3838,
      "##iter": 3839,
      "1966": 3840,
      "cargo": 3841,
      "nomeado": 3842,
      "##turas": 3843,
      "capac": 3844,
      "deste": 3845,
      "XIX": 3846,
      "aconte": 3847,
      "##ropolitana": 3848,
      "fronteira": 3849,
      "partido": 3850,
      "possu": 3851,
      "estados": 3852,
      "##ES": 3853,
      "Durante": 3854,
      "comprimento": 3855,
      "1945": 3856,
      "quilô": 3857,
      "##iguel": 3858,
      "Out": 3859,
      "estreou": 3860,
      "ligas": 3861,
      "##usão": 3862,
      "sueco": 3863,
      "##ilh": 3864,
      "teoria": 3865,
      "Não": 3866,
      "##ware": 3867,
      "inaugu": 3868,
      "Está": 3869,
      "most": 3870,
      "44": 3871,
      "##gon": 3872,
      "disputa": 3873,
      "obras": 3874,
      "##eia": 3875,
      "48": 3876,
      "Inc": 3877,
      "##ástica": 3878,
      "Bern": 3879,
      "##dap": 3880,
      "Sub": 3881,
      "##antas": 3882,
      "80": 3883,
      "cujo": 3884,
      "instituição": 3885,
      "43": 3886,
      "##ws": 3887,
      "##uno": 3888,
      "marca": 3889,
      "##ania": 3890,
      "Miguel": 3891,
      "##garo": 3892,
      "ado": 3893,
      "##eph": 3894,
      "Dr": 3895,
      "##ste": 3896,
      "##úst": 3897,
      "##oto": 3898,
      "55": 3899,
      "Marinha": 3900,
      "asso": 3901,
      "Pre": 3902,
      "##áveis": 3903,
      "1962": 3904,
      "Gr": 3905,
      "Oce": 3906,
      "Ao": 3907,
      "West": 3908,
      "##ãs": 3909,
      "##âmara": 3910,
      "Cri": 3911,
      "Papa": 3912,
      "##arra": 3913,
      "dinastia": 3914,
      "Marc": 3915,
      "estádio": 3916,
      "Exército": 3917,
      "##arc": 3918,
      "##ef": 3919,
      "teatro": 3920,
      "##ífico": 3921,
      "Charles": 3922,
      "Grupo": 3923,
      "Jesus": 3924,
      "##eth": 3925,
      "amb": 3926,
      "Jac": 3927,
      "##yle": 3928,
      "caus": 3929,
      "nec": 3930,
      "##melha": 3931,
      "histórica": 3932,
      "Paraná": 3933,
      "##tada": 3934,
      "ficção": 3935,
      "chefe": 3936,
      "Av": 3937,
      "52": 3938,
      "##oroeste": 3939,
      "##iago": 3940,
      "46": 3941,
      "Leg": 3942,
      "Music": 3943,
      "##ival": 3944,
      "Pas": 3945,
      "##rv": 3946,
      "basquete": 3947,
      "##CI": 3948,
      "guitar": 3949,
      "magn": 3950,
      "engenheiro": 3951,
      "ga": 3952,
      "##ntemente": 3953,
      "##ster": 3954,
      "quilômetros": 3955,
      "cidades": 3956,
      "superf": 3957,
      "mac": 3958,
      "##bra": 3959,
      "##itário": 3960,
      "persa": 3961,
      "filhos": 3962,
      "elét": 3963,
      "Sha": 3964,
      "vend": 3965,
      "##eração": 3966,
      "Sist": 3967,
      "##érea": 3968,
      "vivo": 3969,
      "conta": 3970,
      "mudo": 3971,
      "Fernando": 3972,
      "##ies": 3973,
      "resta": 3974,
      "funda": 3975,
      "##asse": 3976,
      "##onas": 3977,
      "última": 3978,
      "##doeste": 3979,
      "##íveis": 3980,
      "livros": 3981,
      "Intern": 3982,
      "superior": 3983,
      "abre": 3984,
      "usada": 3985,
      "austral": 3986,
      "Nic": 3987,
      "resid": 3988,
      "League": 3989,
      "##ilvânia": 3990,
      "##BC": 3991,
      "independente": 3992,
      "ped": 3993,
      "##orth": 3994,
      "Cul": 3995,
      "bi": 3996,
      "##lov": 3997,
      "formação": 3998,
      "Social": 3999,
      "##irm": 4000,
      "##lim": 4001,
      "##arm": 4002,
      "função": 4003,
      "National": 4004,
      "ferro": 4005,
      "mexic": 4006,
      "eventos": 4007,
      "sucess": 4008,
      "##xe": 4009,
      "1961": 4010,
      "inglesa": 4011,
      "invest": 4012,
      "##enda": 4013,
      "funcion": 4014,
      "ec": 4015,
      "##forma": 4016,
      "Globo": 4017,
      "##ring": 4018,
      "##ísticas": 4019,
      "matemático": 4020,
      "70": 4021,
      "distância": 4022,
      "arquite": 4023,
      "##way": 4024,
      "conseg": 4025,
      "vence": 4026,
      "Gro": 4027,
      "Carol": 4028,
      "##lam": 4029,
      "emissora": 4030,
      "equipes": 4031,
      "51": 4032,
      "##asta": 4033,
      "##enov": 4034,
      "Just": 4035,
      "Lima": 4036,
      "hid": 4037,
      "##nta": 4038,
      "##rich": 4039,
      "hebra": 4040,
      "mit": 4041,
      "Jack": 4042,
      "##ester": 4043,
      "##ude": 4044,
      "##sta": 4045,
      "Desde": 4046,
      "Turquia": 4047,
      "Suíça": 4048,
      "matemática": 4049,
      "fica": 4050,
      "##tica": 4051,
      "##ulg": 4052,
      "autónoma": 4053,
      "ating": 4054,
      "##pen": 4055,
      "##uras": 4056,
      "##eias": 4057,
      "execut": 4058,
      "Castelo": 4059,
      "ponto": 4060,
      "António": 4061,
      "tanto": 4062,
      "##ith": 4063,
      "Soci": 4064,
      "pen": 4065,
      "toda": 4066,
      "49": 4067,
      "56": 4068,
      "##aliza": 4069,
      "conv": 4070,
      "isso": 4071,
      "pop": 4072,
      "Wash": 4073,
      "1959": 4074,
      "Bon": 4075,
      "perman": 4076,
      "gêneros": 4077,
      "Catarina": 4078,
      "mic": 4079,
      "##leo": 4080,
      "pouco": 4081,
      "Goi": 4082,
      "pública": 4083,
      "escritora": 4084,
      "Linha": 4085,
      "rádio": 4086,
      "##posta": 4087,
      "##ergia": 4088,
      "##amília": 4089,
      "obs": 4090,
      "Ordem": 4091,
      "##rez": 4092,
      "##ortes": 4093,
      "consiste": 4094,
      "##ídu": 4095,
      "quase": 4096,
      "mud": 4097,
      "##arda": 4098,
      "Parque": 4099,
      "avent": 4100,
      "##ella": 4101,
      "##ield": 4102,
      "quadrin": 4103,
      "58": 4104,
      "##otos": 4105,
      "Ja": 4106,
      "Ob": 4107,
      "embora": 4108,
      "conte": 4109,
      "carece": 4110,
      "Occ": 4111,
      "armênio": 4112,
      "capacidade": 4113,
      "expl": 4114,
      "conce": 4115,
      "Hy": 4116,
      "línguas": 4117,
      "importantes": 4118,
      "general": 4119,
      "ess": 4120,
      "Maio": 4121,
      "Texas": 4122,
      "59": 4123,
      "empre": 4124,
      "estu": 4125,
      "Art": 4126,
      "Brasileiro": 4127,
      "Tour": 4128,
      "reinado": 4129,
      "##ceb": 4130,
      "necess": 4131,
      "Inf": 4132,
      "##ântico": 4133,
      "Além": 4134,
      "Ger": 4135,
      "##gress": 4136,
      "botânico": 4137,
      "53": 4138,
      "##ográfica": 4139,
      "promov": 4140,
      "trata": 4141,
      "Ev": 4142,
      "Mich": 4143,
      "áreas": 4144,
      "##tação": 4145,
      "Washington": 4146,
      "178": 4147,
      "Gré": 4148,
      "##any": 4149,
      "1958": 4150,
      "##igas": 4151,
      "##fic": 4152,
      "##ath": 4153,
      "##aba": 4154,
      "urb": 4155,
      "prec": 4156,
      "##oga": 4157,
      "histórico": 4158,
      "pequeno": 4159,
      "Sér": 4160,
      "##mer": 4161,
      "##arqu": 4162,
      "##iba": 4163,
      "crítica": 4164,
      "corres": 4165,
      "Romana": 4166,
      "coleópteros": 4167,
      "##adeira": 4168,
      "##posição": 4169,
      "dipl": 4170,
      "entanto": 4171,
      "palavra": 4172,
      "ficou": 4173,
      "Pac": 4174,
      "##ésia": 4175,
      "Jer": 4176,
      "##TA": 4177,
      "Gab": 4178,
      "ganhou": 4179,
      "Occitânia": 4180,
      "##orado": 4181,
      "##xo": 4182,
      "personagens": 4183,
      "Form": 4184,
      "st": 4185,
      "son": 4186,
      "Rock": 4187,
      "##sk": 4188,
      "Foot": 4189,
      "Pont": 4190,
      "##gn": 4191,
      "atuou": 4192,
      "Kar": 4193,
      "especializ": 4194,
      "Hu": 4195,
      "tom": 4196,
      "ilhas": 4197,
      "##rigo": 4198,
      "clássico": 4199,
      "##inhos": 4200,
      "##och": 4201,
      "Batalha": 4202,
      "Brasileira": 4203,
      "##cri": 4204,
      "mm": 4205,
      "Atletismo": 4206,
      "##ipél": 4207,
      "científico": 4208,
      "homen": 4209,
      "Geral": 4210,
      "Junho": 4211,
      "Dec": 4212,
      "##itt": 4213,
      "##gue": 4214,
      "Rus": 4215,
      "1940": 4216,
      "##teriz": 4217,
      "##uiu": 4218,
      "roteiro": 4219,
      "órg": 4220,
      "Cur": 4221,
      "##che": 4222,
      "feito": 4223,
      "54": 4224,
      "Fin": 4225,
      "complex": 4226,
      "Amaz": 4227,
      "sus": 4228,
      "##ógra": 4229,
      "##qui": 4230,
      "pt": 4231,
      "Barb": 4232,
      "Pode": 4233,
      "hebraico": 4234,
      "##pira": 4235,
      "##chi": 4236,
      "##ície": 4237,
      "##xima": 4238,
      "Grécia": 4239,
      "Belo": 4240,
      "Associação": 4241,
      "espaço": 4242,
      "romana": 4243,
      "fundador": 4244,
      "VI": 4245,
      "fran": 4246,
      "##rang": 4247,
      "deve": 4248,
      "transmit": 4249,
      "altura": 4250,
      "##erson": 4251,
      "Abril": 4252,
      "lar": 4253,
      "artes": 4254,
      "federal": 4255,
      "##ali": 4256,
      "viol": 4257,
      "##we": 4258,
      "estadual": 4259,
      "##rino": 4260,
      "médio": 4261,
      "cô": 4262,
      "sel": 4263,
      "Depois": 4264,
      "Frank": 4265,
      "##úde": 4266,
      "##ilha": 4267,
      "fict": 4268,
      "Sport": 4269,
      "criação": 4270,
      "##licação": 4271,
      "coloc": 4272,
      "baseada": 4273,
      "Fac": 4274,
      "caso": 4275,
      "az": 4276,
      "##ág": 4277,
      "##áticas": 4278,
      "##ipélago": 4279,
      "Cla": 4280,
      "Gros": 4281,
      "lei": 4282,
      "outra": 4283,
      "ger": 4284,
      "##guai": 4285,
      "terr": 4286,
      "flores": 4287,
      "separa": 4288,
      "dupla": 4289,
      "vide": 4290,
      "##rian": 4291,
      "##deal": 4292,
      "Ásia": 4293,
      "##gens": 4294,
      "##elle": 4295,
      "##its": 4296,
      "aldeia": 4297,
      "filiado": 4298,
      "##oco": 4299,
      "colet": 4300,
      "500": 4301,
      "bac": 4302,
      "##ônica": 4303,
      "##ópolis": 4304,
      "Revol": 4305,
      "##burg": 4306,
      "Dep": 4307,
      "King": 4308,
      "mand": 4309,
      "Egito": 4310,
      "Cou": 4311,
      "##iciais": 4312,
      "1956": 4313,
      "ministro": 4314,
      "cél": 4315,
      "lhe": 4316,
      "##rido": 4317,
      "##ced": 4318,
      "apresenta": 4319,
      "Air": 4320,
      "##xa": 4321,
      "gravadora": 4322,
      "realizados": 4323,
      "indic": 4324,
      "##porte": 4325,
      "1930": 4326,
      "objetivo": 4327,
      "forças": 4328,
      "sudoeste": 4329,
      "Champ": 4330,
      "classific": 4331,
      "##íns": 4332,
      "##estão": 4333,
      "Museu": 4334,
      "responsável": 4335,
      "abs": 4336,
      "##dica": 4337,
      "atrib": 4338,
      "##uldade": 4339,
      "Coreia": 4340,
      "Dia": 4341,
      "Tri": 4342,
      "medi": 4343,
      "contém": 4344,
      "satél": 4345,
      "marin": 4346,
      "##ulares": 4347,
      "Princ": 4348,
      "##ertain": 4349,
      "You": 4350,
      "##dust": 4351,
      "disco": 4352,
      "materi": 4353,
      "##roduz": 4354,
      "Pereira": 4355,
      "Tal": 4356,
      "vice": 4357,
      "##itura": 4358,
      "experi": 4359,
      "##taleza": 4360,
      "Henrique": 4361,
      "terra": 4362,
      "Inv": 4363,
      "1948": 4364,
      "tecn": 4365,
      "noroeste": 4366,
      "##hy": 4367,
      "continu": 4368,
      "1957": 4369,
      "pesquis": 4370,
      "quinto": 4371,
      "Conc": 4372,
      "##uco": 4373,
      "##áce": 4374,
      "afric": 4375,
      "Aç": 4376,
      "##ímbol": 4377,
      "estudos": 4378,
      "anun": 4379,
      "Fel": 4380,
      "equipa": 4381,
      "mulheres": 4382,
      "Pic": 4383,
      "##ory": 4384,
      "Baix": 4385,
      "conhecidos": 4386,
      "##ragem": 4387,
      "##nsul": 4388,
      "campeonato": 4389,
      "##atus": 4390,
      "##tanto": 4391,
      "deputado": 4392,
      "##ínsula": 4393,
      "subt": 4394,
      "1953": 4395,
      "City": 4396,
      "Prov": 4397,
      "animais": 4398,
      "br": 4399,
      "##áticos": 4400,
      "##tera": 4401,
      "naturais": 4402,
      "Ana": 4403,
      "1954": 4404,
      "1943": 4405,
      "Horiz": 4406,
      "Mes": 4407,
      "##anho": 4408,
      "Entertain": 4409,
      "##oviética": 4410,
      "##ires": 4411,
      "##andia": 4412,
      "Quando": 4413,
      "##uri": 4414,
      "Branc": 4415,
      "Mass": 4416,
      "##inhas": 4417,
      "##mentar": 4418,
      "1944": 4419,
      "er": 4420,
      "extre": 4421,
      "Entertainment": 4422,
      "morreu": 4423,
      "##zes": 4424,
      "Popul": 4425,
      "Seleção": 4426,
      "sudeste": 4427,
      "##ubl": 4428,
      "mist": 4429,
      "##endeu": 4430,
      "1946": 4431,
      "participação": 4432,
      "1955": 4433,
      "Ham": 4434,
      "símbol": 4435,
      "##óso": 4436,
      "Ita": 4437,
      "##ites": 4438,
      "bio": 4439,
      "governador": 4440,
      "90": 4441,
      "Ren": 4442,
      "Via": 4443,
      "árv": 4444,
      "quadrinhos": 4445,
      "##ors": 4446,
      "Football": 4447,
      "Jr": 4448,
      "inform": 4449,
      "fazer": 4450,
      "sac": 4451,
      "propriedade": 4452,
      "Tro": 4453,
      "Vis": 4454,
      "##li": 4455,
      "##col": 4456,
      "ouro": 4457,
      "considerada": 4458,
      "57": 4459,
      "Vale": 4460,
      "gal": 4461,
      "Deus": 4462,
      "##fil": 4463,
      "##ológica": 4464,
      "suf": 4465,
      "próprio": 4466,
      "episódios": 4467,
      "##ócia": 4468,
      "Ill": 4469,
      "Dez": 4470,
      "##ói": 4471,
      "Ale": 4472,
      "##ivamente": 4473,
      "telenov": 4474,
      "historiador": 4475,
      "##cante": 4476,
      "Som": 4477,
      "Disney": 4478,
      "liga": 4479,
      "##anta": 4480,
      "##ake": 4481,
      "##pec": 4482,
      "1947": 4483,
      "Tu": 4484,
      "posteriormente": 4485,
      "rodo": 4486,
      "##lândia": 4487,
      "##imos": 4488,
      "##enta": 4489,
      "##ove": 4490,
      "assin": 4491,
      "##estra": 4492,
      "plata": 4493,
      "curso": 4494,
      "Julho": 4495,
      "Neg": 4496,
      "show": 4497,
      "Red": 4498,
      "filóso": 4499,
      "Setembro": 4500,
      "##onst": 4501,
      "cônsul": 4502,
      "Senhora": 4503,
      "##ódigo": 4504,
      "##ântica": 4505,
      "mec": 4506,
      "##50": 4507,
      "compre": 4508,
      "Constitu": 4509,
      "Joseph": 4510,
      "##ricas": 4511,
      "process": 4512,
      "Pens": 4513,
      "Alm": 4514,
      "Dev": 4515,
      "Jun": 4516,
      "Março": 4517,
      "Sistema": 4518,
      "Berlim": 4519,
      "62": 4520,
      "caracteriz": 4521,
      "ten": 4522,
      "##rata": 4523,
      "##oland": 4524,
      "nordeste": 4525,
      "1949": 4526,
      "milit": 4527,
      "##ube": 4528,
      "indivídu": 4529,
      "##tom": 4530,
      "conde": 4531,
      "Bras": 4532,
      "oito": 4533,
      "##igh": 4534,
      "##emat": 4535,
      "Barcel": 4536,
      "Star": 4537,
      "bairros": 4538,
      "físico": 4539,
      "ilust": 4540,
      "navio": 4541,
      "diplom": 4542,
      "Bret": 4543,
      "Net": 4544,
      "pontos": 4545,
      "##uts": 4546,
      "rotei": 4547,
      "esse": 4548,
      "comercial": 4549,
      "jovem": 4550,
      "Hal": 4551,
      "Presidente": 4552,
      "conquistou": 4553,
      "##ublic": 4554,
      "sistemas": 4555,
      "Cy": 4556,
      "Equ": 4557,
      "1941": 4558,
      "Richard": 4559,
      "##cho": 4560,
      "##imin": 4561,
      "Leon": 4562,
      "solo": 4563,
      "Horizonte": 4564,
      "força": 4565,
      "correspon": 4566,
      "##pi": 4567,
      "##odos": 4568,
      "Ali": 4569,
      "Emb": 4570,
      "##arn": 4571,
      "prim": 4572,
      "##estas": 4573,
      "Peru": 4574,
      "Thomas": 4575,
      "##vos": 4576,
      "177": 4577,
      "menor": 4578,
      "Países": 4579,
      "##BA": 4580,
      "alcanç": 4581,
      "##wood": 4582,
      "corrida": 4583,
      "fase": 4584,
      "exército": 4585,
      "long": 4586,
      "1952": 4587,
      "##ridae": 4588,
      "Outubro": 4589,
      "##rados": 4590,
      "popularmente": 4591,
      "estat": 4592,
      "prem": 4593,
      "Martin": 4594,
      "civil": 4595,
      "##dados": 4596,
      "##onso": 4597,
      "##deu": 4598,
      "##TV": 4599,
      "energia": 4600,
      "Jú": 4601,
      "competições": 4602,
      "Vas": 4603,
      "ev": 4604,
      "quem": 4605,
      "orqu": 4606,
      "derro": 4607,
      "edifício": 4608,
      "##abora": 4609,
      "Nossa": 4610,
      "Romano": 4611,
      "pais": 4612,
      "##rick": 4613,
      "Ur": 4614,
      "Agosto": 4615,
      "##my": 4616,
      "##ST": 4617,
      "Park": 4618,
      "Don": 4619,
      "##ricos": 4620,
      "##ates": 4621,
      "##raniano": 4622,
      "organizada": 4623,
      "##írito": 4624,
      "colon": 4625,
      "alto": 4626,
      "eleições": 4627,
      "##ernamb": 4628,
      "##rô": 4629,
      "Academia": 4630,
      "##enção": 4631,
      "catal": 4632,
      "normalmente": 4633,
      "Virg": 4634,
      "##ender": 4635,
      "Han": 4636,
      "##itch": 4637,
      "frequentemente": 4638,
      "64": 4639,
      "##perial": 4640,
      "companhia": 4641,
      "tril": 4642,
      "##idi": 4643,
      "##omé": 4644,
      "interna": 4645,
      "próximo": 4646,
      "Serra": 4647,
      "Cro": 4648,
      "Normandia": 4649,
      "##tamente": 4650,
      "biz": 4651,
      "##ye": 4652,
      "##uros": 4653,
      "CO": 4654,
      "##ega": 4655,
      "##ogue": 4656,
      "ativo": 4657,
      "animação": 4658,
      "Carolina": 4659,
      "signific": 4660,
      "psic": 4661,
      "Divisão": 4662,
      "Mot": 4663,
      "direitos": 4664,
      "von": 4665,
      "peixe": 4666,
      "probl": 4667,
      "grega": 4668,
      "inicialmente": 4669,
      "Novembro": 4670,
      "##ização": 4671,
      "aeron": 4672,
      "##jetos": 4673,
      "Pia": 4674,
      "Europeu": 4675,
      "formato": 4676,
      "susp": 4677,
      "Edu": 4678,
      "cint": 4679,
      "##úl": 4680,
      "##entais": 4681,
      "Sin": 4682,
      "##ett": 4683,
      "Hon": 4684,
      "flu": 4685,
      "vig": 4686,
      "cultural": 4687,
      "mitologia": 4688,
      "1951": 4689,
      "##éis": 4690,
      "end": 4691,
      "On": 4692,
      "##bel": 4693,
      "gravada": 4694,
      "##tante": 4695,
      "##ênis": 4696,
      "cardeal": 4697,
      "1936": 4698,
      "figu": 4699,
      "##cente": 4700,
      "iniciou": 4701,
      "Flo": 4702,
      "Mato": 4703,
      "presid": 4704,
      "sociedade": 4705,
      "palácio": 4706,
      "##icina": 4707,
      "1942": 4708,
      "municípios": 4709,
      "competiu": 4710,
      "##elos": 4711,
      "vocal": 4712,
      "Sab": 4713,
      "##ró": 4714,
      "##ries": 4715,
      "##NA": 4716,
      "##rog": 4717,
      "aventura": 4718,
      "diss": 4719,
      "Sco": 4720,
      "##elado": 4721,
      "##iblio": 4722,
      "Band": 4723,
      "Home": 4724,
      "##encial": 4725,
      "Tow": 4726,
      "We": 4727,
      "##imentos": 4728,
      "##tagon": 4729,
      "Fu": 4730,
      "Gil": 4731,
      "Campo": 4732,
      "##ustria": 4733,
      "EU": 4734,
      "##esas": 4735,
      "acad": 4736,
      "Ru": 4737,
      "ramo": 4738,
      "Luiz": 4739,
      "1939": 4740,
      "décimo": 4741,
      "Nos": 4742,
      "##jos": 4743,
      "partes": 4744,
      "Pom": 4745,
      "##ativas": 4746,
      "##únior": 4747,
      "Bru": 4748,
      "##eratura": 4749,
      "##angue": 4750,
      "altern": 4751,
      "mal": 4752,
      "##itz": 4753,
      "Ko": 4754,
      "Conde": 4755,
      "tropicais": 4756,
      "Fab": 4757,
      "vul": 4758,
      "##rano": 4759,
      "pois": 4760,
      "##ence": 4761,
      "projet": 4762,
      "##ek": 4763,
      "##ânea": 4764,
      "##grama": 4765,
      "especialmente": 4766,
      "##anhas": 4767,
      "##cebispo": 4768,
      "Cab": 4769,
      "##ank": 4770,
      "Conselho": 4771,
      "massa": 4772,
      "assass": 4773,
      "lago": 4774,
      "Flor": 4775,
      "veí": 4776,
      "Daniel": 4777,
      "marc": 4778,
      "elementos": 4779,
      "##ftware": 4780,
      "porém": 4781,
      "rapper": 4782,
      "Fevereiro": 4783,
      "Oriental": 4784,
      "mercado": 4785,
      "indíg": 4786,
      "Israel": 4787,
      "Santiago": 4788,
      "Áustria": 4789,
      "##ull": 4790,
      "Governo": 4791,
      "Oceano": 4792,
      "Alc": 4793,
      "##ensa": 4794,
      "##ácio": 4795,
      "##elli": 4796,
      "Gol": 4797,
      "##ision": 4798,
      "forn": 4799,
      "Recife": 4800,
      "serviços": 4801,
      "editora": 4802,
      "Fló": 4803,
      "disso": 4804,
      "1920": 4805,
      "Sob": 4806,
      "oit": 4807,
      "séculos": 4808,
      "disputado": 4809,
      "##irl": 4810,
      "sempre": 4811,
      "física": 4812,
      "designação": 4813,
      "organizado": 4814,
      "ro": 4815,
      "Enc": 4816,
      "##gica": 4817,
      "histórias": 4818,
      "Baixos": 4819,
      "localidade": 4820,
      "63": 4821,
      "Açores": 4822,
      "Ly": 4823,
      "locais": 4824,
      "amar": 4825,
      "Frede": 4826,
      "legisl": 4827,
      "fu": 4828,
      "175": 4829,
      "padrão": 4830,
      "Faz": 4831,
      "##att": 4832,
      "Trabal": 4833,
      "mediev": 4834,
      "protagon": 4835,
      "##dy": 4836,
      "##óm": 4837,
      "##ilizado": 4838,
      "descoberto": 4839,
      "Municipal": 4840,
      "Portuguesa": 4841,
      "Flórida": 4842,
      "esquer": 4843,
      "##gentino": 4844,
      "##íria": 4845,
      "##portivo": 4846,
      "média": 4847,
      "revol": 4848,
      "##posit": 4849,
      "##ospital": 4850,
      "forte": 4851,
      "uc": 4852,
      "##idad": 4853,
      "Louis": 4854,
      "franquia": 4855,
      "Cle": 4856,
      "##ác": 4857,
      "Mun": 4858,
      "Soviética": 4859,
      "longa": 4860,
      "Cabo": 4861,
      "cos": 4862,
      "Bretanha": 4863,
      "melhores": 4864,
      "chegou": 4865,
      "distribuição": 4866,
      "Abu": 4867,
      "classificação": 4868,
      "confl": 4869,
      "Play": 4870,
      "##tivas": 4871,
      "atacante": 4872,
      "som": 4873,
      "telenovela": 4874,
      "Mais": 4875,
      "cart": 4876,
      "##ácia": 4877,
      "##els": 4878,
      "##las": 4879,
      "Aires": 4880,
      "seria": 4881,
      "Rede": 4882,
      "##tivos": 4883,
      "André": 4884,
      "pesquisa": 4885,
      "##jam": 4886,
      "políf": 4887,
      "ocidental": 4888,
      "1938": 4889,
      "diz": 4890,
      "militares": 4891,
      "##ny": 4892,
      "extensão": 4893,
      "Pernamb": 4894,
      "Sousa": 4895,
      "Cer": 4896,
      "Ep": 4897,
      "adap": 4898,
      "##resso": 4899,
      "organ": 4900,
      "particular": 4901,
      "EUA": 4902,
      "##ália": 4903,
      "aplic": 4904,
      "Phil": 4905,
      "redor": 4906,
      "formas": 4907,
      "quanto": 4908,
      "polífagos": 4909,
      "tam": 4910,
      "Ka": 4911,
      "PS": 4912,
      "##oles": 4913,
      "igual": 4914,
      "ru": 4915,
      "Marco": 4916,
      "##ógrafo": 4917,
      "Dezembro": 4918,
      "voleibol": 4919,
      "Let": 4920,
      "##zy": 4921,
      "termos": 4922,
      "Alexandre": 4923,
      "Câmara": 4924,
      "Fal": 4925,
      "Son": 4926,
      "##ecion": 4927,
      "##avelmente": 4928,
      "##rup": 4929,
      "Sk": 4930,
      "prat": 4931,
      "Antonio": 4932,
      "time": 4933,
      "1935": 4934,
      "opin": 4935,
      "terminou": 4936,
      "Pier": 4937,
      "Sac": 4938,
      "##AS": 4939,
      "estrada": 4940,
      "Ku": 4941,
      "Sat": 4942,
      "##urg": 4943,
      "Alme": 4944,
      "Democr": 4945,
      "##une": 4946,
      "utilizada": 4947,
      "Escócia": 4948,
      "juntamente": 4949,
      "document": 4950,
      "superfície": 4951,
      "Award": 4952,
      "Come": 4953,
      "##íba": 4954,
      "homem": 4955,
      "lep": 4956,
      "##bert": 4957,
      "Joa": 4958,
      "Camb": 4959,
      "Fri": 4960,
      "##melho": 4961,
      "eletrônicos": 4962,
      "veloc": 4963,
      "filósofo": 4964,
      "##ider": 4965,
      "Coll": 4966,
      "Ilhas": 4967,
      "Seb": 4968,
      "Opera": 4969,
      "associa": 4970,
      "Cara": 4971,
      "Mou": 4972,
      "Black": 4973,
      "química": 4974,
      "branco": 4975,
      "##ulado": 4976,
      "##obil": 4977,
      "Ferreira": 4978,
      "Barcelona": 4979,
      "##uba": 4980,
      "##emble": 4981,
      "viveu": 4982,
      "sediado": 4983,
      "##angul": 4984,
      "trib": 4985,
      "##ream": 4986,
      "##igue": 4987,
      "##mann": 4988,
      "Ib": 4989,
      "Var": 4990,
      "quarta": 4991,
      "Guil": 4992,
      "##ket": 4993,
      "##radas": 4994,
      "##iat": 4995,
      "##osofia": 4996,
      "##riano": 4997,
      "##sto": 4998,
      "##icações": 4999,
      "relações": 5000,
      "dança": 5001,
      "reun": 5002,
      "##órias": 5003,
      "Peter": 5004,
      "satélite": 5005,
      "si": 5006,
      "##itado": 5007,
      "Ferro": 5008,
      "Si": 5009,
      "Leão": 5010,
      "homens": 5011,
      "retorn": 5012,
      "trabalhou": 5013,
      "67": 5014,
      "##ávia": 5015,
      "##dora": 5016,
      "Augusto": 5017,
      "Ok": 5018,
      "##íc": 5019,
      "##alização": 5020,
      "neer": 5021,
      "Eles": 5022,
      "##atório": 5023,
      "65": 5024,
      "Kh": 5025,
      "anual": 5026,
      "##endário": 5027,
      "curta": 5028,
      "episódio": 5029,
      "abrevi": 5030,
      "##cios": 5031,
      "##ova": 5032,
      "municipal": 5033,
      "ocor": 5034,
      "somente": 5035,
      "Vel": 5036,
      "dado": 5037,
      "polon": 5038,
      "176": 5039,
      "capít": 5040,
      "1933": 5041,
      "Eng": 5042,
      "##mens": 5043,
      "##ídia": 5044,
      "##eca": 5045,
      "1937": 5046,
      "Vitória": 5047,
      "eta": 5048,
      "estimada": 5049,
      "homenagem": 5050,
      "Chile": 5051,
      "##istério": 5052,
      "##field": 5053,
      "acab": 5054,
      "Exist": 5055,
      "Grosso": 5056,
      "Indi": 5057,
      "digital": 5058,
      "##inois": 5059,
      "liter": 5060,
      "##quistão": 5061,
      "Pensilvânia": 5062,
      "##eus": 5063,
      "##uso": 5064,
      "Maomé": 5065,
      "oficiais": 5066,
      "Gom": 5067,
      "ban": 5068,
      "##oll": 5069,
      "sét": 5070,
      "EP": 5071,
      "dá": 5072,
      "##isto": 5073,
      "##roso": 5074,
      "Ess": 5075,
      "artigo": 5076,
      "infant": 5077,
      "doença": 5078,
      "##teca": 5079,
      "##rismo": 5080,
      "program": 5081,
      "circ": 5082,
      "Oeste": 5083,
      "cabe": 5084,
      "artística": 5085,
      "Lee": 5086,
      "##ocha": 5087,
      "##feitura": 5088,
      "##mon": 5089,
      "##landesa": 5090,
      "Ponte": 5091,
      "Ceará": 5092,
      "bus": 5093,
      "##ecido": 5094,
      "##ervação": 5095,
      "Duque": 5096,
      "olímpico": 5097,
      "CB": 5098,
      "##ícias": 5099,
      "produtos": 5100,
      "Illinois": 5101,
      "1934": 5102,
      "medalha": 5103,
      "Arena": 5104,
      "Fun": 5105,
      "atividades": 5106,
      "##ncio": 5107,
      "Pod": 5108,
      "##style": 5109,
      "##ami": 5110,
      "CD": 5111,
      "arque": 5112,
      "##ianos": 5113,
      "empresas": 5114,
      "Constantino": 5115,
      "##tur": 5116,
      "Isabel": 5117,
      "fra": 5118,
      "##lue": 5119,
      "##inação": 5120,
      "##letas": 5121,
      "resultado": 5122,
      "##ústria": 5123,
      "##arte": 5124,
      "feita": 5125,
      "orb": 5126,
      "Buenos": 5127,
      "Fortaleza": 5128,
      "espanhola": 5129,
      "Americanos": 5130,
      "##restling": 5131,
      "##ator": 5132,
      "##reveu": 5133,
      "terror": 5134,
      "##iclo": 5135,
      "Bad": 5136,
      "##MA": 5137,
      "##din": 5138,
      "##zi": 5139,
      "##rono": 5140,
      "Palácio": 5141,
      "Coi": 5142,
      "Mod": 5143,
      "##óqu": 5144,
      "##rais": 5145,
      "exibido": 5146,
      "##umente": 5147,
      "homônimo": 5148,
      "61": 5149,
      "Lago": 5150,
      "##teve": 5151,
      "econôm": 5152,
      "##espéci": 5153,
      "mudou": 5154,
      "conceito": 5155,
      "66": 5156,
      "provas": 5157,
      "Paral": 5158,
      "Mik": 5159,
      "bol": 5160,
      "Les": 5161,
      "##olf": 5162,
      "##ecer": 5163,
      "##embleia": 5164,
      "Li": 5165,
      "Tam": 5166,
      "not": 5167,
      "irmãos": 5168,
      "##pas": 5169,
      "##com": 5170,
      "ofer": 5171,
      "subespéci": 5172,
      "Fe": 5173,
      "Port": 5174,
      "May": 5175,
      "68": 5176,
      "Cra": 5177,
      "Júnior": 5178,
      "##hu": 5179,
      "##óvia": 5180,
      "##iné": 5181,
      "primeiras": 5182,
      "prêmio": 5183,
      "Mer": 5184,
      "##utou": 5185,
      "anterior": 5186,
      "##éus": 5187,
      "holand": 5188,
      "##anus": 5189,
      "##andid": 5190,
      "FIFA": 5191,
      "##landa": 5192,
      "##ational": 5193,
      "mang": 5194,
      "dispon": 5195,
      "magnitude": 5196,
      "fen": 5197,
      "Champion": 5198,
      "Ot": 5199,
      "Vill": 5200,
      "##enhor": 5201,
      "príncipe": 5202,
      "1929": 5203,
      "##rigues": 5204,
      "##ferência": 5205,
      "Van": 5206,
      "##ardim": 5207,
      "anf": 5208,
      "quant": 5209,
      "Roberto": 5210,
      "##onia": 5211,
      "hún": 5212,
      "##riores": 5213,
      "professora": 5214,
      "evol": 5215,
      "##urt": 5216,
      "argentino": 5217,
      "Auto": 5218,
      "Cir": 5219,
      "##itão": 5220,
      "Bre": 5221,
      "##erb": 5222,
      "nativa": 5223,
      "Zona": 5224,
      "##TP": 5225,
      "medieval": 5226,
      "fundo": 5227,
      "tênis": 5228,
      "estadounidense": 5229,
      "Mary": 5230,
      "introduz": 5231,
      "torno": 5232,
      "71": 5233,
      "##erva": 5234,
      "##encia": 5235,
      "meados": 5236,
      "vídeo": 5237,
      "comumente": 5238,
      "arquipélago": 5239,
      "eg": 5240,
      "faixa": 5241,
      "##grafia": 5242,
      "display": 5243,
      "plataforma": 5244,
      "destac": 5245,
      "características": 5246,
      "Seri": 5247,
      "Bos": 5248,
      "##élia": 5249,
      "##cip": 5250,
      "##fede": 5251,
      "Polônia": 5252,
      "humanos": 5253,
      "comunicação": 5254,
      "Espírito": 5255,
      "XVIII": 5256,
      "Paulista": 5257,
      "Corn": 5258,
      "roteirista": 5259,
      "dA": 5260,
      "##amarqu": 5261,
      "antigas": 5262,
      "Grand": 5263,
      "UF": 5264,
      "excl": 5265,
      "Prof": 5266,
      "##ixo": 5267,
      "Município": 5268,
      "75": 5269,
      "##icion": 5270,
      "controle": 5271,
      "1932": 5272,
      "associ": 5273,
      "Aeroporto": 5274,
      "bil": 5275,
      "antigos": 5276,
      "corresponde": 5277,
      "assum": 5278,
      "fórmula": 5279,
      "##itular": 5280,
      "##enças": 5281,
      "##entemente": 5282,
      "##ship": 5283,
      "Sel": 5284,
      "Comics": 5285,
      "guitarrista": 5286,
      "displaystyle": 5287,
      "Sta": 5288,
      "UN": 5289,
      "diâmetro": 5290,
      "permit": 5291,
      "Ni": 5292,
      "Pernambuco": 5293,
      "Norue": 5294,
      "##tico": 5295,
      "##úncia": 5296,
      "serv": 5297,
      "prefeito": 5298,
      "00": 5299,
      "Inter": 5300,
      "contem": 5301,
      "distribu": 5302,
      "Almeida": 5303,
      "Femin": 5304,
      "Yo": 5305,
      "lic": 5306,
      "##feri": 5307,
      "Hill": 5308,
      "##lah": 5309,
      "Seus": 5310,
      "estações": 5311,
      "Arg": 5312,
      "aberto": 5313,
      "História": 5314,
      "Mach": 5315,
      "anualmente": 5316,
      "##ansas": 5317,
      "##ícios": 5318,
      "Rodrigues": 5319,
      "Vo": 5320,
      "Vin": 5321,
      "construída": 5322,
      "##urus": 5323,
      "metade": 5324,
      "Patrim": 5325,
      "Roy": 5326,
      "It": 5327,
      "terrest": 5328,
      "##ráfico": 5329,
      "bal": 5330,
      "instal": 5331,
      "Direito": 5332,
      "Popular": 5333,
      "lepid": 5334,
      "North": 5335,
      "bl": 5336,
      "Cristo": 5337,
      "nenh": 5338,
      "##vão": 5339,
      "subst": 5340,
      "frente": 5341,
      "própria": 5342,
      "Lú": 5343,
      "##çu": 5344,
      "##ecto": 5345,
      "desem": 5346,
      "funções": 5347,
      "Madrid": 5348,
      "prot": 5349,
      "apel": 5350,
      "Bor": 5351,
      "##ette": 5352,
      "parque": 5353,
      "Luis": 5354,
      "##eni": 5355,
      "atleta": 5356,
      "Campos": 5357,
      "foto": 5358,
      "Maj": 5359,
      "causa": 5360,
      "Maran": 5361,
      "fantas": 5362,
      "##enne": 5363,
      "Abd": 5364,
      "Sara": 5365,
      "##quina": 5366,
      "vir": 5367,
      "##culas": 5368,
      "1926": 5369,
      "gradu": 5370,
      "células": 5371,
      "Castro": 5372,
      "##edades": 5373,
      "##ione": 5374,
      "69": 5375,
      "Mend": 5376,
      "pertenc": 5377,
      "Alberto": 5378,
      "órgão": 5379,
      "sab": 5380,
      "arcebispo": 5381,
      "casamento": 5382,
      "##esis": 5383,
      "##alidade": 5384,
      "##oli": 5385,
      "usando": 5386,
      "##abilidade": 5387,
      "ang": 5388,
      "desenh": 5389,
      "cruz": 5390,
      "código": 5391,
      "essa": 5392,
      "72": 5393,
      "##ociais": 5394,
      "Angola": 5395,
      "sp": 5396,
      "##ni": 5397,
      "##range": 5398,
      "##órgia": 5399,
      "químico": 5400,
      "tipos": 5401,
      "lepidópteros": 5402,
      "Sem": 5403,
      "barrada": 5404,
      "conhecidas": 5405,
      "##endentes": 5406,
      "1928": 5407,
      "1924": 5408,
      "candid": 5409,
      "vem": 5410,
      "##ére": 5411,
      "##ertura": 5412,
      "denominação": 5413,
      "##ère": 5414,
      "##ancha": 5415,
      "XVI": 5416,
      "cores": 5417,
      "tempera": 5418,
      "Verde": 5419,
      "Mov": 5420,
      "##dão": 5421,
      "##oph": 5422,
      "Irlanda": 5423,
      "##eios": 5424,
      "##ritiba": 5425,
      "##ônico": 5426,
      "literatura": 5427,
      "etc": 5428,
      "##mbia": 5429,
      "belga": 5430,
      "##feitos": 5431,
      "##uração": 5432,
      "Company": 5433,
      "gente": 5434,
      "##inga": 5435,
      "estudou": 5436,
      "Hum": 5437,
      "Lor": 5438,
      "##isões": 5439,
      "rainha": 5440,
      "aux": 5441,
      "absol": 5442,
      "400": 5443,
      "Fora": 5444,
      "Hot": 5445,
      "estilizado": 5446,
      "pintura": 5447,
      "##rov": 5448,
      "peça": 5449,
      "Cari": 5450,
      "Caval": 5451,
      "meses": 5452,
      "Metropolitana": 5453,
      "##oa": 5454,
      "Apesar": 5455,
      "Bill": 5456,
      "cm": 5457,
      "##bon": 5458,
      "##stein": 5459,
      "Mai": 5460,
      "Ps": 5461,
      "lut": 5462,
      "##pete": 5463,
      "Ouro": 5464,
      "Brasília": 5465,
      "nove": 5466,
      "##âmica": 5467,
      "valor": 5468,
      "caval": 5469,
      "##ardia": 5470,
      "##iny": 5471,
      "unidades": 5472,
      "##mbra": 5473,
      "ativista": 5474,
      "Ke": 5475,
      "Pass": 5476,
      "Sing": 5477,
      "##rônomo": 5478,
      "Mora": 5479,
      "deus": 5480,
      "opiniões": 5481,
      "baixa": 5482,
      "##etas": 5483,
      "paral": 5484,
      "##ross": 5485,
      "##lamento": 5486,
      "##mith": 5487,
      "subtrop": 5488,
      "Bil": 5489,
      "##idiocese": 5490,
      "logo": 5491,
      "Def": 5492,
      "Carval": 5493,
      "##ump": 5494,
      "##iloto": 5495,
      "##ílias": 5496,
      "98": 5497,
      "Hung": 5498,
      "##edral": 5499,
      "Nav": 5500,
      "universidade": 5501,
      "Catal": 5502,
      "Colô": 5503,
      "Pará": 5504,
      "Geórgia": 5505,
      "Bot": 5506,
      "##kh": 5507,
      "resul": 5508,
      "Força": 5509,
      "orden": 5510,
      "Ric": 5511,
      "lidera": 5512,
      "anál": 5513,
      "1927": 5514,
      "Europeia": 5515,
      "##utação": 5516,
      "Henry": 5517,
      "deu": 5518,
      "##tero": 5519,
      "##viv": 5520,
      "##div": 5521,
      "77": 5522,
      "ef": 5523,
      "Alta": 5524,
      "comuns": 5525,
      "##égio": 5526,
      "Edward": 5527,
      "respec": 5528,
      "cristã": 5529,
      "expressão": 5530,
      "perm": 5531,
      "subf": 5532,
      "texto": 5533,
      "International": 5534,
      "Colômbia": 5535,
      "Bab": 5536,
      "mari": 5537,
      "##inental": 5538,
      "##usto": 5539,
      "1931": 5540,
      "##ucle": 5541,
      "rome": 5542,
      "##ów": 5543,
      "##amarca": 5544,
      "decl": 5545,
      "desenvolve": 5546,
      "dinamarqu": 5547,
      "##enharia": 5548,
      "Uc": 5549,
      "Cos": 5550,
      "FC": 5551,
      "Pir": 5552,
      "##ple": 5553,
      "Noruega": 5554,
      "##zer": 5555,
      "ciência": 5556,
      "##óvel": 5557,
      "policial": 5558,
      "Essa": 5559,
      "provavelmente": 5560,
      "joga": 5561,
      "transporte": 5562,
      "1919": 5563,
      "pseu": 5564,
      "fav": 5565,
      "##30": 5566,
      "Eduardo": 5567,
      "##iça": 5568,
      "##erdo": 5569,
      "American": 5570,
      "##óis": 5571,
      "carn": 5572,
      "cha": 5573,
      "Sev": 5574,
      "Mark": 5575,
      "modo": 5576,
      "##ery": 5577,
      "esportivo": 5578,
      "incor": 5579,
      "suspense": 5580,
      "van": 5581,
      "##ovo": 5582,
      "Venez": 5583,
      "1922": 5584,
      "##élio": 5585,
      "Pacífico": 5586,
      "árvore": 5587,
      "##aza": 5588,
      "##emburgo": 5589,
      "##âneo": 5590,
      "Inte": 5591,
      "museu": 5592,
      "produtora": 5593,
      "assist": 5594,
      "ampla": 5595,
      "sexo": 5596,
      "egíp": 5597,
      "Ti": 5598,
      "Natal": 5599,
      "##rel": 5600,
      "##êmica": 5601,
      "quiló": 5602,
      "be": 5603,
      "trabalha": 5604,
      "Gonç": 5605,
      "Uru": 5606,
      "norue": 5607,
      "##ôme": 5608,
      "batalha": 5609,
      "Moscou": 5610,
      "emp": 5611,
      "##istão": 5612,
      "##menta": 5613,
      "transm": 5614,
      "##ótico": 5615,
      "Mill": 5616,
      "92": 5617,
      "Nev": 5618,
      "samba": 5619,
      "Superior": 5620,
      "sentido": 5621,
      "Bi": 5622,
      "Ve": 5623,
      "##quele": 5624,
      "##obal": 5625,
      "88": 5626,
      "##ings": 5627,
      "##ércio": 5628,
      "Gabri": 5629,
      "Coimbra": 5630,
      "##óquio": 5631,
      "Gomes": 5632,
      "##ston": 5633,
      "Andre": 5634,
      "##vas": 5635,
      "150": 5636,
      "Cés": 5637,
      "tradição": 5638,
      "traças": 5639,
      "lançou": 5640,
      "desenho": 5641,
      "eleição": 5642,
      "Sebast": 5643,
      "##nd": 5644,
      "##pia": 5645,
      "##arem": 5646,
      "##ultura": 5647,
      "Carn": 5648,
      "possível": 5649,
      "Curitiba": 5650,
      "sequência": 5651,
      "Stre": 5652,
      "1918": 5653,
      "##bia": 5654,
      "ambos": 5655,
      "##éia": 5656,
      "promo": 5657,
      "Juan": 5658,
      "atividade": 5659,
      "Britân": 5660,
      "reino": 5661,
      "denominado": 5662,
      "exclus": 5663,
      "Cel": 5664,
      "mam": 5665,
      "sig": 5666,
      "##ulação": 5667,
      "##ater": 5668,
      "intel": 5669,
      "educação": 5670,
      "Pel": 5671,
      "hangul": 5672,
      "##ii": 5673,
      "##izada": 5674,
      "econom": 5675,
      "Faculdade": 5676,
      "Rosa": 5677,
      "aj": 5678,
      "cine": 5679,
      "comanda": 5680,
      "dif": 5681,
      "mag": 5682,
      "referência": 5683,
      "##crição": 5684,
      "baixo": 5685,
      "1921": 5686,
      "99": 5687,
      "##dias": 5688,
      "Aut": 5689,
      "bandeira": 5690,
      "Rad": 5691,
      "##pla": 5692,
      "##enz": 5693,
      "computador": 5694,
      "músicas": 5695,
      "piloto": 5696,
      "sexto": 5697,
      "suced": 5698,
      "chamados": 5699,
      "Nint": 5700,
      "##su": 5701,
      "##imas": 5702,
      "florestas": 5703,
      "Joaquim": 5704,
      "##10": 5705,
      "Branco": 5706,
      "Rog": 5707,
      "Estad": 5708,
      "Not": 5709,
      "abertura": 5710,
      "títulos": 5711,
      "automobil": 5712,
      "Província": 5713,
      "votos": 5714,
      "##mea": 5715,
      "##enco": 5716,
      "##itor": 5717,
      "seri": 5718,
      "desenvolvida": 5719,
      "##elândia": 5720,
      "Guiné": 5721,
      "software": 5722,
      "extinta": 5723,
      "##ridge": 5724,
      "economia": 5725,
      "300": 5726,
      "Tóquio": 5727,
      "Windo": 5728,
      "Assembleia": 5729,
      "Dinamarca": 5730,
      "Idade": 5731,
      "1925": 5732,
      "incluem": 5733,
      "basquetebol": 5734,
      "distritos": 5735,
      "82": 5736,
      "indústria": 5737,
      "Viena": 5738,
      "Got": 5739,
      "##xto": 5740,
      "##adrez": 5741,
      "##egas": 5742,
      "##aka": 5743,
      "##ureza": 5744,
      "quilómetros": 5745,
      "administração": 5746,
      "Lev": 5747,
      "##iso": 5748,
      "espect": 5749,
      "##rever": 5750,
      "disposit": 5751,
      "presença": 5752,
      "Nintendo": 5753,
      "GC": 5754,
      "rios": 5755,
      "74": 5756,
      "Ak": 5757,
      "Aven": 5758,
      "IB": 5759,
      "Nasceu": 5760,
      "78": 5761,
      "varia": 5762,
      "##icado": 5763,
      "Militar": 5764,
      "Embora": 5765,
      "##wan": 5766,
      "##ush": 5767,
      "##ciou": 5768,
      "Plan": 5769,
      "senador": 5770,
      "08": 5771,
      "##riamente": 5772,
      "subs": 5773,
      "peso": 5774,
      "Love": 5775,
      "##úc": 5776,
      "##eck": 5777,
      "##avi": 5778,
      "informa": 5779,
      "Esse": 5780,
      "saúde": 5781,
      "South": 5782,
      "Ribeiro": 5783,
      "Championship": 5784,
      "Dio": 5785,
      "##ronze": 5786,
      "Georg": 5787,
      "lutador": 5788,
      "##ct": 5789,
      "##cão": 5790,
      "##media": 5791,
      "##eim": 5792,
      "##alizado": 5793,
      "encontrado": 5794,
      "classificado": 5795,
      "##melh": 5796,
      "surgiu": 5797,
      "##ipo": 5798,
      "exerc": 5799,
      "canções": 5800,
      "##cula": 5801,
      "inspira": 5802,
      "César": 5803,
      "Gi": 5804,
      "toc": 5805,
      "##umin": 5806,
      "transform": 5807,
      "Afonso": 5808,
      "##visão": 5809,
      "investig": 5810,
      "FM": 5811,
      "cóp": 5812,
      "habitats": 5813,
      "Ann": 5814,
      "acesso": 5815,
      "metragem": 5816,
      "bastante": 5817,
      "Sur": 5818,
      "agora": 5819,
      "prática": 5820,
      "XVII": 5821,
      "##viária": 5822,
      "Trib": 5823,
      "Chica": 5824,
      "##cuito": 5825,
      "96": 5826,
      "Aten": 5827,
      "##yr": 5828,
      "##ati": 5829,
      "##iveram": 5830,
      "indust": 5831,
      "##ursos": 5832,
      "Canção": 5833,
      "Existem": 5834,
      "##ilar": 5835,
      "##unes": 5836,
      "existe": 5837,
      "##cess": 5838,
      "azul": 5839,
      "cabeça": 5840,
      "Melh": 5841,
      "ucraniano": 5842,
      "aparece": 5843,
      "Carvalho": 5844,
      "noruegu": 5845,
      "Diocese": 5846,
      "##RS": 5847,
      "##óst": 5848,
      "Guilher": 5849,
      "85": 5850,
      "territórios": 5851,
      "Hungria": 5852,
      "01": 5853,
      "73": 5854,
      "Bay": 5855,
      "##MS": 5856,
      "##alhas": 5857,
      "Mau": 5858,
      "acomp": 5859,
      "ciclismo": 5860,
      "apoio": 5861,
      "indivíduos": 5862,
      "##uela": 5863,
      "##çamb": 5864,
      "##reta": 5865,
      "Antiga": 5866,
      "Bél": 5867,
      "tab": 5868,
      "##vem": 5869,
      "famoso": 5870,
      "cost": 5871,
      "pós": 5872,
      "##ív": 5873,
      "##rações": 5874,
      "meia": 5875,
      "tecnologia": 5876,
      "Big": 5877,
      "kg": 5878,
      "vinte": 5879,
      "##ísmo": 5880,
      "símbolo": 5881,
      "##net": 5882,
      "##imp": 5883,
      "Pictu": 5884,
      "Localiza": 5885,
      "velocidade": 5886,
      "Max": 5887,
      "localidades": 5888,
      "76": 5889,
      "Luc": 5890,
      "87": 5891,
      "intern": 5892,
      "ocas": 5893,
      "##iliar": 5894,
      "Pu": 5895,
      "##ourt": 5896,
      "alf": 5897,
      "comple": 5898,
      "Nações": 5899,
      "modern": 5900,
      "Paralímpicos": 5901,
      "##gresso": 5902,
      "##win": 5903,
      "parâmetro": 5904,
      "oriental": 5905,
      "Merc": 5906,
      "Solar": 5907,
      "individ": 5908,
      "86": 5909,
      "##melhante": 5910,
      "Bélgica": 5911,
      "02": 5912,
      "he": 5913,
      "momento": 5914,
      "oce": 5915,
      "tenha": 5916,
      "##udio": 5917,
      "##itação": 5918,
      "##osas": 5919,
      "1914": 5920,
      "Corpora": 5921,
      "inicia": 5922,
      "Ult": 5923,
      "##adura": 5924,
      "linguagem": 5925,
      "Den": 5926,
      "##ere": 5927,
      "Americana": 5928,
      "Ciências": 5929,
      "entrou": 5930,
      "control": 5931,
      "Windows": 5932,
      "06": 5933,
      "##sen": 5934,
      "152": 5935,
      "Teatro": 5936,
      "religioso": 5937,
      "Scott": 5938,
      "Trabalh": 5939,
      "Dias": 5940,
      "##orda": 5941,
      "##rome": 5942,
      "perc": 5943,
      "fabrica": 5944,
      "Série": 5945,
      "decid": 5946,
      "mangá": 5947,
      "comando": 5948,
      "##mentação": 5949,
      "artistas": 5950,
      "Assim": 5951,
      "décima": 5952,
      "praia": 5953,
      "##apa": 5954,
      "##federação": 5955,
      "09": 5956,
      "rest": 5957,
      "##ouri": 5958,
      "Chicago": 5959,
      "84": 5960,
      "Iv": 5961,
      "Pot": 5962,
      "tiro": 5963,
      "##CO": 5964,
      "Amor": 5965,
      "##rut": 5966,
      "Praia": 5967,
      "registra": 5968,
      "Há": 5969,
      "guer": 5970,
      "tamanho": 5971,
      "Ray": 5972,
      "VII": 5973,
      "deles": 5974,
      "nomeadamente": 5975,
      "##atroc": 5976,
      "Association": 5977,
      "Pierre": 5978,
      "ace": 5979,
      "semelhante": 5980,
      "observ": 5981,
      "mora": 5982,
      "##ést": 5983,
      "Departamento": 5984,
      "cineasta": 5985,
      "Jan": 5986,
      "##cima": 5987,
      "1910": 5988,
      "irmã": 5989,
      "05": 5990,
      "Lim": 5991,
      "idio": 5992,
      "financ": 5993,
      "Rua": 5994,
      "moderna": 5995,
      "defesa": 5996,
      "sacerdo": 5997,
      "cre": 5998,
      "viz": 5999,
      "##isi": 6000,
      "174": 6001,
      "##guesias": 6002,
      "versões": 6003,
      "##vam": 6004,
      "##órico": 6005,
      "##osos": 6006,
      "##unca": 6007,
      "Atlântico": 6008,
      "Sum": 6009,
      "arb": 6010,
      "##lad": 6011,
      "##OS": 6012,
      "humano": 6013,
      "montanha": 6014,
      "capítulos": 6015,
      "AF": 6016,
      "desse": 6017,
      "atletas": 6018,
      "exce": 6019,
      "Marro": 6020,
      "1912": 6021,
      "jogadores": 6022,
      "Telev": 6023,
      "complexo": 6024,
      "miss": 6025,
      "sociais": 6026,
      "##line": 6027,
      "##onel": 6028,
      "romanc": 6029,
      "medida": 6030,
      "possuem": 6031,
      "##iblioteca": 6032,
      "##crito": 6033,
      "##ited": 6034,
      "Conf": 6035,
      "##ismos": 6036,
      "##shire": 6037,
      "##iti": 6038,
      "##íne": 6039,
      "##ricidade": 6040,
      "156": 6041,
      "realizadas": 6042,
      "##aixas": 6043,
      "Madeira": 6044,
      "missão": 6045,
      "letra": 6046,
      "Revolução": 6047,
      "Civil": 6048,
      "tornar": 6049,
      "##ástico": 6050,
      "Azul": 6051,
      "Alfre": 6052,
      "tema": 6053,
      "##ímpica": 6054,
      "informações": 6055,
      "##cal": 6056,
      "##unal": 6057,
      "##ege": 6058,
      "trabalhos": 6059,
      "associação": 6060,
      "Guilherme": 6061,
      "peri": 6062,
      "##orden": 6063,
      "Sérvia": 6064,
      "81": 6065,
      "PT": 6066,
      "##olas": 6067,
      "LST": 6068,
      "157": 6069,
      "1917": 6070,
      "russa": 6071,
      "mem": 6072,
      "quinta": 6073,
      "Braga": 6074,
      "Jackson": 6075,
      "##cher": 6076,
      "Impera": 6077,
      "Brit": 6078,
      "DC": 6079,
      "fa": 6080,
      "povos": 6081,
      "será": 6082,
      "duque": 6083,
      "Green": 6084,
      "Antes": 6085,
      "Tar": 6086,
      "##rás": 6087,
      "##oni": 6088,
      "##red": 6089,
      "##acto": 6090,
      "##azz": 6091,
      "astrônomo": 6092,
      "UE": 6093,
      "búl": 6094,
      "pow": 6095,
      "import": 6096,
      "raça": 6097,
      "ambiente": 6098,
      "Sto": 6099,
      "##work": 6100,
      "sér": 6101,
      "##uru": 6102,
      "Sociedade": 6103,
      "vocalista": 6104,
      "07": 6105,
      "WW": 6106,
      "Reis": 6107,
      "Marvel": 6108,
      "letras": 6109,
      "subfamília": 6110,
      "Orig": 6111,
      "##upi": 6112,
      "##rinho": 6113,
      "direita": 6114,
      "Praça": 6115,
      "Souza": 6116,
      "subespécie": 6117,
      "subtropicais": 6118,
      "hon": 6119,
      "##eng": 6120,
      "anal": 6121,
      "##oz": 6122,
      "nav": 6123,
      "contempor": 6124,
      "97": 6125,
      "##ítio": 6126,
      "##íbio": 6127,
      "Giro": 6128,
      "Hall": 6129,
      "id": 6130,
      "números": 6131,
      "Buc": 6132,
      "UA": 6133,
      "Will": 6134,
      "contrib": 6135,
      "Paraíba": 6136,
      "singles": 6137,
      "sexual": 6138,
      "Dra": 6139,
      "Funda": 6140,
      "95": 6141,
      "Us": 6142,
      "##ès": 6143,
      "algo": 6144,
      "venceu": 6145,
      "03": 6146,
      "Ministério": 6147,
      "material": 6148,
      "##ku": 6149,
      "##udou": 6150,
      "Nor": 6151,
      "##hal": 6152,
      "esf": 6153,
      "abaixo": 6154,
      "arquit": 6155,
      "raio": 6156,
      "Pos": 6157,
      "civ": 6158,
      "##ande": 6159,
      "##iper": 6160,
      "##eridi": 6161,
      "Metrô": 6162,
      "04": 6163,
      "160": 6164,
      "Columb": 6165,
      "típ": 6166,
      "##hip": 6167,
      "Marie": 6168,
      "denominada": 6169,
      "Goiás": 6170,
      "Já": 6171,
      "cru": 6172,
      "##inus": 6173,
      "##onald": 6174,
      "esquerda": 6175,
      "gera": 6176,
      "##low": 6177,
      "referido": 6178,
      "catalão": 6179,
      "pion": 6180,
      "##ínia": 6181,
      "Org": 6182,
      "turn": 6183,
      "Eu": 6184,
      "##rânia": 6185,
      "obteve": 6186,
      "##lesi": 6187,
      "concent": 6188,
      "Príncipe": 6189,
      "Smith": 6190,
      "##ür": 6191,
      "##émio": 6192,
      "##ultor": 6193,
      "Scho": 6194,
      "Feminino": 6195,
      "religião": 6196,
      "89": 6197,
      "##rato": 6198,
      "comarca": 6199,
      "##ouve": 6200,
      "##andro": 6201,
      "tempora": 6202,
      "operado": 6203,
      "##hes": 6204,
      "##ped": 6205,
      "1923": 6206,
      "Jeff": 6207,
      "pronúncia": 6208,
      "cintura": 6209,
      "Day": 6210,
      "destru": 6211,
      "Ucrânia": 6212,
      "Mara": 6213,
      "Johann": 6214,
      "absoluta": 6215,
      "Lomb": 6216,
      "foss": 6217,
      "##atas": 6218,
      "Maranhão": 6219,
      "fato": 6220,
      "##triz": 6221,
      "##alto": 6222,
      "Artes": 6223,
      "circul": 6224,
      "Bell": 6225,
      "Serg": 6226,
      "##anização": 6227,
      "austrí": 6228,
      "Pes": 6229,
      "##sin": 6230,
      "##bes": 6231,
      "##xon": 6232,
      "##untos": 6233,
      "##DB": 6234,
      "##íncias": 6235,
      "##íss": 6236,
      "162": 6237,
      "Martins": 6238,
      "les": 6239,
      "##etts": 6240,
      "Armênia": 6241,
      "orient": 6242,
      "Kn": 6243,
      "vitória": 6244,
      "Adam": 6245,
      "programas": 6246,
      "Game": 6247,
      "pronun": 6248,
      "orbital": 6249,
      "##eda": 6250,
      "crianças": 6251,
      "princesa": 6252,
      "Ry": 6253,
      "##ína": 6254,
      "Filip": 6255,
      "acima": 6256,
      "##hl": 6257,
      "Charl": 6258,
      "##juda": 6259,
      "húngaro": 6260,
      "Dar": 6261,
      "One": 6262,
      "cab": 6263,
      "Rub": 6264,
      "pun": 6265,
      "##achus": 6266,
      "arquiteto": 6267,
      "Greg": 6268,
      "Kat": 6269,
      "##iar": 6270,
      "##ocl": 6271,
      "##quei": 6272,
      "escala": 6273,
      "168": 6274,
      "casos": 6275,
      "conqu": 6276,
      "ibn": 6277,
      "91": 6278,
      "##turo": 6279,
      "passa": 6280,
      "designado": 6281,
      "Aérea": 6282,
      "Mur": 6283,
      "SP": 6284,
      "serem": 6285,
      "Microso": 6286,
      "influência": 6287,
      "polonês": 6288,
      "Microsoft": 6289,
      "##ocol": 6290,
      "especialista": 6291,
      "Studios": 6292,
      "Melhor": 6293,
      "79": 6294,
      "Corre": 6295,
      "san": 6296,
      "##til": 6297,
      "##vados": 6298,
      "172": 6299,
      "fantasia": 6300,
      "Fort": 6301,
      "filosofia": 6302,
      "##andes": 6303,
      "Fox": 6304,
      "favor": 6305,
      "Dam": 6306,
      "gin": 6307,
      "Stad": 6308,
      "83": 6309,
      "patroc": 6310,
      "técnica": 6311,
      "Las": 6312,
      "regional": 6313,
      "fins": 6314,
      "margem": 6315,
      "##íptica": 6316,
      "consum": 6317,
      "motor": 6318,
      "top": 6319,
      "##itada": 6320,
      "161": 6321,
      "australiano": 6322,
      "Marrocos": 6323,
      "ácido": 6324,
      "##inn": 6325,
      "1911": 6326,
      "93": 6327,
      "##itária": 6328,
      "Síria": 6329,
      "test": 6330,
      "estando": 6331,
      "Castela": 6332,
      "operação": 6333,
      "terras": 6334,
      "170": 6335,
      "##ínas": 6336,
      "neerlandês": 6337,
      "##unção": 6338,
      "Matt": 6339,
      "tratamento": 6340,
      "Cac": 6341,
      "##aru": 6342,
      "domínio": 6343,
      "sigla": 6344,
      "Pictures": 6345,
      "Sw": 6346,
      "mês": 6347,
      "##raque": 6348,
      "##igna": 6349,
      "elenco": 6350,
      "originária": 6351,
      "planeta": 6352,
      "sonora": 6353,
      "##tivamente": 6354,
      "situa": 6355,
      "Americano": 6356,
      "combate": 6357,
      "Lúcio": 6358,
      "##aras": 6359,
      "prelado": 6360,
      "obt": 6361,
      "##rava": 6362,
      "conflito": 6363,
      "##ison": 6364,
      "internacionais": 6365,
      "##tn": 6366,
      "musicais": 6367,
      "bizantino": 6368,
      "fabricante": 6369,
      "Rot": 6370,
      "rural": 6371,
      "##igan": 6372,
      "Luci": 6373,
      "raz": 6374,
      "##yll": 6375,
      "Che": 6376,
      "##ceria": 6377,
      "templo": 6378,
      "Cinema": 6379,
      "Long": 6380,
      "Open": 6381,
      "##eição": 6382,
      "aérea": 6383,
      "trono": 6384,
      "##rana": 6385,
      "164": 6386,
      "economista": 6387,
      "literal": 6388,
      "coreana": 6389,
      "Comunidade": 6390,
      "permite": 6391,
      "##iada": 6392,
      "##ativamente": 6393,
      "##mont": 6394,
      "##iderando": 6395,
      "Campinas": 6396,
      "Karl": 6397,
      "diplomata": 6398,
      "##ând": 6399,
      "cópias": 6400,
      "esteve": 6401,
      "##omet": 6402,
      "verd": 6403,
      "graf": 6404,
      "Eug": 6405,
      "ráp": 6406,
      "Massachus": 6407,
      "orquíde": 6408,
      "Nig": 6409,
      "Pad": 6410,
      "Terc": 6411,
      "porto": 6412,
      "##hop": 6413,
      "carro": 6414,
      "Center": 6415,
      "mexicana": 6416,
      "bronze": 6417,
      "comporta": 6418,
      "##raté": 6419,
      "problemas": 6420,
      "Massachusetts": 6421,
      "fonte": 6422,
      "vale": 6423,
      "##ídio": 6424,
      "##inada": 6425,
      "Gio": 6426,
      "S0": 6427,
      "##urí": 6428,
      "anime": 6429,
      "método": 6430,
      "públ": 6431,
      "abreviado": 6432,
      "Bir": 6433,
      "geração": 6434,
      "cob": 6435,
      "folhas": 6436,
      "Warner": 6437,
      "Fight": 6438,
      "##cida": 6439,
      "##ink": 6440,
      "##amos": 6441,
      "##azzo": 6442,
      "tribo": 6443,
      "vencedor": 6444,
      "Hor": 6445,
      "famílias": 6446,
      "94": 6447,
      "##aw": 6448,
      "Arch": 6449,
      "Maz": 6450,
      "Amb": 6451,
      "1916": 6452,
      "##owa": 6453,
      "técnico": 6454,
      "##af": 6455,
      "##heiro": 6456,
      "##óquei": 6457,
      "##VD": 6458,
      "Ind": 6459,
      "155": 6460,
      "GO": 6461,
      "##reiro": 6462,
      "intit": 6463,
      "##isp": 6464,
      "Oscar": 6465,
      "##licações": 6466,
      "1913": 6467,
      "invent": 6468,
      "esporte": 6469,
      "Brown": 6470,
      "Lar": 6471,
      "##hel": 6472,
      "##PA": 6473,
      "invas": 6474,
      "Doming": 6475,
      "completa": 6476,
      "criar": 6477,
      "Continental": 6478,
      "##uário": 6479,
      "##jão": 6480,
      "segurança": 6481,
      "atribu": 6482,
      "Nob": 6483,
      "PR": 6484,
      "##yo": 6485,
      "formou": 6486,
      "Venezuela": 6487,
      "Nik": 6488,
      "159": 6489,
      "humana": 6490,
      "##vers": 6491,
      "##énia": 6492,
      "##igra": 6493,
      "##ítica": 6494,
      "##own": 6495,
      "gravado": 6496,
      "tub": 6497,
      "##ívia": 6498,
      "Campe": 6499,
      "concurso": 6500,
      "##énio": 6501,
      "equival": 6502,
      "1915": 6503,
      "Street": 6504,
      "##tum": 6505,
      "verde": 6506,
      "Sap": 6507,
      "site": 6508,
      "##iqu": 6509,
      "##bat": 6510,
      "pod": 6511,
      "Vicente": 6512,
      "mídia": 6513,
      "##vin": 6514,
      "regist": 6515,
      "resist": 6516,
      "Filipe": 6517,
      "universitário": 6518,
      "Bran": 6519,
      "Naz": 6520,
      "Sony": 6521,
      "##arquia": 6522,
      "##enses": 6523,
      "##erior": 6524,
      "apresentado": 6525,
      "resultados": 6526,
      "Tw": 6527,
      "dete": 6528,
      "##aridade": 6529,
      "aves": 6530,
      "nesta": 6531,
      "##GE": 6532,
      "compete": 6533,
      "escreveu": 6534,
      "Arquidiocese": 6535,
      "estuda": 6536,
      "Universal": 6537,
      "Forças": 6538,
      "##icano": 6539,
      "escoc": 6540,
      "apresentadora": 6541,
      "Nascido": 6542,
      "##óide": 6543,
      "##stem": 6544,
      "##áceas": 6545,
      "Cass": 6546,
      "nem": 6547,
      "##arão": 6548,
      "Inverno": 6549,
      "##mond": 6550,
      "##hn": 6551,
      "franco": 6552,
      "Drag": 6553,
      "sint": 6554,
      "tempos": 6555,
      "General": 6556,
      "##inyin": 6557,
      "1900": 6558,
      "1908": 6559,
      "Kim": 6560,
      "vin": 6561,
      "##hen": 6562,
      "##óveis": 6563,
      "158": 6564,
      "Voleibol": 6565,
      "dramat": 6566,
      "Estadual": 6567,
      "##ólia": 6568,
      "notá": 6569,
      "quart": 6570,
      "representou": 6571,
      "ligação": 6572,
      "esportiva": 6573,
      "mexicano": 6574,
      "Bob": 6575,
      "Nome": 6576,
      "##tende": 6577,
      "programação": 6578,
      "Educ": 6579,
      "Torre": 6580,
      "arran": 6581,
      "marciais": 6582,
      "natureza": 6583,
      "vive": 6584,
      "IS": 6585,
      "web": 6586,
      "##ucion": 6587,
      "ocorr": 6588,
      "cinemat": 6589,
      "Freguesia": 6590,
      "Lop": 6591,
      "##ij": 6592,
      "##ily": 6593,
      "Alguns": 6594,
      "compon": 6595,
      "Awards": 6596,
      "Riv": 6597,
      "pens": 6598,
      "154": 6599,
      "Corporation": 6600,
      "163": 6601,
      "ox": 6602,
      "sup": 6603,
      "Proven": 6604,
      "Tenn": 6605,
      "##árm": 6606,
      "Belém": 6607,
      "BR": 6608,
      "Fro": 6609,
      "nucle": 6610,
      "rou": 6611,
      "##lor": 6612,
      "##ópio": 6613,
      "sexta": 6614,
      "tornando": 6615,
      "Companhia": 6616,
      "Steph": 6617,
      "##inária": 6618,
      "##inae": 6619,
      "conced": 6620,
      "Afric": 6621,
      "palavras": 6622,
      "CE": 6623,
      "Hav": 6624,
      "objetos": 6625,
      "católica": 6626,
      "falada": 6627,
      "arquitetura": 6628,
      "Ital": 6629,
      "linhas": 6630,
      "províncias": 6631,
      "Francesa": 6632,
      "Mid": 6633,
      "Night": 6634,
      "mandato": 6635,
      "Mess": 6636,
      "pequenas": 6637,
      "Towns": 6638,
      "Ox": 6639,
      "Ross": 6640,
      "dada": 6641,
      "##ty": 6642,
      "##entos": 6643,
      "##urs": 6644,
      "Suas": 6645,
      "Mem": 6646,
      "Ty": 6647,
      "Servi": 6648,
      "discografia": 6649,
      "##osl": 6650,
      "Lake": 6651,
      "rua": 6652,
      "##icular": 6653,
      "Alves": 6654,
      "Palazzo": 6655,
      "Jim": 6656,
      "Lé": 6657,
      "brasileiros": 6658,
      "166": 6659,
      "defens": 6660,
      "dramática": 6661,
      "Lan": 6662,
      "##itais": 6663,
      "metropolitana": 6664,
      "sobreviv": 6665,
      "consegu": 6666,
      "Cob": 6667,
      "##wal": 6668,
      "Até": 6669,
      "##kin": 6670,
      "amor": 6671,
      "identific": 6672,
      "##PG": 6673,
      "##rey": 6674,
      "##etro": 6675,
      "declara": 6676,
      "ben": 6677,
      "vista": 6678,
      "##ridas": 6679,
      "entidade": 6680,
      "traduz": 6681,
      "elíptica": 6682,
      "medalh": 6683,
      "empreg": 6684,
      "Ul": 6685,
      "##hr": 6686,
      "condições": 6687,
      "Sic": 6688,
      "veg": 6689,
      "passag": 6690,
      "península": 6691,
      "serve": 6692,
      "Tib": 6693,
      "##enc": 6694,
      "políticas": 6695,
      "tropical": 6696,
      "##érias": 6697,
      "entrada": 6698,
      "Confederação": 6699,
      "##ologista": 6700,
      "voo": 6701,
      "Catalunha": 6702,
      "Sudeste": 6703,
      "mencion": 6704,
      "Silv": 6705,
      "comandante": 6706,
      "integ": 6707,
      "ataque": 6708,
      "Homem": 6709,
      "##var": 6710,
      "##bio": 6711,
      "##IC": 6712,
      "formam": 6713,
      "oper": 6714,
      "águas": 6715,
      "##riana": 6716,
      "dessa": 6717,
      "Lucas": 6718,
      "Paraguai": 6719,
      "Púb": 6720,
      "prata": 6721,
      "Philip": 6722,
      "Pinh": 6723,
      "mistas": 6724,
      "##urão": 6725,
      "Taça": 6726,
      "##árqu": 6727,
      "Card": 6728,
      "Jardim": 6729,
      "Lac": 6730,
      "velho": 6731,
      "##orreg": 6732,
      "##ugby": 6733,
      "monu": 6734,
      "Pequ": 6735,
      "Group": 6736,
      "Atenas": 6737,
      "Lombardia": 6738,
      "Result": 6739,
      "Mol": 6740,
      "Zelândia": 6741,
      "mens": 6742,
      "##arant": 6743,
      "plane": 6744,
      "##box": 6745,
      "resol": 6746,
      "seguida": 6747,
      "derivado": 6748,
      "extra": 6749,
      "list": 6750,
      "adqu": 6751,
      "subdiv": 6752,
      "She": 6753,
      "Sand": 6754,
      "aeroporto": 6755,
      "nunca": 6756,
      "##ien": 6757,
      "##TC": 6758,
      "Pays": 6759,
      "Arth": 6760,
      "##retário": 6761,
      "##ury": 6762,
      "desenvolv": 6763,
      "Grã": 6764,
      "contexto": 6765,
      "estar": 6766,
      "diagrama": 6767,
      "pista": 6768,
      "##sas": 6769,
      "conforme": 6770,
      "High": 6771,
      "##ecem": 6772,
      "171": 6773,
      "extremo": 6774,
      "Major": 6775,
      "##ges": 6776,
      "espiri": 6777,
      "##ítimo": 6778,
      "produto": 6779,
      "##omen": 6780,
      "trilha": 6781,
      "##írus": 6782,
      "Oriente": 6783,
      "Missouri": 6784,
      "eclesi": 6785,
      "terrestre": 6786,
      "ceri": 6787,
      "##toc": 6788,
      "porque": 6789,
      "prepara": 6790,
      "fabricado": 6791,
      "##endendo": 6792,
      "Amazonas": 6793,
      "Fried": 6794,
      "escolh": 6795,
      "Constituição": 6796,
      "tradução": 6797,
      "Frederico": 6798,
      "Constantinopla": 6799,
      "PC": 6800,
      "dubl": 6801,
      "##endia": 6802,
      "Indep": 6803,
      "informação": 6804,
      "quantidade": 6805,
      "corte": 6806,
      "feira": 6807,
      "gelo": 6808,
      "##out": 6809,
      "nascimento": 6810,
      "Equador": 6811,
      "##âncias": 6812,
      "Anat": 6813,
      "importância": 6814,
      "Kent": 6815,
      "##of": 6816,
      "nob": 6817,
      "165": 6818,
      "120": 6819,
      "Kal": 6820,
      "cabo": 6821,
      "ult": 6822,
      "##imb": 6823,
      "Júlio": 6824,
      "How": 6825,
      "pinyin": 6826,
      "##asso": 6827,
      "##real": 6828,
      "##abeth": 6829,
      "novamente": 6830,
      "1905": 6831,
      "Sus": 6832,
      "cav": 6833,
      "##fé": 6834,
      "##urou": 6835,
      "algum": 6836,
      "##ibilidade": 6837,
      "102": 6838,
      "teat": 6839,
      "Dal": 6840,
      "Vida": 6841,
      "mel": 6842,
      "roc": 6843,
      "documentário": 6844,
      "infantil": 6845,
      "Tec": 6846,
      "##rine": 6847,
      "portanto": 6848,
      "angl": 6849,
      "romântica": 6850,
      "herd": 6851,
      "Património": 6852,
      "Resultados": 6853,
      "##adeiro": 6854,
      "##iança": 6855,
      "reform": 6856,
      "existem": 6857,
      "propriet": 6858,
      "##yd": 6859,
      "##usal": 6860,
      "Alf": 6861,
      "Girl": 6862,
      "cade": 6863,
      "##ídos": 6864,
      "análise": 6865,
      "##vis": 6866,
      "##anni": 6867,
      "independência": 6868,
      "dinamarquês": 6869,
      "Nordeste": 6870,
      "##bit": 6871,
      "##romo": 6872,
      "past": 6873,
      "sovi": 6874,
      "##óquia": 6875,
      "##apar": 6876,
      "arre": 6877,
      "167": 6878,
      "religiosa": 6879,
      "edições": 6880,
      "novos": 6881,
      "casou": 6882,
      "translit": 6883,
      "semelh": 6884,
      "privada": 6885,
      "envi": 6886,
      "Olímpico": 6887,
      "pequenos": 6888,
      "décadas": 6889,
      "##luente": 6890,
      "Fam": 6891,
      "Up": 6892,
      "##anz": 6893,
      "##mentais": 6894,
      "usados": 6895,
      "posit": 6896,
      "existência": 6897,
      "categorias": 6898,
      "sacerdote": 6899,
      "festival": 6900,
      "##ílico": 6901,
      "suí": 6902,
      "teria": 6903,
      "##imen": 6904,
      "DVD": 6905,
      "fas": 6906,
      "##tados": 6907,
      "##imar": 6908,
      "Bolívia": 6909,
      "Bart": 6910,
      "##ilidades": 6911,
      "##odas": 6912,
      "colomb": 6913,
      "##êmios": 6914,
      "Moçamb": 6915,
      "dedicada": 6916,
      "Series": 6917,
      "passageiros": 6918,
      "Biz": 6919,
      "IA": 6920,
      "##anismo": 6921,
      "estraté": 6922,
      "Johns": 6923,
      "feminina": 6924,
      "maneira": 6925,
      "Velho": 6926,
      "##gen": 6927,
      "##itoral": 6928,
      "log": 6929,
      "##anes": 6930,
      "##ales": 6931,
      "##inou": 6932,
      "conven": 6933,
      "USS": 6934,
      "figura": 6935,
      "Congo": 6936,
      "goleiro": 6937,
      "##ográfico": 6938,
      "Líb": 6939,
      "Melo": 6940,
      "ponte": 6941,
      "Eliz": 6942,
      "##riga": 6943,
      "parceria": 6944,
      "Bíb": 6945,
      "americanos": 6946,
      "1907": 6947,
      "campanha": 6948,
      "Piren": 6949,
      "Township": 6950,
      "Sir": 6951,
      "envolv": 6952,
      "mistura": 6953,
      "medalhista": 6954,
      "Econ": 6955,
      "Wood": 6956,
      "##itora": 6957,
      "variedade": 6958,
      "Iowa": 6959,
      "Op": 6960,
      "##peus": 6961,
      "publicação": 6962,
      "##viação": 6963,
      "UCI": 6964,
      "nad": 6965,
      "dinossa": 6966,
      "constituem": 6967,
      "calib": 6968,
      "Blo": 6969,
      "Duc": 6970,
      "Giov": 6971,
      "University": 6972,
      "fictício": 6973,
      "sétimo": 6974,
      "Ut": 6975,
      "beb": 6976,
      "gram": 6977,
      "agrem": 6978,
      "Imperial": 6979,
      "conteú": 6980,
      "explora": 6981,
      "Dun": 6982,
      "##vora": 6983,
      "##çul": 6984,
      "##uth": 6985,
      "desconhec": 6986,
      "Caio": 6987,
      "McC": 6988,
      "WWE": 6989,
      "naveg": 6990,
      "Ferra": 6991,
      "bor": 6992,
      "capaz": 6993,
      "Urb": 6994,
      "vas": 6995,
      "Península": 6996,
      "East": 6997,
      "##yat": 6998,
      "##ary": 6999,
      "proemin": 7000,
      "deixou": 7001,
      "cidad": 7002,
      "##úria": 7003,
      "##uld": 7004,
      "seguir": 7005,
      "Team": 7006,
      "Fol": 7007,
      "Way": 7008,
      "ajuda": 7009,
      "zague": 7010,
      "porte": 7011,
      "preto": 7012,
      "pot": 7013,
      "apesar": 7014,
      "Beat": 7015,
      "dividida": 7016,
      "Cantão": 7017,
      "pág": 7018,
      "destaque": 7019,
      "anfíbio": 7020,
      "Are": 7021,
      "Et": 7022,
      "Jud": 7023,
      "Nam": 7024,
      "cientista": 7025,
      "bás": 7026,
      "húm": 7027,
      "##idor": 7028,
      "##ativos": 7029,
      "##guaio": 7030,
      "vermelho": 7031,
      "1904": 7032,
      "Arthur": 7033,
      "Der": 7034,
      "Rádio": 7035,
      "atrás": 7036,
      "aband": 7037,
      "fazendo": 7038,
      "Walter": 7039,
      "School": 7040,
      "extinto": 7041,
      "crescimento": 7042,
      "College": 7043,
      "##rade": 7044,
      "##rona": 7045,
      "##idores": 7046,
      "avião": 7047,
      "campeã": 7048,
      "Banco": 7049,
      "comput": 7050,
      "Munique": 7051,
      "condados": 7052,
      "Estr": 7053,
      "plano": 7054,
      "jurista": 7055,
      "System": 7056,
      "madeira": 7057,
      "##âns": 7058,
      "pseud": 7059,
      "Moçambique": 7060,
      "##aves": 7061,
      "173": 7062,
      "isl": 7063,
      "próxima": 7064,
      "##avy": 7065,
      "151": 7066,
      "##viário": 7067,
      "Film": 7068,
      "Alexander": 7069,
      "celeb": 7070,
      "Movimento": 7071,
      "Ricardo": 7072,
      "Uruguai": 7073,
      "sérvio": 7074,
      "Lopes": 7075,
      "Média": 7076,
      "##dito": 7077,
      "##atu": 7078,
      "elemento": 7079,
      "149": 7080,
      "branca": 7081,
      "##mad": 7082,
      "169": 7083,
      "Antár": 7084,
      "cara": 7085,
      "narra": 7086,
      "étn": 7087,
      "##çou": 7088,
      "Island": 7089,
      "Rap": 7090,
      "Sag": 7091,
      "##ásia": 7092,
      "peças": 7093,
      "especializada": 7094,
      "Maior": 7095,
      "##ah": 7096,
      "153": 7097,
      "respe": 7098,
      "Cultura": 7099,
      "##grejas": 7100,
      "Pequim": 7101,
      "líqu": 7102,
      "Royal": 7103,
      "##impí": 7104,
      "Sar": 7105,
      "Ts": 7106,
      "##fos": 7107,
      "reduz": 7108,
      "Eurovisão": 7109,
      "castelo": 7110,
      "Bou": 7111,
      "IX": 7112,
      "Sm": 7113,
      "##ilândia": 7114,
      "meta": 7115,
      "##ísta": 7116,
      "medicina": 7117,
      "Chap": 7118,
      "Fundação": 7119,
      "pag": 7120,
      "##çado": 7121,
      "Partic": 7122,
      "Perten": 7123,
      "Bag": 7124,
      "efeito": 7125,
      "Ál": 7126,
      "##lan": 7127,
      "##ivelmente": 7128,
      "recursos": 7129,
      "Bour": 7130,
      "Pinto": 7131,
      "Ki": 7132,
      "Lic": 7133,
      "dirigida": 7134,
      "Stan": 7135,
      "##ianismo": 7136,
      "Rou": 7137,
      "hem": 7138,
      "##egal": 7139,
      "1906": 7140,
      "Milão": 7141,
      "##quês": 7142,
      "Anim": 7143,
      "Indon": 7144,
      "Gust": 7145,
      "##ráfica": 7146,
      "##icus": 7147,
      "##ogia": 7148,
      "##over": 7149,
      "grau": 7150,
      "White": 7151,
      "Três": 7152,
      "Avenida": 7153,
      "acompanh": 7154,
      "Lad": 7155,
      "Anth": 7156,
      "Bac": 7157,
      "posto": 7158,
      "##har": 7159,
      "##St": 7160,
      "##ipes": 7161,
      "apresentador": 7162,
      "Rainha": 7163,
      "Michigan": 7164,
      "fech": 7165,
      "##ilia": 7166,
      "##ventude": 7167,
      "##conde": 7168,
      "juda": 7169,
      "zagueiro": 7170,
      "##erdade": 7171,
      "Comit": 7172,
      "##ónimo": 7173,
      "Administra": 7174,
      "procura": 7175,
      "búlgaro": 7176,
      "comércio": 7177,
      "esqu": 7178,
      "jogadora": 7179,
      "Luz": 7180,
      "Minnes": 7181,
      "ideia": 7182,
      "Jov": 7183,
      "Villa": 7184,
      "sag": 7185,
      "##ban": 7186,
      "Santana": 7187,
      "animado": 7188,
      "crítico": 7189,
      "morto": 7190,
      "vs": 7191,
      "Catedral": 7192,
      "Syd": 7193,
      "##plos": 7194,
      "montanhas": 7195,
      "australiana": 7196,
      "Jerusal": 7197,
      "cens": 7198,
      "##redo": 7199,
      "computação": 7200,
      "##aster": 7201,
      "interess": 7202,
      "inaugurado": 7203,
      "busca": 7204,
      "Todos": 7205,
      "##toria": 7206,
      "##espas": 7207,
      "escolas": 7208,
      "Berg": 7209,
      "##par": 7210,
      "##ôs": 7211,
      "litoral": 7212,
      "dividido": 7213,
      "Particip": 7214,
      "Magn": 7215,
      "Spe": 7216,
      "ato": 7217,
      "##aki": 7218,
      "Tribunal": 7219,
      "Jon": 7220,
      "estavam": 7221,
      "##eter": 7222,
      "Eslov": 7223,
      "telef": 7224,
      "##ológicos": 7225,
      "Evang": 7226,
      "holandês": 7227,
      "respectivamente": 7228,
      "Minnesota": 7229,
      "Mulher": 7230,
      "##étrica": 7231,
      "##ugosl": 7232,
      "manif": 7233,
      "Português": 7234,
      "Russo": 7235,
      "fogo": 7236,
      "dese": 7237,
      "##heco": 7238,
      "conhecimento": 7239,
      "##onto": 7240,
      "##ansão": 7241,
      "calendário": 7242,
      "democ": 7243,
      "Decreto": 7244,
      "Situ": 7245,
      "##esia": 7246,
      "##rot": 7247,
      "Finlândia": 7248,
      "Preto": 7249,
      "himen": 7250,
      "aconteceu": 7251,
      "mestre": 7252,
      "##yer": 7253,
      "Camar": 7254,
      "Antigo": 7255,
      "secund": 7256,
      "Provença": 7257,
      "Bíblia": 7258,
      "##idal": 7259,
      "paul": 7260,
      "cristão": 7261,
      "núc": 7262,
      "##yc": 7263,
      "partida": 7264,
      "##lbo": 7265,
      "oitavo": 7266,
      "Pirenéus": 7267,
      "luc": 7268,
      "##ym": 7269,
      "##etn": 7270,
      "revel": 7271,
      "aspec": 7272,
      "Marne": 7273,
      "medalhas": 7274,
      "jovens": 7275,
      "assassin": 7276,
      "Ten": 7277,
      "lide": 7278,
      "enfre": 7279,
      "realizou": 7280,
      "Volta": 7281,
      "excent": 7282,
      "##riu": 7283,
      "##cont": 7284,
      "margens": 7285,
      "transferi": 7286,
      "comerci": 7287,
      "sens": 7288,
      "##áquia": 7289,
      "##riam": 7290,
      "##ividade": 7291,
      "Parlamento": 7292,
      "Jerusalém": 7293,
      "dO": 7294,
      "âmb": 7295,
      "modalidade": 7296,
      "conseguiu": 7297,
      "Indonésia": 7298,
      "Cá": 7299,
      "Nick": 7300,
      "##õe": 7301,
      "doce": 7302,
      "##tive": 7303,
      "operações": 7304,
      "DJ": 7305,
      "tais": 7306,
      "himenópteros": 7307,
      "Cup": 7308,
      "Rac": 7309,
      "##well": 7310,
      "##elha": 7311,
      "##ilos": 7312,
      "##ets": 7313,
      "lateral": 7314,
      "Espa": 7315,
      "##vento": 7316,
      "inclus": 7317,
      "Pira": 7318,
      "Pow": 7319,
      "lag": 7320,
      "lóg": 7321,
      "quest": 7322,
      "##iew": 7323,
      "##lahoma": 7324,
      "agremiação": 7325,
      "excentricidade": 7326,
      "Kansas": 7327,
      "##rad": 7328,
      "afirm": 7329,
      "literalmente": 7330,
      "##iático": 7331,
      "regular": 7332,
      "##ológicas": 7333,
      "Hip": 7334,
      "apr": 7335,
      "Francis": 7336,
      "Fernandes": 7337,
      "sueca": 7338,
      "Serv": 7339,
      "##ule": 7340,
      "##dom": 7341,
      "United": 7342,
      "engenharia": 7343,
      "Agu": 7344,
      "famosa": 7345,
      "Considerando": 7346,
      "efeitos": 7347,
      "Desen": 7348,
      "espacial": 7349,
      "editor": 7350,
      "elétrica": 7351,
      "veículos": 7352,
      "Oklahoma": 7353,
      "tiveram": 7354,
      "coorden": 7355,
      "1889": 7356,
      "Maced": 7357,
      "calibre": 7358,
      "Bento": 7359,
      "Web": 7360,
      "sobe": 7361,
      "sabe": 7362,
      "reis": 7363,
      "Arte": 7364,
      "compreende": 7365,
      "Figue": 7366,
      "Teve": 7367,
      "imedia": 7368,
      "##EC": 7369,
      "etapa": 7370,
      "transmissão": 7371,
      "industrial": 7372,
      "Hospital": 7373,
      "avi": 7374,
      "line": 7375,
      "##rador": 7376,
      "porta": 7377,
      "cond": 7378,
      "atuação": 7379,
      "Beach": 7380,
      "adquiri": 7381,
      "Sun": 7382,
      "sítio": 7383,
      "tu": 7384,
      "Soares": 7385,
      "chinesa": 7386,
      "Miran": 7387,
      "Florença": 7388,
      "Gabriel": 7389,
      "Sydney": 7390,
      "##egu": 7391,
      "sof": 7392,
      "indica": 7393,
      "envolve": 7394,
      "dedicado": 7395,
      "IBGE": 7396,
      "##AT": 7397,
      "##etano": 7398,
      "##êmico": 7399,
      "Davis": 7400,
      "turnê": 7401,
      "##ricamente": 7402,
      "banco": 7403,
      "Bom": 7404,
      "ciclo": 7405,
      "fru": 7406,
      "neste": 7407,
      "xadrez": 7408,
      "##ID": 7409,
      "##arro": 7410,
      "##quita": 7411,
      "##dimento": 7412,
      "séries": 7413,
      "##vios": 7414,
      "1896": 7415,
      "olímpica": 7416,
      "micro": 7417,
      "Cai": 7418,
      "Ret": 7419,
      "lent": 7420,
      "Estre": 7421,
      "Bak": 7422,
      "##MM": 7423,
      "jogou": 7424,
      "Latina": 7425,
      "indígena": 7426,
      "Terceira": 7427,
      "espiritual": 7428,
      "But": 7429,
      "Sor": 7430,
      "##rir": 7431,
      "muçul": 7432,
      "Law": 7433,
      "Lam": 7434,
      "##ild": 7435,
      "##iform": 7436,
      "##rinha": 7437,
      "encontram": 7438,
      "pessoal": 7439,
      "fundação": 7440,
      "Machado": 7441,
      "God": 7442,
      "cro": 7443,
      "##pal": 7444,
      "Pok": 7445,
      "estrelas": 7446,
      "Basket": 7447,
      "XIV": 7448,
      "powiat": 7449,
      "rione": 7450,
      "##pha": 7451,
      "##rice": 7452,
      "dimens": 7453,
      "prefeitura": 7454,
      "frequência": 7455,
      "recebe": 7456,
      "Count": 7457,
      "futuro": 7458,
      "fot": 7459,
      "##alizada": 7460,
      "peixes": 7461,
      "Baixa": 7462,
      "Litt": 7463,
      "Pesso": 7464,
      "Vil": 7465,
      "obrig": 7466,
      "europeia": 7467,
      "Albert": 7468,
      "Atlético": 7469,
      "Toronto": 7470,
      "cen": 7471,
      "caminho": 7472,
      "valores": 7473,
      "referir": 7474,
      "acabou": 7475,
      "NBA": 7476,
      "amea": 7477,
      "##med": 7478,
      "##urn": 7479,
      "disputou": 7480,
      "##iki": 7481,
      "Walt": 7482,
      "Nag": 7483,
      "##icada": 7484,
      "##isne": 7485,
      "##erar": 7486,
      "compil": 7487,
      "##estro": 7488,
      "segue": 7489,
      "passado": 7490,
      "Marcos": 7491,
      "Republic": 7492,
      "Cô": 7493,
      "Lag": 7494,
      "Alt": 7495,
      "##orno": 7496,
      "moderno": 7497,
      "1899": 7498,
      "inicial": 7499,
      "Democrática": 7500,
      "húmidas": 7501,
      "Kon": 7502,
      "##pto": 7503,
      "infância": 7504,
      "Vieira": 7505,
      "Indiana": 7506,
      "Ky": 7507,
      "Neu": 7508,
      "Wis": 7509,
      "th": 7510,
      "##face": 7511,
      "Irã": 7512,
      "executivo": 7513,
      "tenista": 7514,
      "Tai": 7515,
      "fusão": 7516,
      "faixas": 7517,
      "##fel": 7518,
      "##anal": 7519,
      "##inham": 7520,
      "##ónica": 7521,
      "Leop": 7522,
      "específ": 7523,
      "instrumento": 7524,
      "##sion": 7525,
      "##inção": 7526,
      "##etes": 7527,
      "exer": 7528,
      "110": 7529,
      "tropas": 7530,
      "colonial": 7531,
      "hard": 7532,
      "descrito": 7533,
      "avanç": 7534,
      "levou": 7535,
      "Lau": 7536,
      "play": 7537,
      "##alves": 7538,
      "doze": 7539,
      "Congresso": 7540,
      "escrav": 7541,
      "Sete": 7542,
      "1909": 7543,
      "inaugurada": 7544,
      "##ócios": 7545,
      "Imperador": 7546,
      "Pit": 7547,
      "##tra": 7548,
      "##érito": 7549,
      "##entado": 7550,
      "compart": 7551,
      "conclu": 7552,
      "Flores": 7553,
      "Bispo": 7554,
      "##ânio": 7555,
      "##ítico": 7556,
      "interv": 7557,
      "Classe": 7558,
      "reconhecido": 7559,
      "domést": 7560,
      "ocorrido": 7561,
      "equivalente": 7562,
      "Ay": 7563,
      "Gui": 7564,
      "Most": 7565,
      "barão": 7566,
      "jurí": 7567,
      "##itou": 7568,
      "##ingen": 7569,
      "diretamente": 7570,
      "coleção": 7571,
      "##dal": 7572,
      "noite": 7573,
      "escal": 7574,
      "ocorreram": 7575,
      "rara": 7576,
      "titular": 7577,
      "Gard": 7578,
      "XII": 7579,
      "sai": 7580,
      "apos": 7581,
      "##vez": 7582,
      "especiais": 7583,
      "simpl": 7584,
      "caça": 7585,
      "integrante": 7586,
      "Estrada": 7587,
      "##ariz": 7588,
      "Paz": 7589,
      "Henri": 7590,
      "Domin": 7591,
      "Forte": 7592,
      "VIII": 7593,
      "ações": 7594,
      "ha": 7595,
      "##isf": 7596,
      "elimin": 7597,
      "Clá": 7598,
      "Network": 7599,
      "Educação": 7600,
      "##lboard": 7601,
      "##domin": 7602,
      "armaz": 7603,
      "circuns": 7604,
      "bic": 7605,
      "##ński": 7606,
      "falecido": 7607,
      "Victor": 7608,
      "podendo": 7609,
      "Nep": 7610,
      "##arg": 7611,
      "Olimpí": 7612,
      "Colégio": 7613,
      "##iterr": 7614,
      "Bernardo": 7615,
      "Germ": 7616,
      "Gonçalves": 7617,
      "liderança": 7618,
      "Mario": 7619,
      "imperial": 7620,
      "projetado": 7621,
      "##annel": 7622,
      "cadeia": 7623,
      "Kl": 7624,
      "apari": 7625,
      "constituída": 7626,
      "Piauí": 7627,
      "UEFA": 7628,
      "suíço": 7629,
      "##gên": 7630,
      "Marg": 7631,
      "subord": 7632,
      "##éticos": 7633,
      "Regional": 7634,
      "comem": 7635,
      "padre": 7636,
      "##ropolitano": 7637,
      "Wat": 7638,
      "##ílica": 7639,
      "alte": 7640,
      "personal": 7641,
      "demonst": 7642,
      "Libert": 7643,
      "associado": 7644,
      "bacia": 7645,
      "Mendes": 7646,
      "Yu": 7647,
      "gestão": 7648,
      "##ée": 7649,
      "indígenas": 7650,
      "norueguês": 7651,
      "ur": 7652,
      "estrang": 7653,
      "##estamento": 7654,
      "conquista": 7655,
      "Mús": 7656,
      "##idamente": 7657,
      "##ike": 7658,
      "encontrados": 7659,
      "trabalhar": 7660,
      "âmbito": 7661,
      "Rel": 7662,
      "Sabo": 7663,
      "eleg": 7664,
      "formar": 7665,
      "situação": 7666,
      "##éreo": 7667,
      "cerim": 7668,
      "enfrent": 7669,
      "pil": 7670,
      "##cus": 7671,
      "##rodução": 7672,
      "##urado": 7673,
      "conserv": 7674,
      "Diego": 7675,
      "Internet": 7676,
      "veículo": 7677,
      "vai": 7678,
      "##ilton": 7679,
      "##ressão": 7680,
      "##tomano": 7681,
      "Hay": 7682,
      "hor": 7683,
      "vespas": 7684,
      "##vação": 7685,
      "redes": 7686,
      "Universo": 7687,
      "começa": 7688,
      "Sebastião": 7689,
      "Bis": 7690,
      "SA": 7691,
      "XIII": 7692,
      "##onista": 7693,
      "##oba": 7694,
      "irlandês": 7695,
      "Isso": 7696,
      "Holanda": 7697,
      "deriva": 7698,
      "desemp": 7699,
      "##ír": 7700,
      "##stad": 7701,
      "políticos": 7702,
      "autora": 7703,
      "Williams": 7704,
      "temporadas": 7705,
      "Jones": 7706,
      "Land": 7707,
      "vil": 7708,
      "##inia": 7709,
      "anex": 7710,
      "autoria": 7711,
      "Mana": 7712,
      "vit": 7713,
      "##mi": 7714,
      "distint": 7715,
      "1901": 7716,
      "Ern": 7717,
      "influenci": 7718,
      "##ken": 7719,
      "##pot": 7720,
      "recep": 7721,
      "Vista": 7722,
      "bomb": 7723,
      "##icana": 7724,
      "agreg": 7725,
      "1902": 7726,
      "Bros": 7727,
      "lá": 7728,
      "regime": 7729,
      "##edor": 7730,
      "Guer": 7731,
      "georg": 7732,
      "extrema": 7733,
      "processos": 7734,
      "Iraque": 7735,
      "Soc": 7736,
      "feri": 7737,
      "##racia": 7738,
      "##esco": 7739,
      "##enciais": 7740,
      "##imate": 7741,
      "conse": 7742,
      "Christian": 7743,
      "Ball": 7744,
      "##ello": 7745,
      "Unidas": 7746,
      "Bandeira": 7747,
      "baix": 7748,
      "##cado": 7749,
      "rebel": 7750,
      "populares": 7751,
      "divulg": 7752,
      "Gonz": 7753,
      "Pers": 7754,
      "diocese": 7755,
      "##bor": 7756,
      "##óc": 7757,
      "Anna": 7758,
      "##índ": 7759,
      "transnet": 7760,
      "France": 7761,
      "passagem": 7762,
      "assinatura": 7763,
      "transnetun": 7764,
      "Irm": 7765,
      "Jord": 7766,
      "Lot": 7767,
      "##tis": 7768,
      "##nth": 7769,
      "perd": 7770,
      "147": 7771,
      "Carta": 7772,
      "##emonte": 7773,
      "##tudo": 7774,
      "##iza": 7775,
      "148": 7776,
      "##phy": 7777,
      "Gales": 7778,
      "alcançou": 7779,
      "Johnson": 7780,
      "##Station": 7781,
      "MTV": 7782,
      "##inc": 7783,
      "##ulada": 7784,
      "##rupa": 7785,
      "elas": 7786,
      "Esporte": 7787,
      "israel": 7788,
      "PlayStation": 7789,
      "Billboard": 7790,
      "sangue": 7791,
      "Leo": 7792,
      "amigo": 7793,
      "continente": 7794,
      "telesc": 7795,
      "##ídas": 7796,
      "composição": 7797,
      "Barão": 7798,
      "Orch": 7799,
      "últimos": 7800,
      "circuito": 7801,
      "Nigéria": 7802,
      "Fra": 7803,
      "Sá": 7804,
      "natal": 7805,
      "imagem": 7806,
      "1890": 7807,
      "1895": 7808,
      "aeronave": 7809,
      "800": 7810,
      "##érico": 7811,
      "Conn": 7812,
      "externa": 7813,
      "retira": 7814,
      "bateri": 7815,
      "Piemonte": 7816,
      "##erbai": 7817,
      "Giovanni": 7818,
      "transnetuniano": 7819,
      "Fund": 7820,
      "Games": 7821,
      "Lour": 7822,
      "Va": 7823,
      "##çada": 7824,
      "##eirão": 7825,
      "captura": 7826,
      "130": 7827,
      "Abed": 7828,
      "##gara": 7829,
      "##rod": 7830,
      "Estat": 7831,
      "1898": 7832,
      "quadrados": 7833,
      "materiais": 7834,
      "individual": 7835,
      "##ses": 7836,
      "##fim": 7837,
      "Barros": 7838,
      "reforma": 7839,
      "amplamente": 7840,
      "Miam": 7841,
      "PP": 7842,
      "##apt": 7843,
      "fazem": 7844,
      "interesse": 7845,
      "Primeiro": 7846,
      "Hero": 7847,
      "Nad": 7848,
      "##xias": 7849,
      "dele": 7850,
      "anel": 7851,
      "##venil": 7852,
      "máxima": 7853,
      "Elizabeth": 7854,
      "carta": 7855,
      "##vias": 7856,
      "##SC": 7857,
      "##osh": 7858,
      "romanos": 7859,
      "usa": 7860,
      "abandon": 7861,
      "nór": 7862,
      "##úrb": 7863,
      "Veneza": 7864,
      "Cultural": 7865,
      "inclusive": 7866,
      "Desenvol": 7867,
      "just": 7868,
      "##isas": 7869,
      "natação": 7870,
      "Lista": 7871,
      "gast": 7872,
      "det": 7873,
      "seres": 7874,
      "##postas": 7875,
      "Sax": 7876,
      "ABC": 7877,
      "##wi": 7878,
      "Estocol": 7879,
      "##isse": 7880,
      "Mars": 7881,
      "101": 7882,
      "representação": 7883,
      "contrato": 7884,
      "visual": 7885,
      "voz": 7886,
      "fundamental": 7887,
      "Estocolmo": 7888,
      "Ata": 7889,
      "Dub": 7890,
      "##ña": 7891,
      "Prémio": 7892,
      "diferente": 7893,
      "Little": 7894,
      "circunscrição": 7895,
      "sól": 7896,
      "óleo": 7897,
      "propor": 7898,
      "##essão": 7899,
      "monte": 7900,
      "Temporada": 7901,
      "Sena": 7902,
      "Wrestling": 7903,
      "##fl": 7904,
      "##fera": 7905,
      "Channel": 7906,
      "determinado": 7907,
      "AM": 7908,
      "Kir": 7909,
      "Nar": 7910,
      "aster": 7911,
      "ginástica": 7912,
      "Pav": 7913,
      "Qui": 7914,
      "Tay": 7915,
      "##elhos": 7916,
      "##deus": 7917,
      "constituído": 7918,
      "Final": 7919,
      "Top": 7920,
      "bom": 7921,
      "hel": 7922,
      "##ânicos": 7923,
      "territo": 7924,
      "novas": 7925,
      "afili": 7926,
      "Médio": 7927,
      "africano": 7928,
      "dól": 7929,
      "fix": 7930,
      "##émon": 7931,
      "Barra": 7932,
      "conteúdo": 7933,
      "Miami": 7934,
      "Brag": 7935,
      "Cada": 7936,
      "Senhor": 7937,
      "Alas": 7938,
      "criou": 7939,
      "##abeto": 7940,
      "dramaturgo": 7941,
      "dar": 7942,
      "##tando": 7943,
      "##liga": 7944,
      "##ough": 7945,
      "Lub": 7946,
      "meridi": 7947,
      "##andês": 7948,
      "Lew": 7949,
      "inferior": 7950,
      "relev": 7951,
      "semana": 7952,
      "papéis": 7953,
      "Brook": 7954,
      "fundou": 7955,
      "Saboia": 7956,
      "mun": 7957,
      "tim": 7958,
      "autores": 7959,
      "transmitido": 7960,
      "Lud": 7961,
      "cau": 7962,
      "vest": 7963,
      "##aré": 7964,
      "sobretudo": 7965,
      "instituições": 7966,
      "Jér": 7967,
      "Nap": 7968,
      "hospital": 7969,
      "##vil": 7970,
      "escultor": 7971,
      "Ultimate": 7972,
      "Pé": 7973,
      "Samba": 7974,
      "1903": 7975,
      "1893": 7976,
      "moeda": 7977,
      "descoberta": 7978,
      "Hugo": 7979,
      "Britânica": 7980,
      "ajud": 7981,
      "austríaco": 7982,
      "Pop": 7983,
      "Rocha": 7984,
      "##ardi": 7985,
      "qualidade": 7986,
      "endêmica": 7987,
      "UFC": 7988,
      "Gold": 7989,
      "Ins": 7990,
      "##omot": 7991,
      "agric": 7992,
      "Guad": 7993,
      "movimentos": 7994,
      "bandas": 7995,
      "Cunha": 7996,
      "##FL": 7997,
      "designa": 7998,
      "##press": 7999,
      "menores": 8000,
      "reconhecimento": 8001,
      "punk": 8002,
      "computadores": 8003,
      "##rap": 8004,
      "exec": 8005,
      "chamadas": 8006,
      "##seis": 8007,
      "animal": 8008,
      "Marcelo": 8009,
      "Gram": 8010,
      "Jam": 8011,
      "Mate": 8012,
      "los": 8013,
      "##ME": 8014,
      "##utsal": 8015,
      "alternativo": 8016,
      "##emos": 8017,
      "##ecida": 8018,
      "antrop": 8019,
      "residência": 8020,
      "marido": 8021,
      "Time": 8022,
      "pian": 8023,
      "##bs": 8024,
      "##ON": 8025,
      "latitude": 8026,
      "Wall": 8027,
      "film": 8028,
      "Neto": 8029,
      "IP": 8030,
      "comand": 8031,
      "##ingue": 8032,
      "Boy": 8033,
      "duração": 8034,
      "indo": 8035,
      "##igi": 8036,
      "Ash": 8037,
      "latino": 8038,
      "começo": 8039,
      "Receb": 8040,
      "lugares": 8041,
      "Austral": 8042,
      "##rões": 8043,
      "##ming": 8044,
      "Livro": 8045,
      "característica": 8046,
      "Justiça": 8047,
      "Profess": 8048,
      "##ble": 8049,
      "##ême": 8050,
      "##idaceae": 8051,
      "Alab": 8052,
      "Guimar": 8053,
      "colab": 8054,
      "organizações": 8055,
      "Neste": 8056,
      "##tim": 8057,
      "##stent": 8058,
      "##ines": 8059,
      "##aire": 8060,
      "possivelmente": 8061,
      "##âmico": 8062,
      "Life": 8063,
      "cub": 8064,
      "nu": 8065,
      "##lei": 8066,
      "Metal": 8067,
      "estudar": 8068,
      "multi": 8069,
      "Columbia": 8070,
      "câ": 8071,
      "pul": 8072,
      "##rum": 8073,
      "##adi": 8074,
      "##rass": 8075,
      "esportes": 8076,
      "Media": 8077,
      "Azerbai": 8078,
      "precisa": 8079,
      "Friedrich": 8080,
      "Bá": 8081,
      "##cast": 8082,
      "##kes": 8083,
      "nação": 8084,
      "apoi": 8085,
      "contendo": 8086,
      "chil": 8087,
      "transport": 8088,
      "Filipinas": 8089,
      "Kid": 8090,
      "fós": 8091,
      "pet": 8092,
      "##fi": 8093,
      "118": 8094,
      "##aya": 8095,
      "modif": 8096,
      "papa": 8097,
      "##ábia": 8098,
      "isto": 8099,
      "##róp": 8100,
      "##ifa": 8101,
      "imagens": 8102,
      "começaram": 8103,
      "Kong": 8104,
      "Od": 8105,
      "RB": 8106,
      "Arn": 8107,
      "princípio": 8108,
      "Turim": 8109,
      "seriado": 8110,
      "Stadium": 8111,
      "Guimarães": 8112,
      "##osc": 8113,
      "convid": 8114,
      "Ard": 8115,
      "##icialmente": 8116,
      "prêmios": 8117,
      "Calais": 8118,
      "Batista": 8119,
      "##ábrica": 8120,
      "carnaval": 8121,
      "Hab": 8122,
      "PA": 8123,
      "nume": 8124,
      "##ety": 8125,
      "Basquete": 8126,
      "herb": 8127,
      "rodovia": 8128,
      "fosse": 8129,
      "MH": 8130,
      "##éd": 8131,
      "##erânia": 8132,
      "peru": 8133,
      "Elect": 8134,
      "Holly": 8135,
      "longitude": 8136,
      "soviético": 8137,
      "Música": 8138,
      "Roc": 8139,
      "garant": 8140,
      "uru": 8141,
      "##fica": 8142,
      "##onta": 8143,
      "contr": 8144,
      "Livre": 8145,
      "cari": 8146,
      "##emit": 8147,
      "##ónima": 8148,
      "governou": 8149,
      "clássica": 8150,
      "sucessor": 8151,
      "transmitida": 8152,
      "pertencentes": 8153,
      "Estes": 8154,
      "##avier": 8155,
      "recu": 8156,
      "técnicas": 8157,
      "##berto": 8158,
      "##ramento": 8159,
      "Guarda": 8160,
      "Spring": 8161,
      "Kuiper": 8162,
      "Trin": 8163,
      "##dez": 8164,
      "passando": 8165,
      "Grêmio": 8166,
      "Boston": 8167,
      "Azerbaijão": 8168,
      "Doc": 8169,
      "fogue": 8170,
      "encerra": 8171,
      "Esportes": 8172,
      "decisão": 8173,
      "herói": 8174,
      "##árquico": 8175,
      "Tak": 8176,
      "tinham": 8177,
      "##újo": 8178,
      "partí": 8179,
      "acess": 8180,
      "Canal": 8181,
      "1897": 8182,
      "1894": 8183,
      "Metro": 8184,
      "Live": 8185,
      "proteg": 8186,
      "Dougl": 8187,
      "comportamento": 8188,
      "wrestling": 8189,
      "##uli": 8190,
      "##ernas": 8191,
      "capitão": 8192,
      "145": 8193,
      "Recre": 8194,
      "Wilson": 8195,
      "Harry": 8196,
      "relacionados": 8197,
      "Miranda": 8198,
      "asteróide": 8199,
      "Fez": 8200,
      "Hans": 8201,
      "Sl": 8202,
      "fat": 8203,
      "##quela": 8204,
      "##utores": 8205,
      "Samuel": 8206,
      "Young": 8207,
      "Foram": 8208,
      "Ari": 8209,
      "torna": 8210,
      "Virgínia": 8211,
      "angol": 8212,
      "pianista": 8213,
      "Vit": 8214,
      "##SE": 8215,
      "##esou": 8216,
      "exc": 8217,
      "##arista": 8218,
      "##post": 8219,
      "utilizados": 8220,
      "1891": 8221,
      "adaptação": 8222,
      "Mestre": 8223,
      "Tab": 8224,
      "##pus": 8225,
      "##bec": 8226,
      "##igência": 8227,
      "descreve": 8228,
      "Transilvânia": 8229,
      "Bernard": 8230,
      "Goiânia": 8231,
      "romena": 8232,
      "##ymp": 8233,
      "##idado": 8234,
      "Bus": 8235,
      "Wik": 8236,
      "##teis": 8237,
      "Espec": 8238,
      "comedia": 8239,
      "representante": 8240,
      "voltou": 8241,
      "House": 8242,
      "nenhum": 8243,
      "Ist": 8244,
      "Már": 8245,
      "##nch": 8246,
      "##ige": 8247,
      "modelos": 8248,
      "Bet": 8249,
      "##ône": 8250,
      "##ônima": 8251,
      "coro": 8252,
      "Casc": 8253,
      "Natural": 8254,
      "veio": 8255,
      "Socialista": 8256,
      "Ponta": 8257,
      "Isa": 8258,
      "Nel": 8259,
      "Vlad": 8260,
      "banc": 8261,
      "paz": 8262,
      "Araújo": 8263,
      "AFI": 8264,
      "Pokémon": 8265,
      "Douglas": 8266,
      "##tores": 8267,
      "##heca": 8268,
      "##lome": 8269,
      "decreto": 8270,
      "UNES": 8271,
      "Sav": 8272,
      "mong": 8273,
      "##reia": 8274,
      "125": 8275,
      "##aux": 8276,
      "Campeões": 8277,
      "Ah": 8278,
      "Ainda": 8279,
      "Arag": 8280,
      "Kenn": 8281,
      "##tório": 8282,
      "port": 8283,
      "##uti": 8284,
      "##ersão": 8285,
      "Enquanto": 8286,
      "Sérgio": 8287,
      "Democrático": 8288,
      "distribuído": 8289,
      "intitulado": 8290,
      "operou": 8291,
      "Ford": 8292,
      "Nu": 8293,
      "##ping": 8294,
      "##ésimo": 8295,
      "Tailândia": 8296,
      "praça": 8297,
      "Aur": 8298,
      "Cart": 8299,
      "Mário": 8300,
      "##enho": 8301,
      "##ítima": 8302,
      "hidro": 8303,
      "evang": 8304,
      "Ec": 8305,
      "portugueses": 8306,
      "##ásio": 8307,
      "1892": 8308,
      "Peters": 8309,
      "##ilheira": 8310,
      "Tecn": 8311,
      "visto": 8312,
      "douto": 8313,
      "compara": 8314,
      "##mino": 8315,
      "146": 8316,
      "Andrade": 8317,
      "Space": 8318,
      "pedra": 8319,
      "dispositivo": 8320,
      "Cuba": 8321,
      "Fic": 8322,
      "ce": 8323,
      "tupi": 8324,
      "##últ": 8325,
      "##egan": 8326,
      "paras": 8327,
      "Capit": 8328,
      "Náp": 8329,
      "Of": 8330,
      "##riais": 8331,
      "agrupa": 8332,
      "crimin": 8333,
      "##feros": 8334,
      "urbano": 8335,
      "##rianópolis": 8336,
      "Família": 8337,
      "mort": 8338,
      "##iguidade": 8339,
      "lenticular": 8340,
      "Basketball": 8341,
      "##ecção": 8342,
      "##raniana": 8343,
      "##ilização": 8344,
      "medica": 8345,
      "##adia": 8346,
      "estes": 8347,
      "Angra": 8348,
      "##eux": 8349,
      "traz": 8350,
      "##rilha": 8351,
      "Lux": 8352,
      "##elly": 8353,
      "interface": 8354,
      "##ódromo": 8355,
      "Prem": 8356,
      "##uch": 8357,
      "condição": 8358,
      "conduz": 8359,
      "ingress": 8360,
      "fort": 8361,
      "contou": 8362,
      "Franço": 8363,
      "Ortodo": 8364,
      "anteriores": 8365,
      "Cho": 8366,
      "Sho": 8367,
      "##gada": 8368,
      "105": 8369,
      "Joe": 8370,
      "concl": 8371,
      "1882": 8372,
      "venez": 8373,
      "Neb": 8374,
      "Rem": 8375,
      "Show": 8376,
      "rota": 8377,
      "##ds": 8378,
      "##érios": 8379,
      "##ecimento": 8380,
      "clima": 8381,
      "Paula": 8382,
      "##cular": 8383,
      "Broad": 8384,
      "Wolf": 8385,
      "melho": 8386,
      "María": 8387,
      "lançados": 8388,
      "pressão": 8389,
      "##ômica": 8390,
      "Nápoles": 8391,
      "Galiza": 8392,
      "Jas": 8393,
      "##mat": 8394,
      "##íferos": 8395,
      "dific": 8396,
      "exclusivamente": 8397,
      "Tun": 8398,
      "##vens": 8399,
      "##áut": 8400,
      "##etta": 8401,
      "aplicação": 8402,
      "profund": 8403,
      "diretora": 8404,
      "##ertos": 8405,
      "universo": 8406,
      "Armadas": 8407,
      "Wa": 8408,
      "gro": 8409,
      "Alice": 8410,
      "tratado": 8411,
      "##óloga": 8412,
      "Testamento": 8413,
      "##bour": 8414,
      "##egadas": 8415,
      "1888": 8416,
      "cresceu": 8417,
      "Começou": 8418,
      "Argélia": 8419,
      "##anchayat": 8420,
      "MP": 8421,
      "Tig": 8422,
      "jazz": 8423,
      "panchayat": 8424,
      "##gi": 8425,
      "Chris": 8426,
      "Espanh": 8427,
      "##consin": 8428,
      "estabelecido": 8429,
      "Bruno": 8430,
      "global": 8431,
      "Vall": 8432,
      "durou": 8433,
      "mass": 8434,
      "##hon": 8435,
      "sequ": 8436,
      "##ipa": 8437,
      "atletismo": 8438,
      "argentina": 8439,
      "casal": 8440,
      "##dicionais": 8441,
      "hidrog": 8442,
      "Cav": 8443,
      "Lit": 8444,
      "##si": 8445,
      "##reu": 8446,
      "urbana": 8447,
      "Pomerânia": 8448,
      "Wisconsin": 8449,
      "Dac": 8450,
      "Hil": 8451,
      "##AF": 8452,
      "##rons": 8453,
      "inim": 8454,
      "aglome": 8455,
      "administrador": 8456,
      "setor": 8457,
      "Rafa": 8458,
      "assumiu": 8459,
      "eclesiástica": 8460,
      "núcleo": 8461,
      "##GB": 8462,
      "##ecom": 8463,
      "##pressão": 8464,
      "considerados": 8465,
      "human": 8466,
      "Blue": 8467,
      "Hou": 8468,
      "SS": 8469,
      "gira": 8470,
      "##orde": 8471,
      "##ices": 8472,
      "##aros": 8473,
      "carb": 8474,
      "127": 8475,
      "campos": 8476,
      "anunciou": 8477,
      "câmara": 8478,
      "zo": 8479,
      "##rev": 8480,
      "presentes": 8481,
      "Amara": 8482,
      "Negro": 8483,
      "Cr": 8484,
      "card": 8485,
      "dit": 8486,
      "##riarca": 8487,
      "##etti": 8488,
      "##ody": 8489,
      "carga": 8490,
      "representando": 8491,
      "##iformes": 8492,
      "cron": 8493,
      "dimin": 8494,
      "sinal": 8495,
      "actu": 8496,
      "produzidos": 8497,
      "##ika": 8498,
      "reflet": 8499,
      "Saúde": 8500,
      "propriedades": 8501,
      "textos": 8502,
      "memória": 8503,
      "Stephen": 8504,
      "##unh": 8505,
      "##chester": 8506,
      "##ristas": 8507,
      "online": 8508,
      "Nota": 8509,
      "casas": 8510,
      "embarc": 8511,
      "expansão": 8512,
      "corrente": 8513,
      "ambas": 8514,
      "Sicília": 8515,
      "baterista": 8516,
      "bud": 8517,
      "##apura": 8518,
      "Estudou": 8519,
      "1870": 8520,
      "Rodrigo": 8521,
      "bact": 8522,
      "organismos": 8523,
      "Lab": 8524,
      "Win": 8525,
      "coment": 8526,
      "reais": 8527,
      "Châ": 8528,
      "Alexandria": 8529,
      "símbolos": 8530,
      "orquídea": 8531,
      "Pico": 8532,
      "visão": 8533,
      "reação": 8534,
      "##cep": 8535,
      "108": 8536,
      "109": 8537,
      "confirm": 8538,
      "próxim": 8539,
      "ferroviária": 8540,
      "pesquisas": 8541,
      "nenhuma": 8542,
      "cla": 8543,
      "hop": 8544,
      "##oint": 8545,
      "predomin": 8546,
      "juris": 8547,
      "Torres": 8548,
      "beleza": 8549,
      "comediante": 8550,
      "Kos": 8551,
      "jud": 8552,
      "##RA": 8553,
      "fundadores": 8554,
      "alfabeto": 8555,
      "escocês": 8556,
      "Dig": 8557,
      "##ízes": 8558,
      "pele": 8559,
      "consorte": 8560,
      "##ísticos": 8561,
      "Tratado": 8562,
      "ensa": 8563,
      "Bert": 8564,
      "Ont": 8565,
      "##king": 8566,
      "##mentista": 8567,
      "Ark": 8568,
      "eletrônica": 8569,
      "Hamb": 8570,
      "Tav": 8571,
      "Zh": 8572,
      "##xi": 8573,
      "emit": 8574,
      "##antina": 8575,
      "compostos": 8576,
      "acontece": 8577,
      "heavy": 8578,
      "Mam": 8579,
      "Ye": 8580,
      "santo": 8581,
      "##iste": 8582,
      "Alan": 8583,
      "119": 8584,
      "volume": 8585,
      "##isebol": 8586,
      "aeronaves": 8587,
      "Andrew": 8588,
      "Censo": 8589,
      "Hong": 8590,
      "Teix": 8591,
      "ferra": 8592,
      "frag": 8593,
      "##alis": 8594,
      "##irma": 8595,
      "106": 8596,
      "produzir": 8597,
      "##portiva": 8598,
      "Montreal": 8599,
      "Michel": 8600,
      "Mira": 8601,
      "Tol": 8602,
      "##gráfico": 8603,
      "##érie": 8604,
      "##arl": 8605,
      "quin": 8606,
      "atuais": 8607,
      "##ômico": 8608,
      "Dois": 8609,
      "Tit": 8610,
      "UTC": 8611,
      "##enberg": 8612,
      "suce": 8613,
      "##umes": 8614,
      "desapar": 8615,
      "infra": 8616,
      "##ássico": 8617,
      "Sports": 8618,
      "vag": 8619,
      "##atem": 8620,
      "##ifer": 8621,
      "ascendência": 8622,
      "radial": 8623,
      "Christop": 8624,
      "UNESCO": 8625,
      "crit": 8626,
      "##opera": 8627,
      "Algar": 8628,
      "##diais": 8629,
      "##ielorr": 8630,
      "promovido": 8631,
      "pi": 8632,
      "##sch": 8633,
      "progress": 8634,
      "semanas": 8635,
      "taxon": 8636,
      "campista": 8637,
      "mostra": 8638,
      "Niter": 8639,
      "nono": 8640,
      "oposição": 8641,
      "cobre": 8642,
      "quer": 8643,
      "tradicionais": 8644,
      "Inic": 8645,
      "coluna": 8646,
      "##illy": 8647,
      "verão": 8648,
      "Good": 8649,
      "homónima": 8650,
      "Conceição": 8651,
      "##quesa": 8652,
      "##ander": 8653,
      "criança": 8654,
      "Carac": 8655,
      "##yu": 8656,
      "##rik": 8657,
      "corpora": 8658,
      "##érm": 8659,
      "Colorado": 8660,
      "Polícia": 8661,
      "apelido": 8662,
      "Ri": 8663,
      "##forme": 8664,
      "##ondo": 8665,
      "##erida": 8666,
      "##ertas": 8667,
      "250": 8668,
      "estabelecida": 8669,
      "facil": 8670,
      "Jacob": 8671,
      "Russa": 8672,
      "##iterrâneo": 8673,
      "confro": 8674,
      "##tended": 8675,
      "Fi": 8676,
      "Gas": 8677,
      "##jar": 8678,
      "Teresa": 8679,
      "germ": 8680,
      "resulta": 8681,
      "ATP": 8682,
      "Toc": 8683,
      "##enço": 8684,
      "sejam": 8685,
      "##ches": 8686,
      "Comissão": 8687,
      "112": 8688,
      "##inário": 8689,
      "atra": 8690,
      "##estina": 8691,
      "união": 8692,
      "##ridades": 8693,
      "estruturas": 8694,
      "Dak": 8695,
      "mos": 8696,
      "##fal": 8697,
      "Alago": 8698,
      "plural": 8699,
      "Class": 8700,
      "existentes": 8701,
      "totalmente": 8702,
      "definida": 8703,
      "Florianópolis": 8704,
      "magistra": 8705,
      "telescópio": 8706,
      "NAS": 8707,
      "gás": 8708,
      "##ocal": 8709,
      "exte": 8710,
      "Ala": 8711,
      "Ano": 8712,
      "Cord": 8713,
      "Nesta": 8714,
      "vírus": 8715,
      "##êncio": 8716,
      "##olfo": 8717,
      "Poly": 8718,
      "Nicola": 8719,
      "Olimpíadas": 8720,
      "##hol": 8721,
      "clé": 8722,
      "novela": 8723,
      "##olante": 8724,
      "freguesias": 8725,
      "publicou": 8726,
      "limite": 8727,
      "frequent": 8728,
      "Niterói": 8729,
      "AB": 8730,
      "Cór": 8731,
      "Hard": 8732,
      "Hunt": 8733,
      "prol": 8734,
      "##ceo": 8735,
      "abrange": 8736,
      "Pinheiro": 8737,
      "Eric": 8738,
      "ICA": 8739,
      "Zo": 8740,
      "##bas": 8741,
      "desl": 8742,
      "##sey": 8743,
      "##desh": 8744,
      "referida": 8745,
      "etapas": 8746,
      "Lewis": 8747,
      "pros": 8748,
      "##írio": 8749,
      "Maur": 8750,
      "televis": 8751,
      "apresentam": 8752,
      "cirílico": 8753,
      "Hein": 8754,
      "temperatura": 8755,
      "Jornal": 8756,
      "Reno": 8757,
      "Squ": 8758,
      "Viv": 8759,
      "##pol": 8760,
      "##icul": 8761,
      "##icismo": 8762,
      "arco": 8763,
      "habita": 8764,
      "##estino": 8765,
      "romântico": 8766,
      "144": 8767,
      "1881": 8768,
      "apareceu": 8769,
      "ponta": 8770,
      "esses": 8771,
      "órgãos": 8772,
      "floresta": 8773,
      "literário": 8774,
      "##ometria": 8775,
      "pé": 8776,
      "pec": 8777,
      "shi": 8778,
      "##eli": 8779,
      "##âng": 8780,
      "Arc": 8781,
      "116": 8782,
      "artif": 8783,
      "governa": 8784,
      "##venção": 8785,
      "invasão": 8786,
      "Pessoa": 8787,
      "Pio": 8788,
      "deb": 8789,
      "##pez": 8790,
      "Algu": 8791,
      "arma": 8792,
      "Só": 8793,
      "houve": 8794,
      "selo": 8795,
      "##HF": 8796,
      "##ān": 8797,
      "##olos": 8798,
      "##endem": 8799,
      "usar": 8800,
      "##ótica": 8801,
      "desenvolveu": 8802,
      "deusa": 8803,
      "##eir": 8804,
      "##iciência": 8805,
      "teólogo": 8806,
      "nativo": 8807,
      "1885": 8808,
      "Plat": 8809,
      "estudantes": 8810,
      "Alfred": 8811,
      "##helm": 8812,
      "Manh": 8813,
      "##bach": 8814,
      "mante": 8815,
      "##eleções": 8816,
      "##uck": 8817,
      "apresentada": 8818,
      "Fonte": 8819,
      "ocupa": 8820,
      "3D": 8821,
      "##usco": 8822,
      "Corr": 8823,
      "selecion": 8824,
      "Manaus": 8825,
      "##emitério": 8826,
      "mad": 8827,
      "##úrg": 8828,
      "##inamento": 8829,
      "colabora": 8830,
      "imple": 8831,
      "Boa": 8832,
      "tentativa": 8833,
      "identidade": 8834,
      "marinha": 8835,
      "Fighting": 8836,
      "questões": 8837,
      "Teixeira": 8838,
      "Blu": 8839,
      "Mata": 8840,
      "##íaco": 8841,
      "poten": 8842,
      "Chi": 8843,
      "polegadas": 8844,
      "anti": 8845,
      "Abra": 8846,
      "1886": 8847,
      "autôn": 8848,
      "comerciais": 8849,
      "Letras": 8850,
      "notável": 8851,
      "contrário": 8852,
      "Gin": 8853,
      "##lau": 8854,
      "Medicina": 8855,
      "continua": 8856,
      "Defesa": 8857,
      "Anthony": 8858,
      "dito": 8859,
      "##mão": 8860,
      "daquele": 8861,
      "##udos": 8862,
      "origens": 8863,
      "fazia": 8864,
      "críticas": 8865,
      "Oxford": 8866,
      "respeito": 8867,
      "Bragança": 8868,
      "Cec": 8869,
      "##rand": 8870,
      "prev": 8871,
      "associada": 8872,
      "Pale": 8873,
      "gas": 8874,
      "##aste": 8875,
      "Cham": 8876,
      "Inst": 8877,
      "##ultos": 8878,
      "constitui": 8879,
      "molé": 8880,
      "dissol": 8881,
      "internet": 8882,
      "Kam": 8883,
      "hal": 8884,
      "Marte": 8885,
      "121": 8886,
      "##igante": 8887,
      "Disc": 8888,
      "Brian": 8889,
      "Dream": 8890,
      "Len": 8891,
      "##sei": 8892,
      "##eig": 8893,
      "##nco": 8894,
      "aberta": 8895,
      "sobren": 8896,
      "140": 8897,
      "relat": 8898,
      "relativamente": 8899,
      "sofre": 8900,
      "receber": 8901,
      "demais": 8902,
      "especializado": 8903,
      "particularmente": 8904,
      "Ens": 8905,
      "arist": 8906,
      "leve": 8907,
      "sh": 8908,
      "ópera": 8909,
      "##ibus": 8910,
      "artigos": 8911,
      "operacional": 8912,
      "finais": 8913,
      "completo": 8914,
      "François": 8915,
      "Bulg": 8916,
      "neu": 8917,
      "##raft": 8918,
      "proposta": 8919,
      "companh": 8920,
      "cord": 8921,
      "descrever": 8922,
      "##orregião": 8923,
      "sant": 8924,
      "##DE": 8925,
      "##itando": 8926,
      "##atória": 8927,
      "##ogen": 8928,
      "##evich": 8929,
      "Hyd": 8930,
      "incorpora": 8931,
      "promoção": 8932,
      "Biblioteca": 8933,
      "Rh": 8934,
      "Viana": 8935,
      "aéreo": 8936,
      "discos": 8937,
      "realizar": 8938,
      "golpe": 8939,
      "alguma": 8940,
      "Schw": 8941,
      "costu": 8942,
      "##aviera": 8943,
      "vegeta": 8944,
      "Chin": 8945,
      "sert": 8946,
      "##estru": 8947,
      "103": 8948,
      "pseudônimo": 8949,
      "manifesta": 8950,
      "Recebeu": 8951,
      "Baviera": 8952,
      "Fall": 8953,
      "##isso": 8954,
      "##ions": 8955,
      "Ministro": 8956,
      "instrumentos": 8957,
      "territorial": 8958,
      "600": 8959,
      "##arat": 8960,
      "##mante": 8961,
      "acidente": 8962,
      "Carlo": 8963,
      "##ideo": 8964,
      "Sex": 8965,
      "solar": 8966,
      "anc": 8967,
      "##jou": 8968,
      "colo": 8969,
      "queda": 8970,
      "ord": 8971,
      "music": 8972,
      "Isl": 8973,
      "Harris": 8974,
      "egípcio": 8975,
      "Hollywood": 8976,
      "Song": 8977,
      "nerv": 8978,
      "##enza": 8979,
      "prisão": 8980,
      "automóvel": 8981,
      "Cretá": 8982,
      "permaneceu": 8983,
      "nobili": 8984,
      "Aos": 8985,
      "Russ": 8986,
      "aç": 8987,
      "##ción": 8988,
      "1880": 8989,
      "##ábio": 8990,
      "Mediterrâneo": 8991,
      "guitarra": 8992,
      "Obs": 8993,
      ",,": 8994,
      "Xbox": 8995,
      "ade": 8996,
      "dor": 8997,
      "mi": 8998,
      "tão": 8999,
      "##IA": 9000,
      "##BO": 9001,
      "doenças": 9002,
      "##atra": 9003,
      "constante": 9004,
      "##ologias": 9005,
      "deleg": 9006,
      "Ursa": 9007,
      "Bizantino": 9008,
      "fug": 9009,
      "paci": 9010,
      "##peonatos": 9011,
      "1884": 9012,
      "salto": 9013,
      "Barbosa": 9014,
      "##olor": 9015,
      "Comm": 9016,
      "usadas": 9017,
      "Quint": 9018,
      "vivem": 9019,
      "distribuí": 9020,
      "dinossauro": 9021,
      "ON": 9022,
      "Py": 9023,
      "RPG": 9024,
      "rod": 9025,
      "##dis": 9026,
      "##zu": 9027,
      "##enzo": 9028,
      "##onga": 9029,
      "##ogle": 9030,
      "Produc": 9031,
      "culinária": 9032,
      "1887": 9033,
      "radio": 9034,
      "Devido": 9035,
      "proprietário": 9036,
      "semelhantes": 9037,
      "Taylor": 9038,
      "Jura": 9039,
      "Sib": 9040,
      "navios": 9041,
      "Union": 9042,
      "conservação": 9043,
      "##endas": 9044,
      "vere": 9045,
      "pronunciado": 9046,
      "Domingos": 9047,
      "Alabama": 9048,
      "Rafael": 9049,
      "CP": 9050,
      "FA": 9051,
      "fárm": 9052,
      "##xido": 9053,
      "emérito": 9054,
      "##diu": 9055,
      "##enham": 9056,
      "Fred": 9057,
      "tail": 9058,
      "Ramos": 9059,
      "mamíferos": 9060,
      "Jovem": 9061,
      "Sci": 9062,
      "sap": 9063,
      "##rensa": 9064,
      "Coelho": 9065,
      "dinheiro": 9066,
      "poucos": 9067,
      "mudanças": 9068,
      "vulc": 9069,
      "##terofil": 9070,
      "automobilista": 9071,
      "Id": 9072,
      "##mira": 9073,
      "##erd": 9074,
      "##roco": 9075,
      "##emy": 9076,
      "canais": 9077,
      "ciências": 9078,
      "soldados": 9079,
      "pesquisador": 9080,
      "Desenvolvimento": 9081,
      "##orf": 9082,
      "##asco": 9083,
      "##itta": 9084,
      "projetos": 9085,
      "crime": 9086,
      "Seul": 9087,
      "delas": 9088,
      "Jacques": 9089,
      "Alente": 9090,
      "notícias": 9091,
      "subsidi": 9092,
      "idioma": 9093,
      "Brig": 9094,
      "Mir": 9095,
      "##kov": 9096,
      "Porta": 9097,
      "parcial": 9098,
      "104": 9099,
      "Polo": 9100,
      "designar": 9101,
      "patrim": 9102,
      "homônima": 9103,
      "definido": 9104,
      "Democrata": 9105,
      "Comunista": 9106,
      "vendido": 9107,
      "CON": 9108,
      "protagonista": 9109,
      "Cambridge": 9110,
      "Om": 9111,
      "Ran": 9112,
      "pale": 9113,
      "sop": 9114,
      "##pest": 9115,
      "##ímetros": 9116,
      "Marques": 9117,
      "113": 9118,
      "115": 9119,
      "cert": 9120,
      "##orrer": 9121,
      "mecânica": 9122,
      "Iugosl": 9123,
      "##itro": 9124,
      "##anth": 9125,
      "##lamen": 9126,
      "##chel": 9127,
      "Proc": 9128,
      "culturais": 9129,
      "express": 9130,
      "mosteiro": 9131,
      "página": 9132,
      "Rond": 9133,
      "##uo": 9134,
      "##wo": 9135,
      "##ênt": 9136,
      "##andra": 9137,
      "temas": 9138,
      "Society": 9139,
      "Pin": 9140,
      "jorn": 9141,
      "extended": 9142,
      "##aios": 9143,
      "122": 9144,
      "participantes": 9145,
      "baía": 9146,
      "Bulgária": 9147,
      "BBC": 9148,
      "Ple": 9149,
      "dro": 9150,
      "seleções": 9151,
      "107": 9152,
      "##éticas": 9153,
      "médica": 9154,
      "astron": 9155,
      "europeus": 9156,
      "atingir": 9157,
      "patrocínio": 9158,
      "Hom": 9159,
      "Light": 9160,
      "Mog": 9161,
      "##wick": 9162,
      "comunas": 9163,
      "##chen": 9164,
      "criados": 9165,
      "Indust": 9166,
      "interpretada": 9167,
      "virtu": 9168,
      "Ub": 9169,
      "mig": 9170,
      "zonas": 9171,
      "##oricamente": 9172,
      "##wig": 9173,
      "##erado": 9174,
      "descendente": 9175,
      "divisões": 9176,
      "End": 9177,
      "Juventude": 9178,
      "tripul": 9179,
      "definição": 9180,
      "Dinastia": 9181,
      "Velha": 9182,
      "teatral": 9183,
      "Cretáceo": 9184,
      "EM": 9185,
      "tudo": 9186,
      "parla": 9187,
      "##ífero": 9188,
      "humor": 9189,
      "Charente": 9190,
      "auxiliar": 9191,
      "Tot": 9192,
      "meios": 9193,
      "##órica": 9194,
      "##èv": 9195,
      "##onda": 9196,
      "##dou": 9197,
      "preserv": 9198,
      "Amade": 9199,
      "Dead": 9200,
      "semi": 9201,
      "falta": 9202,
      "existiu": 9203,
      "chegar": 9204,
      "Liberal": 9205,
      "Garcia": 9206,
      "organismo": 9207,
      "##ânscrito": 9208,
      "ICAO": 9209,
      "##lyn": 9210,
      "##inger": 9211,
      "perda": 9212,
      "participar": 9213,
      "antigamente": 9214,
      "indivíduo": 9215,
      "amarelo": 9216,
      "correspondente": 9217,
      "Cardoso": 9218,
      "Japon": 9219,
      "Sue": 9220,
      "hin": 9221,
      "##die": 9222,
      "graduação": 9223,
      "investigação": 9224,
      "Sanc": 9225,
      "##ER": 9226,
      "coração": 9227,
      "##medi": 9228,
      "Maia": 9229,
      "126": 9230,
      "peda": 9231,
      "##porta": 9232,
      "##inasta": 9233,
      "aliment": 9234,
      "manter": 9235,
      "oceano": 9236,
      "Comitê": 9237,
      "simplificado": 9238,
      "Alasca": 9239,
      "Alentejo": 9240,
      "Hart": 9241,
      "Lang": 9242,
      "Má": 9243,
      "ada": 9244,
      "ál": 9245,
      "##uni": 9246,
      "Mah": 9247,
      "142": 9248,
      "aval": 9249,
      "universal": 9250,
      "Organização": 9251,
      "Racing": 9252,
      "%,": 9253,
      "Fons": 9254,
      "foc": 9255,
      "##quil": 9256,
      "##apor": 9257,
      "agrí": 9258,
      "##dorf": 9259,
      "Vermelho": 9260,
      "Laura": 9261,
      "Google": 9262,
      "proteção": 9263,
      "Somme": 9264,
      "guerras": 9265,
      "lógica": 9266,
      "Lourenço": 9267,
      "Gia": 9268,
      "Sid": 9269,
      "Tob": 9270,
      "vendeu": 9271,
      "##rix": 9272,
      "##unos": 9273,
      "##ulta": 9274,
      "naval": 9275,
      "##gura": 9276,
      "Encont": 9277,
      "monumento": 9278,
      "georgiano": 9279,
      "Orchidaceae": 9280,
      "##itores": 9281,
      "##ciada": 9282,
      "Europe": 9283,
      "utiliza": 9284,
      "comercia": 9285,
      "Croácia": 9286,
      "ordenado": 9287,
      "Poste": 9288,
      "assassinato": 9289,
      "Baixo": 9290,
      "ginasta": 9291,
      "Évora": 9292,
      "chu": 9293,
      "passar": 9294,
      "apresentar": 9295,
      "posse": 9296,
      "1868": 9297,
      "Complex": 9298,
      "Sard": 9299,
      "Torn": 9300,
      "aço": 9301,
      "##yp": 9302,
      "##fin": 9303,
      "##onde": 9304,
      "Porém": 9305,
      "guarda": 9306,
      "cristãos": 9307,
      "relacionadas": 9308,
      "essas": 9309,
      "lucra": 9310,
      "Bei": 9311,
      "Dj": 9312,
      "bens": 9313,
      "##dicos": 9314,
      "128": 9315,
      "históricos": 9316,
      "monot": 9317,
      "existente": 9318,
      "deputados": 9319,
      "Cry": 9320,
      "##reiras": 9321,
      "##outh": 9322,
      "##ísica": 9323,
      "cultiv": 9324,
      "líquido": 9325,
      "Pho": 9326,
      "##amina": 9327,
      "##talo": 9328,
      "##ashi": 9329,
      "Haw": 9330,
      "atingiu": 9331,
      "anunciado": 9332,
      "problema": 9333,
      "paulista": 9334,
      "personalidade": 9335,
      "Nelson": 9336,
      "##heim": 9337,
      "##dam": 9338,
      "##êut": 9339,
      "##tua": 9340,
      "console": 9341,
      "resposta": 9342,
      "Patrick": 9343,
      "1878": 9344,
      "Budap": 9345,
      "Gue": 9346,
      "##orro": 9347,
      "verdade": 9348,
      "Freitas": 9349,
      "decidiu": 9350,
      "periód": 9351,
      "Bapt": 9352,
      "##uca": 9353,
      "##ranha": 9354,
      "Estas": 9355,
      "cujos": 9356,
      "1860": 9357,
      "géneros": 9358,
      "negro": 9359,
      "Renas": 9360,
      "##tenimento": 9361,
      "117": 9362,
      "experiência": 9363,
      "Mosteiro": 9364,
      "RS": 9365,
      "cál": 9366,
      "las": 9367,
      "áto": 9368,
      "##ław": 9369,
      "##anna": 9370,
      "cinematográfica": 9371,
      "nobiliárquico": 9372,
      "Dent": 9373,
      "Dark": 9374,
      "Far": 9375,
      "Ken": 9376,
      "##zinho": 9377,
      "##jador": 9378,
      "136": 9379,
      "significado": 9380,
      "aumento": 9381,
      "reconhecida": 9382,
      "boa": 9383,
      "beisebol": 9384,
      "IATA": 9385,
      "gr": 9386,
      "##arch": 9387,
      "##ritas": 9388,
      "casado": 9389,
      "##rônimo": 9390,
      "cujas": 9391,
      "Palme": 9392,
      "feitas": 9393,
      "negócios": 9394,
      "documentos": 9395,
      "promover": 9396,
      "Maryland": 9397,
      "AR": 9398,
      "mão": 9399,
      "tio": 9400,
      "##õem": 9401,
      "##imir": 9402,
      "argu": 9403,
      "##vey": 9404,
      "obter": 9405,
      "formalmente": 9406,
      "Moto": 9407,
      "máximo": 9408,
      "videocl": 9409,
      "sétima": 9410,
      "sucedido": 9411,
      "Corte": 9412,
      "fr": 9413,
      "sono": 9414,
      "##ea": 9415,
      "##úne": 9416,
      "##iforme": 9417,
      "##ísia": 9418,
      "##bury": 9419,
      "literária": 9420,
      "CN": 9421,
      "aus": 9422,
      "pan": 9423,
      "tira": 9424,
[...]
