{
  "version": "1.0",
  "truncation": null,
  "padding": null,
  "added_tokens": [
    {
      "id": 0,
      "content": "[PAD]",
      "single_word": false,
      "lstrip": false,
      "rstrip": false,
      "normalized": false,
      "special": true
    },
    {
      "id": 1,
      "content": "[UNK]",
      "single_word": false,
      "lstrip": false,
      "rstrip": false,
      "normalized": false,
      "special": true
    },
    {
      "id": 2,
      "content": "[BOS]",
      "single_word": false,
      "lstrip": false,
      "rstrip": false,
      "normalized": false,
      "special": true
    },
    {
      "id": 3,
      "content": "[EOS]",
      "single_word": false,
      "lstrip": false,
      "rstrip": false,
      "normalized": false,
      "special": true
    }
  ],
  "normalizer": null,
  "pre_tokenizer": {
    "type": "Whitespace"
  },
  "post_processor": {
    "type": "TemplateProcessing",
    "single": [
      {
        "SpecialToken": {
          "id": "[BOS]",
          "type_id": 0
        }
      },
      {
        "Sequence": {
          "id": "A",
          "type_id": 0
        }
      },
      {
        "SpecialToken": {
          "id": "[EOS]",
          "type_id": 0
        }
      }
    ],
    "pair": [
      {
        "Sequence": {
          "id": "A",
          "type_id": 0
        }
      },
      {
        "Sequence": {
          "id": "B",
          "type_id": 1
        }
      }
    ],
    "special_tokens": {
      "[BOS]": {
        "id": "[BOS]",
        "ids": [
          2
        ],
        "tokens": [
          "[BOS]"
        ]
      },
      "[EOS]": {
        "id": "[EOS]",
        "ids": [
          3
        ],
        "tokens": [
          "[EOS]"
        ]
      }
    }
  },
  "decoder": null,
  "model": {
    "type": "BPE",
    "dropout": null,
    "unk_token": null,
    "continuing_subword_prefix": "##",
    "end_of_word_suffix": null,
    "fuse_unk": false,
    "byte_fallback": false,
    "ignore_merges": false,
    "vocab": {
      "[PAD]": 0,
      "[UNK]": 1,
      "[BOS]": 2,
      "[EOS]": 3,
      "!": 4,
      "%": 5,
      ",": 6,
      "-": 7,
      "/": 8,
      "0": 9,
      "1": 10,
      "2": 11,
      "3": 12,
      "4": 13,
      "5": 14,
      "6": 15,
      "7": 16,
      "8": 17,
      "9": 18,
      ":": 19,
      ";": 20,
      "?": 21,
      "A": 22,
      "B": 23,
      "C": 24,
      "D": 25,
      "E": 26,
      "F": 27,
      "G": 28,
      "H": 29,
      "I": 30,
      "J": 31,
      "K": 32,
      "L": 33,
      "M": 34,
      "N": 35,
      "O": 36,
      "P": 37,
      "Q": 38,
      "R": 39,
      "S": 40,
      "T": 41,
      "U": 42,
      "V": 43,
      "W": 44,
      "X": 45,
      "Y": 46,
      "Z": 47,
      "a": 48,
      "b": 49,
      "c": 50,
      "d": 51,
      "e": 52,
      "f": 53,
      "g": 54,
      "h": 55,
      "i": 56,
      "j": 57,
      "k": 58,
      "l": 59,
      "m": 60,
      "n": 61,
      "o": 62,
      "p": 63,
      "q": 64,
      "r": 65,
      "s": 66,
      "t": 67,
      "u": 68,
      "v": 69,
      "w": 70,
      "x": 71,
      "y": 72,
      "z": 73,
      "²": 74,
      "³": 75,
      "¹": 76,
      "À": 77,
      "Á": 78,
      "Â": 79,
      "Ã": 80,
      "Ä": 81,
      "Å": 82,
      "Æ": 83,
      "Ç": 84,
      "È": 85,
      "É": 86,
      "Ê": 87,
      "Ë": 88,
      "Ì": 89,
      "Í": 90,
      "Î": 91,
      "Ð": 92,
      "Ñ": 93,
      "Ò": 94,
      "Ó": 95,
      "Ô": 96,
      "Õ": 97,
      "Ö": 98,
      "Ø": 99,
      "Ù": 100,
      "Ú": 101,
      "Û": 102,
      "Ü": 103,
      "Ý": 104,
      "Þ": 105,
      "ß": 106,
      "à": 107,
      "á": 108,
      "â": 109,
      "ã": 110,
      "ä": 111,
      "å": 112,
      "æ": 113,
      "ç": 114,
      "è": 115,
      "é": 116,
      "ê": 117,
      "ë": 118,
      "ì": 119,
      "í": 120,
      "î": 121,
      "ï": 122,
      "ð": 123,
      "ñ": 124,
      "ò": 125,
      "ó": 126,
      "ô": 127,
      "õ": 128,
      "ö": 129,
      "ø": 130,
      "ù": 131,
      "ú": 132,
      "û": 133,
      "ü": 134,
      "ý": 135,
      "þ": 136,
      "ÿ": 137,
      "Ā": 138,
      "ā": 139,
      "Ă": 140,
      "ă": 141,
      "ą": 142,
      "Ć": 143,
      "ć": 144,
      "Ĉ": 145,
      "ĉ": 146,
      "ċ": 147,
      "Č": 148,
      "č": 149,
      "Ď": 150,
      "ď": 151,
      "Đ": 152,
      "đ": 153,
      "Ē": 154,
      "ē": 155,
      "Ĕ": 156,
      "ĕ": 157,
      "ė": 158,
      "ę": 159,
      "Ě": 160,
      "ě": 161,
      "Ĝ": 162,
      "ĝ": 163,
      "Ğ": 164,
      "ğ": 165,
      "Ġ": 166,
      "ġ": 167,
      "Ģ": 168,
      "ģ": 169,
      "Ħ": 170,
      "ħ": 171,
      "ĩ": 172,
      "Ī": 173,
      "ī": 174,
      "ĭ": 175,
      "į": 176,
      "İ": 177,
      "ı": 178,
      "ĵ": 179,
      "Ķ": 180,
      "ķ": 181,
      "ĺ": 182,
      "ļ": 183,
      "Ľ": 184,
      "ľ": 185,
      "ŀ": 186,
      "Ł": 187,
      "ł": 188,
      "ń": 189,
      "Ņ": 190,
      "ņ": 191,
      "ň": 192,
      "Ŋ": 193,
      "ŋ": 194,
      "Ō": 195,
      "ō": 196,
      "Ŏ": 197,
      "ŏ": 198,
      "Ő": 199,
      "ő": 200,
      "Œ": 201,
      "œ": 202,
      "ŕ": 203,
      "Ř": 204,
      "ř": 205,
      "Ś": 206,
      "ś": 207,
      "Ŝ": 208,
      "ŝ": 209,
      "Ş": 210,
      "ş": 211,
      "Š": 212,
      "š": 213,
      "Ţ": 214,
      "ţ": 215,
      "ť": 216,
      "ŧ": 217,
      "ũ": 218,
      "Ū": 219,
      "ū": 220,
      "Ŭ": 221,
      "ŭ": 222,
      "ů": 223,
      "ű": 224,
      "ų": 225,
      "ŵ": 226,
      "ŷ": 227,
      "ź": 228,
      "Ż": 229,
      "ż": 230,
      "Ž": 231,
      "ž": 232,
      "Ɓ": 233,
      "Ɔ": 234,
      "Ǝ": 235,
      "Ə": 236,
      "Ɛ": 237,
      "ƒ": 238,
      "ƛ": 239,
      "ơ": 240,
      "ư": 241,
      "Ƶ": 242,
      "ƾ": 243,
      "ƿ": 244,
      "ǀ": 245,
      "ǁ": 246,
      "ǂ": 247,
      "ǃ": 248,
      "Ǎ": 249,
      "ǎ": 250,
      "ǐ": 251,
      "ǒ": 252,
      "Ǔ": 253,
      "ǔ": 254,
      "ǘ": 255,
      "ǚ": 256,
      "ǜ": 257,
      "ǝ": 258,
      "ǣ": 259,
      "ǧ": 260,
      "ǫ": 261,
      "ǰ": 262,
      "ǵ": 263,
      "Ƿ": 264,
      "Ǻ": 265,
      "ȏ": 266,
      "Ș": 267,
      "ș": 268,
      "Ț": 269,
      "ț": 270,
      "Ȝ": 271,
      "ȝ": 272,
      "ȟ": 273,
      "ȭ": 274,
      "ȳ": 275,
      "ȼ": 276,
      "Ɂ": 277,
      "ɐ": 278,
      "ɑ": 279,
      "ɒ": 280,
      "ɓ": 281,
      "ɔ": 282,
      "ɕ": 283,
      "ɖ": 284,
      "ɗ": 285,
      "ɘ": 286,
      "ə": 287,
      "ɚ": 288,
      "ɛ": 289,
      "ɜ": 290,
      "ɝ": 291,
      "ɟ": 292,
      "ɡ": 293,
      "ɢ": 294,
      "ɣ": 295,
      "ɤ": 296,
      "ɥ": 297,
      "ɦ": 298,
      "ɨ": 299,
      "ɩ": 300,
      "ɪ": 301,
      "ɫ": 302,
      "ɬ": 303,
      "ɭ": 304,
      "ɮ": 305,
      "ɯ": 306,
      "ɰ": 307,
      "ɱ": 308,
      "ɲ": 309,
      "ɴ": 310,
      "ɵ": 311,
      "ɸ": 312,
      "ɹ": 313,
      "ɺ": 314,
      "ɻ": 315,
      "ɼ": 316,
      "ɽ": 317,
      "ɾ": 318,
      "ɿ": 319,
      "ʀ": 320,
      "ʁ": 321,
      "ʂ": 322,
      "ʃ": 323,
      "ʄ": 324,
      "ʈ": 325,
      "ʉ": 326,
      "ʊ": 327,
      "ʋ": 328,
      "ʌ": 329,
      "ʍ": 330,
      "ʎ": 331,
      "ʏ": 332,
      "ʐ": 333,
      "ʑ": 334,
      "ʒ": 335,
      "ʔ": 336,
      "ʕ": 337,
      "ʖ": 338,
      "ʘ": 339,
      "ʙ": 340,
      "ʝ": 341,
      "ʟ": 342,
      "ʡ": 343,
      "ʢ": 344,
      "ʣ": 345,
      "ʥ": 346,
      "ʦ": 347,
      "ʧ": 348,
      "ʨ": 349,
      "١": 350,
      "۱": 351,
      "۳": 352,
      "۶": 353,
      "०": 354,
      "१": 355,
      "२": 356,
      "४": 357,
      "६": 358,
      "১": 359,
      "৫": 360,
      "፬": 361,
      "១": 362,
      "៧": 363,
      "ᴘ": 364,
      "ᵻ": 365,
      "ᵽ": 366,
      "ḇ": 367,
      "ḍ": 368,
      "ḏ": 369,
      "ḑ": 370,
      "ḓ": 371,
      "ḕ": 372,
      "Ḗ": 373,
      "ḗ": 374,
      "Ḥ": 375,
      "ḥ": 376,
      "Ḩ": 377,
      "ḩ": 378,
      "Ḫ": 379,
      "ḫ": 380,
      "ḯ": 381,
      "ḱ": 382,
      "Ḳ": 383,
      "ḳ": 384,
      "Ḵ": 385,
      "ḵ": 386,
      "Ḷ": 387,
      "ḷ": 388,
      "ḻ": 389,
      "ṁ": 390,
      "ṃ": 391,
      "ṅ": 392,
      "Ṇ": 393,
      "ṇ": 394,
      "ṉ": 395,
      "ṓ": 396,
      "ṕ": 397,
      "ṗ": 398,
      "Ṙ": 399,
      "ṙ": 400,
      "Ṛ": 401,
      "ṛ": 402,
      "ṟ": 403,
      "ṡ": 404,
      "Ṣ": 405,
      "ṣ": 406,
      "ṫ": 407,
      "Ṭ": 408,
      "ṭ": 409,
      "Ṯ": 410,
      "ṯ": 411,
      "ṱ": 412,
      "Ẓ": 413,
      "ẓ": 414,
      "ẕ": 415,
      "ẖ": 416,
      "ẗ": 417,
      "ẞ": 418,
      "ạ": 419,
      "ả": 420,
      "ấ": 421,
      "ầ": 422,
      "ẩ": 423,
      "ậ": 424,
      "ắ": 425,
      "ẵ": 426,
      "ặ": 427,
      "Ẹ": 428,
      "ẹ": 429,
      "ẻ": 430,
      "ẽ": 431,
      "ế": 432,
      "ề": 433,
      "ễ": 434,
      "ệ": 435,
      "Ị": 436,
      "ị": 437,
      "Ọ": 438,
      "ọ": 439,
      "ỏ": 440,
      "ố": 441,
      "ồ": 442,
      "ổ": 443,
      "ộ": 444,
      "ớ": 445,
      "ờ": 446,
      "ở": 447,
      "ợ": 448,
      "ủ": 449,
      "ứ": 450,
      "ừ": 451,
      "ử": 452,
      "ữ": 453,
      "ự": 454,
      "ỳ": 455,
      "ỹ": 456,
      "⁰": 457,
      "⁴": 458,
      "₂": 459,
      "₃": 460,
      "₄": 461,
      "✝": 462,
      "ꜣ": 463,
      "Ꜥ": 464,
      "ꜥ": 465,
      "Ꞌ": 466,
      "ꞌ": 467,
      "ꭦ": 468,
      "ﬁ": 469,
      "ﬂ": 470,
      "１": 471,
      "２": 472,
      "３": 473,
      "４": 474,
      "５": 475,
      "７": 476,
      "𝼉": 477,
      "##a": 478,
      "##r": 479,
      "##z": 480,
      "##i": 481,
      "##n": 482,
      "##y": 483,
      "##o": 484,
      "##m": 485,
      "##k": 486,
      "##S": 487,
      "##c": 488,
      "##e": 489,
      "##g": 490,
      "##d": 491,
      "##p": 492,
      "##l": 493,
      "##s": 494,
      "##u": 495,
      "##é": 496,
      "##f": 497,
      "##j": 498,
      "##t": 499,
      "##b": 500,
      "##C": 501,
      "##N": 502,
      "##O": 503,
      "##P": 504,
      "##ó": 505,
      "##w": 506,
      "##h": 507,
      "##q": 508,
      "##v": 509,
      "##á": 510,
      "##í": 511,
      "##ã": 512,
      "##x": 513,
      "##ç": 514,
      "##ə": 515,
      "##ō": 516,
      "##A": 517,
      "##B": 518,
      "##F": 519,
      "##M": 520,
      "##L": 521,
      "##ú": 522,
      "##E": 523,
      "##G": 524,
      "##R": 525,
      "##ê": 526,
      "##è": 527,
      "##H": 528,
      "##ô": 529,
      "##ė": 530,
      "##U": 531,
      "##D": 532,
      "##2": 533,
      "##ü": 534,
      "##ɡ": 535,
      "##K": 536,
      "##ö": 537,
      "##V": 538,
      "##T": 539,
      "##ī": 540,
      "##ţ": 541,
      "##ă": 542,
      "##š": 543,
      "##6": 544,
      "##J": 545,
      "##7": 546,
      "##0": 547,
      "##ɑ": 548,
      "##ı": 549,
      "##3": 550,
      "##4": 551,
      "##5": 552,
      "##ū": 553,
      "##ā": 554,
      "##ñ": 555,
      "##ś": 556,
      "##õ": 557,
      "##î": 558,
      "##ß": 559,
      "##I": 560,
      "##8": 561,
      "##1": 562,
      "##ž": 563,
      "##ē": 564,
      "##9": 565,
      "##ɛ": 566,
      "##ć": 567,
      "##ą": 568,
      "##ä": 569,
      "##å": 570,
      "##ļ": 571,
      "##â": 572,
      "##X": 573,
      "##à": 574,
      "##ğ": 575,
      "##ṭ": 576,
      "##Z": 577,
      "##W": 578,
      "##ł": 579,
      "##ò": 580,
      "##ø": 581,
      "##ě": 582,
      "##Q": 583,
      "##ð": 584,
      "##ṣ": 585,
      "##Y": 586,
      "##ì": 587,
      "##ï": 588,
      "##ż": 589,
      "##ǔ": 590,
      "##ṇ": 591,
      "##þ": 592,
      "##æ": 593,
      "##ş": 594,
      "##ň": 595,
      "##ń": 596,
      "##Í": 597,
      "##ý": 598,
      "##ʁ": 599,
      "##ʌ": 600,
      "##ḥ": 601,
      "##ș": 602,
      "##ë": 603,
      "##č": 604,
      "##ɦ": 605,
      "##?": 606,
      "##,": 607,
      "##ź": 608,
      "##ɪ": 609,
      "##ɔ": 610,
      "##ʃ": 611,
      "##ɤ": 612,
      "##ạ": 613,
      "##ů": 614,
      "##ḫ": 615,
      "##ǎ": 616,
      "##ŋ": 617,
      "##ĭ": 618,
      "##ɒ": 619,
      "##ɲ": 620,
      "##ʋ": 621,
      "##ọ": 622,
      "##ŏ": 623,
      "##ṯ": 624,
      "##û": 625,
      "##ǐ": 626,
      "##ắ": 627,
      "##Á": 628,
      "##ǒ": 629,
      "##ù": 630,
      "##/": 631,
      "##;": 632,
      "##ɐ": 633,
      "##ɯ": 634,
      "##ɾ": 635,
      "##Ó": 636,
      "##ṃ": 637,
      "##ŭ": 638,
      "##ɕ": 639,
      "##ɴ": 640,
      "##ʊ": 641,
      "##ț": 642,
      "##ề": 643,
      "##ẓ": 644,
      "##ộ": 645,
      "##-": 646,
      "##ľ": 647,
      "##ʒ": 648,
      "##ř": 649,
      "##ư": 650,
      "##É": 651,
      "##ę": 652,
      "##ớ": 653,
      "##ḍ": 654,
      "##œ": 655,
      "##đ": 656,
      "##ẖ": 657,
      "##ꞌ": 658,
      "##:": 659,
      "##ế": 660,
      "##ʉ": 661,
      "##ḗ": 662,
      "##ʂ": 663,
      "##ɨ": 664,
      "##ṓ": 665,
      "##ḕ": 666,
      "##ʍ": 667,
      "##ʀ": 668,
      "##ữ": 669,
      "##ị": 670,
      "##ʦ": 671,
      "##Œ": 672,
      "##ő": 673,
      "##ṙ": 674,
      "##ồ": 675,
      "##ʔ": 676,
      "##ƿ": 677,
      "##ĝ": 678,
      "##ɣ": 679,
      "##ɫ": 680,
      "##ầ": 681,
      "##ɜ": 682,
      "##Ú": 683,
      "##ġ": 684,
      "##ʏ": 685,
      "##ẽ": 686,
      "##Ç": 687,
      "##ɱ": 688,
      "##Ƶ": 689,
      "##ɗ": 690,
      "##ả": 691,
      "##ḩ": 692,
      "##ų": 693,
      "##ǚ": 694,
      "##Ô": 695,
      "##ĕ": 696,
      "##ố": 697,
      "##ʐ": 698,
      "##ṅ": 699,
      "##ʑ": 700,
      "##ď": 701,
      "##Ǝ": 702,
      "##ȟ": 703,
      "##ự": 704,
      "##ệ": 705,
      "##ɹ": 706,
      "##ĩ": 707,
      "##ẹ": 708,
      "##Ã": 709,
      "##ẻ": 710,
      "##ǧ": 711,
      "##ű": 712,
      "##ķ": 713,
      "##!": 714,
      "##Ø": 715,
      "##Ê": 716,
      "##ũ": 717,
      "##Ö": 718,
      "##ĉ": 719,
      "##ņ": 720,
      "##Î": 721,
      "##ủ": 722,
      "##ḇ": 723,
      "##ỹ": 724,
      "##ŵ": 725,
      "##ỳ": 726,
      "##ﬁ": 727,
      "##ễ": 728,
      "##ʕ": 729,
      "##ɝ": 730,
      "##ṛ": 731,
      "##ơ": 732,
      "##ɟ": 733,
      "##ặ": 734,
      "##È": 735,
      "##ŷ": 736,
      "##ʟ": 737,
      "##Š": 738,
      "##ħ": 739,
      "##Â": 740,
      "##ʎ": 741,
      "##ǫ": 742,
      "##ɬ": 743,
      "##ʢ": 744,
      "##ŝ": 745,
      "##%": 746,
      "##ť": 747,
      "##ḓ": 748,
      "##ʧ": 749,
      "##ợ": 750,
      "##ờ": 751,
      "##ḏ": 752,
      "##ɖ": 753,
      "##ṁ": 754,
      "##⁰": 755,
      "##５": 756,
      "##ǰ": 757,
      "##ȝ": 758,
      "##Å": 759,
      "##Ā": 760,
      "##ɵ": 761,
      "##Ü": 762,
      "##İ": 763,
      "##ḑ": 764,
      "##ở": 765,
      "##ǀ": 766,
      "##ᵻ": 767,
      "##ḳ": 768,
      "##ᵽ": 769,
      "##ǝ": 770,
      "##०": 771,
      "##४": 772,
      "##६": 773,
      "##Č": 774,
      "##ɥ": 775,
      "##ǜ": 776,
      "##ʝ": 777,
      "##Ä": 778,
      "##ÿ": 779,
      "##ɸ": 780,
      "##ɚ": 781,
      "##۳": 782,
      "##۶": 783,
      "##ấ": 784,
      "##À": 785,
      "##Ī": 786,
      "##ɽ": 787,
      "##Ð": 788,
      "##ŀ": 789,
      "##ẕ": 790,
      "##ǣ": 791,
      "##ḵ": 792,
      "##ṉ": 793,
      "##Ş": 794,
      "##ẩ": 795,
      "##ṕ": 796,
      "##ǘ": 797,
      "##ậ": 798,
      "##ṡ": 799,
      "##ɢ": 800,
      "##ɮ": 801,
      "##ʨ": 802,
      "##ʈ": 803,
      "##ꜥ": 804,
      "##ṱ": 805,
      "##ḷ": 806,
      "##ĺ": 807,
      "##ɘ": 808,
      "##ƛ": 809,
      "##Æ": 810,
      "##ɼ": 811,
      "##ȭ": 812,
      "##ᴘ": 813,
      "##ŕ": 814,
      "##ꜣ": 815,
      "##Ɛ": 816,
      "##ɻ": 817,
      "##ử": 818,
      "##ǃ": 819,
      "##ɰ": 820,
      "##ȏ": 821,
      "##ổ": 822,
      "##₃": 823,
      "##ċ": 824,
      "##ǁ": 825,
      "##ǂ": 826,
      "##ʣ": 827,
      "##Ɂ": 828,
      "##¹": 829,
      "##ừ": 830,
      "##ȳ": 831,
      "##ĵ": 832,
      "##ṫ": 833,
      "##ẵ": 834,
      "##Ɔ": 835,
      "##į": 836,
      "##১": 837,
      "##ẗ": 838,
      "##ḱ": 839,
      "##ứ": 840,
      "##Ṣ": 841,
      "##ɓ": 842,
      "##Ù": 843,
      "##ṟ": 844,
      "##ṗ": 845,
      "##ɩ": 846,
      "##Ì": 847,
      "##ȼ": 848,
      "##７": 849,
      "##ỏ": 850,
      "##ģ": 851,
      "##ɭ": 852,
      "##ḻ": 853,
      "##ǵ": 854,
      "##ḯ": 855,
      "##ŧ": 856,
      "de": 857,
      "##ra": 858,
      "##nt": 859,
      "##ad": 860,
      "##ri": 861,
      "##os": 862,
      "##es": 863,
      "##or": 864,
      "##er": 865,
      "##an": 866,
      "##as": 867,
      "##al": 868,
      "um": 869,
      "##st": 870,
      "co": 871,
      "##ro": 872,
      "##ão": 873,
      "##ic": 874,
      "##ar": 875,
      "##in": 876,
      "##id": 877,
      "##me": 878,
      "##en": 879,
      "##el": 880,
      "##ia": 881,
      "##on": 882,
      "em": 883,
      "##is": 884,
      "do": 885,
      "da": 886,
      "com": 887,
      "##re": 888,
      "##it": 889,
      "##il": 890,
      "uma": 891,
      "##ado": 892,
      "no": 893,
      "##un": 894,
      "##em": 895,
      "##ol": 896,
      "##ul": 897,
      "##nte": 898,
      "##ção": 899,
      "##at": 900,
      "##do": 901,
      "##am": 902,
      "##ue": 903,
      "se": 904,
      "##io": 905,
      "19": 906,
      "##ei": 907,
      "##oi": 908,
      "##ist": 909,
      "na": 910,
      "##te": 911,
      "##nc": 912,
      "##ta": 913,
      "##to": 914,
      "20": 915,
      "##de": 916,
      "foi": 917,
      "##iv": 918,
      "##ec": 919,
      "##ada": 920,
      "que": 921,
      "est": 922,
      "por": 923,
      "##ara": 924,
      "##ade": 925,
      "##ica": 926,
      "##tu": 927,
      "##iz": 928,
      "##eg": 929,
      "##ci": 930,
      "##us": 931,
      "##ras": 932,
      "##om": 933,
      "con": 934,
      "##ant": 935,
      "ou": 936,
      "##ha": 937,
      "##oc": 938,
      "##da": 939,
      "##et": 940,
      "##ou": 941,
      "es": 942,
      "##im": 943,
      "##idade": 944,
      "##ent": 945,
      "pro": 946,
      "##ab": 947,
      "su": 948,
      "##eiro": 949,
      "##ico": 950,
      "pel": 951,
      "##ric": 952,
      "##ano": 953,
      "##ido": 954,
      "##gu": 955,
      "##qu": 956,
      "##ação": 957,
      "##ais": 958,
      "##mente": 959,
      "como": 960,
      "##ho": 961,
      "##ment": 962,
      "in": 963,
      "##ig": 964,
      "##le": 965,
      "##res": 966,
      "##ens": 967,
      "##rasil": 968,
      "para": 969,
      "##ran": 970,
      "##ria": 971,
      "##ac": 972,
      "##aliz": 973,
      "##og": 974,
      "##pe": 975,
      "##bro": 976,
      "po": 977,
      "dos": 978,
      "re": 979,
      "##ês": 980,
      "##ora": 981,
      "##ida": 982,
      "##um": 983,
      "##ista": 984,
      "##ip": 985,
      "esp": 986,
      "##mento": 987,
      "##ce": 988,
      "201": 989,
      "##ões": 990,
      "des": 991,
      "200": 992,
      "##ir": 993,
      "##ur": 994,
      "##ov": 995,
      "at": 996,
      "##ap": 997,
      "##ag": 998,
      "Est": 999,
      "an": 1000,
      "##di": 1001,
      "##ut": 1002,
      "ex": 1003,
      "##meric": 1004,
      "hab": 1005,
      "al": 1006,
      "as": 1007,
      "##art": 1008,
      "##av": 1009,
      "##ém": 1010,
      "qu": 1011,
      "Al": 1012,
      "##ev": 1013,
      "loc": 1014,
      "pri": 1015,
      "##ião": 1016,
      "##ados": 1017,
      "##embro": 1018,
      "pela": 1019,
      "##onal": 1020,
      "##rio": 1021,
      "americ": 1022,
      "##ana": 1023,
      "##ers": 1024,
      "18": 1025,
      "di": 1026,
      "brasil": 1027,
      "##ma": 1028,
      "##ub": 1029,
      "##ai": 1030,
      "os": 1031,
      "##amb": 1032,
      "##so": 1033,
      "sua": 1034,
      "##orte": 1035,
      "##ru": 1036,
      "##hec": 1037,
      "##ura": 1038,
      "##ob": 1039,
      "mais": 1040,
      "reg": 1041,
      "##era": 1042,
      "##po": 1043,
      "##ranc": 1044,
      "##lia": 1045,
      "##ern": 1046,
      "comp": 1047,
      "##ed": 1048,
      "ent": 1049,
      "comun": 1050,
      "localiz": 1051,
      "##ncia": 1052,
      "cidade": 1053,
      "ar": 1054,
      "##co": 1055,
      "ap": 1056,
      "Em": 1057,
      "##mo": 1058,
      "##esa": 1059,
      "##ira": 1060,
      "##ros": 1061,
      "fil": 1062,
      "##ça": 1063,
      "ao": 1064,
      "americano": 1065,
      "das": 1066,
      "##antes": 1067,
      "conhec": 1068,
      "##min": 1069,
      "##ador": 1070,
      "##ulo": 1071,
      "##ân": 1072,
      "estado": 1073,
      "##he": 1074,
      "Con": 1075,
      "##ot": 1076,
      "##and": 1077,
      "##ít": 1078,
      "##eira": 1079,
      "##ando": 1080,
      "##ções": 1081,
      "##la": 1082,
      "##undo": 1083,
      "##pul": 1084,
      "##od": 1085,
      "##ambém": 1086,
      "##que": 1087,
      "##ing": 1088,
      "##rig": 1089,
      "##ito": 1090,
      "habit": 1091,
      "##tiv": 1092,
      "comuna": 1093,
      "per": 1094,
      "##du": 1095,
      "##ino": 1096,
      "##ari": 1097,
      "##if": 1098,
      "também": 1099,
      "##ns": 1100,
      "##go": 1101,
      "ter": 1102,
      "região": 1103,
      "era": 1104,
      "##ca": 1105,
      "brasileiro": 1106,
      "##ina": 1107,
      "Un": 1108,
      "##itu": 1109,
      "esc": 1110,
      "habitantes": 1111,
      "##bol": 1112,
      "popul": 1113,
      "##ass": 1114,
      "for": 1115,
      "##endo": 1116,
      "entre": 1117,
      "##rit": 1118,
      "##ero": 1119,
      "ad": 1120,
      "##almente": 1121,
      "##dado": 1122,
      "Ch": 1123,
      "pelo": 1124,
      "199": 1125,
      "##éci": 1126,
      "##ente": 1127,
      "##ont": 1128,
      "sé": 1129,
      "pol": 1130,
      "ser": 1131,
      "cl": 1132,
      "##adas": 1133,
      "franc": 1134,
      "##mp": 1135,
      "##cional": 1136,
      "##ess": 1137,
      "##ília": 1138,
      "ab": 1139,
      "fam": 1140,
      "cont": 1141,
      "prime": 1142,
      "seu": 1143,
      "##est": 1144,
      "##ion": 1145,
      "##iss": 1146,
      "##ch": 1147,
      "##inha": 1148,
      "##ço": 1149,
      "mar": 1150,
      "##ib": 1151,
      "##ne": 1152,
      "nas": 1153,
      "##ve": 1154,
      "localizada": 1155,
      "Pa": 1156,
      "tem": 1157,
      "norte": 1158,
      "198": 1159,
      "##aneiro": 1160,
      "espéci": 1161,
      "##rito": 1162,
      "##íp": 1163,
      "##ís": 1164,
      "##tugu": 1165,
      "km": 1166,
      "Por": 1167,
      "atu": 1168,
      "Ar": 1169,
      "são": 1170,
      "Brasil": 1171,
      "##oss": 1172,
      "São": 1173,
      "An": 1174,
      "##ôn": 1175,
      "##ez": 1176,
      "Es": 1177,
      "família": 1178,
      "ch": 1179,
      "##ores": 1180,
      "##ute": 1181,
      "Re": 1182,
      "ag": 1183,
      "##ast": 1184,
      "##istra": 1185,
      "##unic": 1186,
      "Ma": 1187,
      "par": 1188,
      "##eu": 1189,
      "tra": 1190,
      "portugu": 1191,
      "##dio": 1192,
      "197": 1193,
      "##ato": 1194,
      "##este": 1195,
      "##iro": 1196,
      "part": 1197,
      "##icos": 1198,
      "As": 1199,
      "##ário": 1200,
      "##ên": 1201,
      "202": 1202,
      "##utebol": 1203,
      "##pres": 1204,
      "##arta": 1205,
      "##orn": 1206,
      "nome": 1207,
      "prov": 1208,
      "##erra": 1209,
      "dep": 1210,
      "conhecido": 1211,
      "espécie": 1212,
      "##tiva": 1213,
      "cri": 1214,
      "##anç": 1215,
      "##int": 1216,
      "##osto": 1217,
      "##ministra": 1218,
      "##dia": 1219,
      "##ense": 1220,
      "Mar": 1221,
      "##az": 1222,
      "##idos": 1223,
      "##ja": 1224,
      "##enso": 1225,
      "rom": 1226,
      "##rea": 1227,
      "17": 1228,
      "Seg": 1229,
      "##ência": 1230,
      "In": 1231,
      "até": 1232,
      "administra": 1233,
      "##ten": 1234,
      "##gl": 1235,
      "nov": 1236,
      "ma": 1237,
      "##ui": 1238,
      "munic": 1239,
      "rec": 1240,
      "##ela": 1241,
      "Os": 1242,
      "nos": 1243,
      "população": 1244,
      "196": 1245,
      "##ici": 1246,
      "##ril": 1247,
      "10": 1248,
      "##und": 1249,
      "##idas": 1250,
      "ant": 1251,
      "or": 1252,
      "##eb": 1253,
      "seg": 1254,
      "int": 1255,
      "##cio": 1256,
      "censo": 1257,
      "of": 1258,
      "##ral": 1259,
      "Com": 1260,
      "##ípio": 1261,
      "##uro": 1262,
      "##ivers": 1263,
      "dis": 1264,
      "não": 1265,
      "##eri": 1266,
      "##lo": 1267,
      "dist": 1268,
      "##cia": 1269,
      "ac": 1270,
      "15": 1271,
      "cons": 1272,
      "en": 1273,
      "##ga": 1274,
      "##lica": 1275,
      "Gu": 1276,
      "prof": 1277,
      "filme": 1278,
      "polít": 1279,
      "Su": 1280,
      "jog": 1281,
      "pr": 1282,
      "##artamento": 1283,
      "cor": 1284,
      "##ias": 1285,
      "##ín": 1286,
      "##át": 1287,
      "##anda": 1288,
      "francesa": 1289,
      "const": 1290,
      "##aniz": 1291,
      "sob": 1292,
      "Sant": 1293,
      "##op": 1294,
      "##ard": 1295,
      "##ende": 1296,
      "##tal": 1297,
      "##lb": 1298,
      "dens": 1299,
      "Cam": 1300,
      "##rande": 1301,
      "município": 1302,
      "densidade": 1303,
      "el": 1304,
      "16": 1305,
      "Rio": 1306,
      "##acional": 1307,
      "Jo": 1308,
      "departamento": 1309,
      "##na": 1310,
      "##ust": 1311,
      "anos": 1312,
      "administrativa": 1313,
      "##icas": 1314,
      "Condado": 1315,
      "##vi": 1316,
      "português": 1317,
      "car": 1318,
      "área": 1319,
      "res": 1320,
      "dire": 1321,
      "##ição": 1322,
      "futebol": 1323,
      "maio": 1324,
      "Foi": 1325,
      "##ulho": 1326,
      "lanç": 1327,
      "12": 1328,
      "tinha": 1329,
      "2000": 1330,
      "##vel": 1331,
      "álb": 1332,
      "2010": 1333,
      "princ": 1334,
      "195": 1335,
      "cap": 1336,
      "##end": 1337,
      "##rica": 1338,
      "ob": 1339,
      "pl": 1340,
      "##rie": 1341,
      "##anh": 1342,
      "##gra": 1343,
      "##tubro": 1344,
      "##ord": 1345,
      "Segundo": 1346,
      "##unho": 1347,
      "##ter": 1348,
      "##isão": 1349,
      "##vol": 1350,
      "pa": 1351,
      "194": 1352,
      "Nov": 1353,
      "##ón": 1354,
      "can": 1355,
      "##rav": 1356,
      "form": 1357,
      "ele": 1358,
      "sub": 1359,
      "##ud": 1360,
      "11": 1361,
      "##ema": 1362,
      "set": 1363,
      "agosto": 1364,
      "##tura": 1365,
      "dez": 1366,
      "produ": 1367,
      "##iano": 1368,
      "julho": 1369,
      "##elo": 1370,
      "##esso": 1371,
      "pres": 1372,
      "##anha": 1373,
      "##ase": 1374,
      "##rans": 1375,
      "hist": 1376,
      "##ári": 1377,
      "##ign": 1378,
      "perten": 1379,
      "The": 1380,
      "##íncia": 1381,
      "##ivo": 1382,
      "março": 1383,
      "##ever": 1384,
      "14": 1385,
      "oc": 1386,
      "cant": 1387,
      "##uto": 1388,
      "##ang": 1389,
      ":;": 1390,
      "##urante": 1391,
      "##pera": 1392,
      "##ús": 1393,
      "##culo": 1394,
      "cer": 1395,
      "outubro": 1396,
      "Am": 1397,
      "Paulo": 1398,
      "álbum": 1399,
      "setembro": 1400,
      "princip": 1401,
      "out": 1402,
      "mil": 1403,
      "##ita": 1404,
      "##ena": 1405,
      "De": 1406,
      "pre": 1407,
      "##les": 1408,
      "##úb": 1409,
      "##ome": 1410,
      "##riz": 1411,
      "Le": 1412,
      "##cul": 1413,
      "##orm": 1414,
      "##ós": 1415,
      "##ort": 1416,
      "##00": 1417,
      "##eral": 1418,
      "janeiro": 1419,
      "13": 1420,
      "Ant": 1421,
      "parte": 1422,
      "junho": 1423,
      "orig": 1424,
      "estad": 1425,
      "##orre": 1426,
      "Lu": 1427,
      "##ades": 1428,
      "##ola": 1429,
      "##ional": 1430,
      "##bal": 1431,
      "club": 1432,
      "Car": 1433,
      "##ismo": 1434,
      "fora": 1435,
      "província": 1436,
      "Part": 1437,
      "##evereiro": 1438,
      "abril": 1439,
      "##ital": 1440,
      "##ava": 1441,
      "##cion": 1442,
      "##lic": 1443,
      "cam": 1444,
      "##va": 1445,
      "mu": 1446,
      "##pos": 1447,
      "##odo": 1448,
      "brasileira": 1449,
      "série": 1450,
      "##fer": 1451,
      "##up": 1452,
      "novembro": 1453,
      "mas": 1454,
      "dezembro": 1455,
      "art": 1456,
      "ass": 1457,
      "político": 1458,
      "##rist": 1459,
      "dirig": 1460,
      "on": 1461,
      "pertence": 1462,
      "##ér": 1463,
      "##gal": 1464,
      "193": 1465,
      "##unid": 1466,
      "##fe": 1467,
      "primeiro": 1468,
      "inc": 1469,
      "##óp": 1470,
      "##ima": 1471,
      "país": 1472,
      "##ios": 1473,
      "us": 1474,
      "##lu": 1475,
      "met": 1476,
      "##ram": 1477,
      "lat": 1478,
      "##és": 1479,
      "##rior": 1480,
      "No": 1481,
      "##enas": 1482,
      "tel": 1483,
      "##unt": 1484,
      "##ge": 1485,
      "Cl": 1486,
      "ingl": 1487,
      "##ás": 1488,
      "cham": 1489,
      "##iga": 1490,
      "##bo": 1491,
      "durante": 1492,
      "gre": 1493,
      "##unidense": 1494,
      "##imo": 1495,
      "Sul": 1496,
      "desc": 1497,
      "Janeiro": 1498,
      "trans": 1499,
      "desen": 1500,
      "St": 1501,
      "pelos": 1502,
      "está": 1503,
      "##ert": 1504,
      "##iva": 1505,
      "me": 1506,
      "##ay": 1507,
      "##ide": 1508,
      "fevereiro": 1509,
      "realiz": 1510,
      "ano": 1511,
      "enc": 1512,
      "##rin": 1513,
      "col": 1514,
      "gên": 1515,
      "gru": 1516,
      "##íf": 1517,
      "##unda": 1518,
      "##ória": 1519,
      "foram": 1520,
      "##gua": 1521,
      "conhecida": 1522,
      "##inal": 1523,
      "##ite": 1524,
      "Portu": 1525,
      "localizado": 1526,
      "##dade": 1527,
      "Portugal": 1528,
      "mes": 1529,
      "##ét": 1530,
      "Ab": 1531,
      "Estados": 1532,
      "##II": 1533,
      "##au": 1534,
      "primeira": 1535,
      "##ares": 1536,
      "Esp": 1537,
      "século": 1538,
      "##ell": 1539,
      "mai": 1540,
      "##ine": 1541,
      "##íst": 1542,
      "Ol": 1543,
      "banda": 1544,
      "ital": 1545,
      "pertencente": 1546,
      "espec": 1547,
      "gol": 1548,
      "lançado": 1549,
      "Unidos": 1550,
      "##has": 1551,
      "##iana": 1552,
      "##rm": 1553,
      "##ânia": 1554,
      "sobre": 1555,
      "conc": 1556,
      "##entes": 1557,
      "##aix": 1558,
      "##iu": 1559,
      "##ila": 1560,
      "##hos": 1561,
      "dirigido": 1562,
      "estadunidense": 1563,
      "##overn": 1564,
      "compos": 1565,
      "##iliz": 1566,
      "Rom": 1567,
      "disp": 1568,
      "##olog": 1569,
      "192": 1570,
      "##vent": 1571,
      "##dição": 1572,
      "te": 1573,
      "Nova": 1574,
      "##ug": 1575,
      "tendo": 1576,
      "profiss": 1577,
      "vez": 1578,
      "inf": 1579,
      "##gre": 1580,
      "##rop": 1581,
      "dia": 1582,
      "##per": 1583,
      "imp": 1584,
      "##ult": 1585,
      "##cial": 1586,
      "Grande": 1587,
      "situ": 1588,
      "un": 1589,
      "Fran": 1590,
      "dec": 1591,
      "##ula": 1592,
      "##ill": 1593,
      "cerca": 1594,
      "sendo": 1595,
      "du": 1596,
      "cat": 1597,
      "##ária": 1598,
      "##ak": 1599,
      "seus": 1600,
      "##idae": 1601,
      "inglês": 1602,
      "##êm": 1603,
      "##aram": 1604,
      "Pro": 1605,
      "##ie": 1606,
      "##be": 1607,
      "##dor": 1608,
      "##ól": 1609,
      "equ": 1610,
      "##peon": 1611,
      "gênero": 1612,
      "##itos": 1613,
      "am": 1614,
      "##ele": 1615,
      "##dem": 1616,
      "Franc": 1617,
      "##agem": 1618,
      "##je": 1619,
      "distrito": 1620,
      "##ona": 1621,
      "##ian": 1622,
      "##ossui": 1623,
      "empres": 1624,
      "##undi": 1625,
      "Univers": 1626,
      "25": 1627,
      "##osa": 1628,
      "il": 1629,
      "cas": 1630,
      "Reg": 1631,
      "##rá": 1632,
      "Cat": 1633,
      "produz": 1634,
      "min": 1635,
      "romaniz": 1636,
      "rel": 1637,
      "##idades": 1638,
      "##ron": 1639,
      "grego": 1640,
      "onde": 1641,
      "alem": 1642,
      "##igo": 1643,
      "##stitu": 1644,
      "grupo": 1645,
      "Jos": 1646,
      "Ele": 1647,
      "pub": 1648,
      "fun": 1649,
      "##pa": 1650,
      "Cal": 1651,
      "##peonato": 1652,
      "nat": 1653,
      "so": 1654,
      "mús": 1655,
      "21": 1656,
      "##pora": 1657,
      "##anto": 1658,
      "Bar": 1659,
      "segundo": 1660,
      "##se": 1661,
      "compet": 1662,
      "segu": 1663,
      "dest": 1664,
      "pe": 1665,
      "##ik": 1666,
      "##man": 1667,
      "##rada": 1668,
      "##ício": 1669,
      "##él": 1670,
      "desenvol": 1671,
      "24": 1672,
      "191": 1673,
      "sem": 1674,
      "sul": 1675,
      "##erg": 1676,
      "ci": 1677,
      "##sa": 1678,
      "latim": 1679,
      "22": 1680,
      "##atro": 1681,
      "##ton": 1682,
      "##her": 1683,
      "##ifica": 1684,
      "##ceu": 1685,
      "org": 1686,
      "##ório": 1687,
      "Para": 1688,
      "##itar": 1689,
      "##rib": 1690,
      "##ede": 1691,
      "desde": 1692,
      "30": 1693,
      "auto": 1694,
      "##undial": 1695,
      "qual": 1696,
      "Col": 1697,
      "fre": 1698,
      "##ários": 1699,
      "##mentos": 1700,
      "23": 1701,
      "##dos": 1702,
      "Min": 1703,
      "Qu": 1704,
      "##land": 1705,
      "base": 1706,
      "##tos": 1707,
      "So": 1708,
      "##ond": 1709,
      "nasc": 1710,
      "##ix": 1711,
      "Na": 1712,
      "govern": 1713,
      "##greja": 1714,
      "##indo": 1715,
      "cent": 1716,
      "##ata": 1717,
      "##ntes": 1718,
      "##ific": 1719,
      "maior": 1720,
      "ext": 1721,
      "##lin": 1722,
      "##ock": 1723,
      "partic": 1724,
      "##ris": 1725,
      "torn": 1726,
      "##ich": 1727,
      "francês": 1728,
      "##ública": 1729,
      "##mas": 1730,
      "##uc": 1731,
      "At": 1732,
      "El": 1733,
      "##ímp": 1734,
      "##ério": 1735,
      "pass": 1736,
      "div": 1737,
      "Mo": 1738,
      "##adores": 1739,
      "##ep": 1740,
      "gols": 1741,
      "##ow": 1742,
      "##ical": 1743,
      "capital": 1744,
      "26": 1745,
      "mat": 1746,
      "Pol": 1747,
      "im": 1748,
      "##ry": 1749,
      "ind": 1750,
      "##met": 1751,
      "##ritân": 1752,
      "pers": 1753,
      "ut": 1754,
      "##via": 1755,
      "encont": 1756,
      "Estende": 1757,
      "28": 1758,
      "##eve": 1759,
      "##za": 1760,
      "27": 1761,
      "##ologia": 1762,
      "mus": 1763,
      "##con": 1764,
      "##alá": 1765,
      "telev": 1766,
      "cin": 1767,
      "gu": 1768,
      "liv": 1769,
      "public": 1770,
      "americana": 1771,
      "Ap": 1772,
      "##present": 1773,
      "Euro": 1774,
      "##ota": 1775,
      "##der": 1776,
      "##ong": 1777,
      "##all": 1778,
      "Ver": 1779,
      "##uns": 1780,
      "come": 1781,
      "##ental": 1782,
      "tr": 1783,
      "##ipe": 1784,
      "sede": 1785,
      "##lt": 1786,
      "Partidas": 1787,
      "dois": 1788,
      "Se": 1789,
      ":,": 1790,
      "condado": 1791,
      "mod": 1792,
      "Campeonato": 1793,
      "apenas": 1794,
      "La": 1795,
      "##emb": 1796,
      "##éc": 1797,
      "Cor": 1798,
      "trabal": 1799,
      "inte": 1800,
      "sist": 1801,
      "mé": 1802,
      "##anc": 1803,
      "##uta": 1804,
      "##ach": 1805,
      "##ae": 1806,
      "##son": 1807,
      "##ogos": 1808,
      "utiliz": 1809,
      "##ual": 1810,
      "##istas": 1811,
      "##das": 1812,
      "Par": 1813,
      "profissional": 1814,
      "##imento": 1815,
      "Cent": 1816,
      "fund": 1817,
      "29": 1818,
      "##rado": 1819,
      "class": 1820,
      "Sal": 1821,
      "##pre": 1822,
      "Int": 1823,
      "##ração": 1824,
      "televisão": 1825,
      "França": 1826,
      "Or": 1827,
      "##pois": 1828,
      "Is": 1829,
      "##por": 1830,
      "##idera": 1831,
      "escrito": 1832,
      "##elh": 1833,
      "##emin": 1834,
      "##erv": 1835,
      "edição": 1836,
      "##ór": 1837,
      "##ost": 1838,
      "forma": 1839,
      "ho": 1840,
      "cient": 1841,
      "ofici": 1842,
      "##des": 1843,
      "ins": 1844,
      "##ale": 1845,
      "##rita": 1846,
      "##elho": 1847,
      "##anos": 1848,
      "##erto": 1849,
      "##nia": 1850,
      "Fil": 1851,
      "sim": 1852,
      "estú": 1853,
      "Per": 1854,
      "Ex": 1855,
      "##our": 1856,
      "pesso": 1857,
      "##resent": 1858,
      "Po": 1859,
      "design": 1860,
      "##tor": 1861,
      "Rep": 1862,
      "faz": 1863,
      "Tra": 1864,
      "britân": 1865,
      "aos": 1866,
      "apresent": 1867,
      "sido": 1868,
      "##adora": 1869,
      "##gues": 1870,
      "fl": 1871,
      "quando": 1872,
      "represent": 1873,
      "Te": 1874,
      "Ass": 1875,
      "##ki": 1876,
      "alemão": 1877,
      "lista": 1878,
      "##ular": 1879,
      "Ca": 1880,
      "Jogos": 1881,
      "ca": 1882,
      "Mundial": 1883,
      "Can": 1884,
      "Santa": 1885,
      "##ática": 1886,
      "Norte": 1887,
      "estúdio": 1888,
      "Man": 1889,
      "med": 1890,
      "##óg": 1891,
      "composit": 1892,
      "##vido": 1893,
      "##ças": 1894,
      "grande": 1895,
      "##ogo": 1896,
      "##idente": 1897,
      "##úm": 1898,
      "particip": 1899,
      "contra": 1900,
      "##org": 1901,
      "mesmo": 1902,
      "##quia": 1903,
      "##lex": 1904,
      "##ace": 1905,
      "estr": 1906,
      "Rec": 1907,
      "José": 1908,
      "três": 1909,
      "##ate": 1910,
      "clubes": 1911,
      "Guerra": 1912,
      "rus": 1913,
      "nacional": 1914,
      "inter": 1915,
      "principal": 1916,
      "cantora": 1917,
      "Um": 1918,
      "Ne": 1919,
      "vol": 1920,
      "ver": 1921,
      "organiz": 1922,
      "duas": 1923,
      "##oso": 1924,
      "Ge": 1925,
      "##rico": 1926,
      "pos": 1927,
      "##apon": 1928,
      "def": 1929,
      "##jo": 1930,
      "ba": 1931,
      "Universidade": 1932,
      "Esta": 1933,
      "canção": 1934,
      "##eno": 1935,
      "##rias": 1936,
      "atualiz": 1937,
      "##ala": 1938,
      "escrit": 1939,
      "Joh": 1940,
      "Igreja": 1941,
      "tít": 1942,
      "Maria": 1943,
      "##eta": 1944,
      "Th": 1945,
      "suas": 1946,
      "Ac": 1947,
      "Lis": 1948,
      "##ança": 1949,
      "##utos": 1950,
      "fic": 1951,
      "clube": 1952,
      "constru": 1953,
      "Fl": 1954,
      "lín": 1955,
      "pode": 1956,
      "##ural": 1957,
      "190": 1958,
      "af": 1959,
      "##aco": 1960,
      "##ial": 1961,
      "científ": 1962,
      "João": 1963,
      "##rôn": 1964,
      "Ad": 1965,
      "##fia": 1966,
      "grav": 1967,
      "lit": 1968,
      "Mari": 1969,
      "And": 1970,
      "##porada": 1971,
      "Região": 1972,
      "##én": 1973,
      "##oca": 1974,
      "##inda": 1975,
      "num": 1976,
      "atualizadas": 1977,
      "##ice": 1978,
      "Il": 1979,
      "##orta": 1980,
      "Sp": 1981,
      "tod": 1982,
      "##ncias": 1983,
      "ref": 1984,
      "ára": 1985,
      "após": 1986,
      "rio": 1987,
      "##ensão": 1988,
      "##ver": 1989,
      "Pri": 1990,
      "##th": 1991,
      "futebolista": 1992,
      "história": 1993,
      "Bo": 1994,
      "II": 1995,
      "República": 1996,
      "considera": 1997,
      "tip": 1998,
      "##ins": 1999,
      "189": 2000,
      "##enh": 2001,
      "##mes": 2002,
      "profess": 2003,
      "men": 2004,
      "##ime": 2005,
      "##utor": 2006,
      "##ím": 2007,
      "##elação": 2008,
      "japon": 2009,
      "##etos": 2010,
      "##itas": 2011,
      "##ire": 2012,
      "##aris": 2013,
      "sistema": 2014,
      "cul": 2015,
      "##ba": 2016,
      "##boa": 2017,
      "##ornal": 2018,
      "perí": 2019,
      "Ba": 2020,
      "##mel": 2021,
      "filho": 2022,
      "Fre": 2023,
      "territ": 2024,
      "##unto": 2025,
      "Sh": 2026,
      "##ier": 2027,
      "##udo": 2028,
      "depois": 2029,
      "plant": 2030,
      "Lisboa": 2031,
      "31": 2032,
      "##rida": 2033,
      "##tá": 2034,
      "##ago": 2035,
      "Des": 2036,
      "ocorre": 2037,
      "Pr": 2038,
      "final": 2039,
      "árabe": 2040,
      "cu": 2041,
      "geral": 2042,
      "##ód": 2043,
      "local": 2044,
      "##ernacional": 2045,
      "##ons": 2046,
      "##vo": 2047,
      "##pl": 2048,
      "##ível": 2049,
      "##ego": 2050,
      "Possui": 2051,
      "Sil": 2052,
      "##rag": 2053,
      "##eiros": 2054,
      "##ore": 2055,
      "conf": 2056,
      "##íde": 2057,
      "##ações": 2058,
      "constelação": 2059,
      "outros": 2060,
      "##let": 2061,
      "Club": 2062,
      "##ven": 2063,
      "estre": 2064,
      "jogo": 2065,
      "##reira": 2066,
      "Esc": 2067,
      "##ilo": 2068,
      "##ído": 2069,
      "música": 2070,
      "Cast": 2071,
      "##ff": 2072,
      "##ático": 2073,
      "##ze": 2074,
      "##iel": 2075,
      "Sa": 2076,
      "Roma": 2077,
      "Futebol": 2078,
      "poss": 2079,
      "##erc": 2080,
      "##ans": 2081,
      "##lio": 2082,
      "título": 2083,
      "##ka": 2084,
      "empresa": 2085,
      "##mit": 2086,
      "##sia": 2087,
      "##édia": 2088,
      "##osta": 2089,
      "##érica": 2090,
      "##ocia": 2091,
      "##ráf": 2092,
      "the": 2093,
      "Cas": 2094,
      "Au": 2095,
      "histó": 2096,
      "##no": 2097,
      "mundo": 2098,
      "estão": 2099,
      "Porto": 2100,
      "##rat": 2101,
      "progra": 2102,
      "partir": 2103,
      "mon": 2104,
      "ast": 2105,
      "pes": 2106,
      "Estado": 2107,
      "##inho": 2108,
      "populacional": 2109,
      "servi": 2110,
      "terc": 2111,
      "##ph": 2112,
      "nascido": 2113,
      "fal": 2114,
      "russo": 2115,
      "##fo": 2116,
      "período": 2117,
      "mo": 2118,
      "italiano": 2119,
      "origin": 2120,
      "##ack": 2121,
      "Nacional": 2122,
      "Be": 2123,
      "188": 2124,
      "##rol": 2125,
      "##âm": 2126,
      "Oc": 2127,
      "cur": 2128,
      "event": 2129,
      "proc": 2130,
      "et": 2131,
      "ven": 2132,
      "ún": 2133,
      "italiana": 2134,
      "Wil": 2135,
      "temporada": 2136,
      "##igu": 2137,
      "Val": 2138,
      "Reino": 2139,
      "##ônia": 2140,
      "jornal": 2141,
      "Fede": 2142,
      "atriz": 2143,
      "Espanha": 2144,
      "rei": 2145,
      "chamado": 2146,
      "sol": 2147,
      "##rama": 2148,
      "##ímpicos": 2149,
      "cantor": 2150,
      "Imp": 2151,
      "ilha": 2152,
      "arqu": 2153,
      "vezes": 2154,
      "Co": 2155,
      "pequ": 2156,
      "competição": 2157,
      "tur": 2158,
      "##ance": 2159,
      "asc": 2160,
      "portuguesa": 2161,
      "##edade": 2162,
      "disput": 2163,
      "##esta": 2164,
      "bair": 2165,
      "escritor": 2166,
      "vila": 2167,
      "dias": 2168,
      "Cop": 2169,
      "##abel": 2170,
      "##are": 2171,
      "Alem": 2172,
      "##árias": 2173,
      "##ht": 2174,
      "##isco": 2175,
      "anim": 2176,
      "ator": 2177,
      "euro": 2178,
      "Ag": 2179,
      "##bur": 2180,
      "2011": 2181,
      "##rg": 2182,
      "##iões": 2183,
      "For": 2184,
      "começ": 2185,
      "##eleção": 2186,
      "bra": 2187,
      "##amento": 2188,
      "território": 2189,
      "##arac": 2190,
      "En": 2191,
      "##alha": 2192,
      "##cos": 2193,
      "às": 2194,
      "ante": 2195,
      "2008": 2196,
      "Mus": 2197,
      "atrav": 2198,
      "##veis": 2199,
      "inclu": 2200,
      "##ância": 2201,
      "##inas": 2202,
      "##ham": 2203,
      "Pl": 2204,
      "Paris": 2205,
      "##cionais": 2206,
      "elet": 2207,
      "##icl": 2208,
      "##ung": 2209,
      "ainda": 2210,
      "últ": 2211,
      "sing": 2212,
      "##ua": 2213,
      "musical": 2214,
      "receb": 2215,
      "##peu": 2216,
      "Mont": 2217,
      "##ológ": 2218,
      "##oma": 2219,
      "Nat": 2220,
      "gra": 2221,
      "opera": 2222,
      "##GC": 2223,
      "núm": 2224,
      "lig": 2225,
      "##ane": 2226,
      "##one": 2227,
      "##ispo": 2228,
      "²,": 2229,
      "Carl": 2230,
      "##ante": 2231,
      "teve": 2232,
      "femin": 2233,
      "din": 2234,
      "##inado": 2235,
      "##rou": 2236,
      "Rob": 2237,
      "hum": 2238,
      "##ivos": 2239,
      "muito": 2240,
      "espanh": 2241,
      "2012": 2242,
      "##erta": 2243,
      "2016": 2244,
      "termo": 2245,
      "##isa": 2246,
      "##oro": 2247,
      "nasceu": 2248,
      "sign": 2249,
      "militar": 2250,
      "Ed": 2251,
      "NGC": 2252,
      "##eros": 2253,
      "exist": 2254,
      "##itude": 2255,
      "rock": 2256,
      "##ius": 2257,
      "língua": 2258,
      "is": 2259,
      "##ádio": 2260,
      "##quer": 2261,
      "Pal": 2262,
      "irm": 2263,
      "Ang": 2264,
      "2007": 2265,
      "##rb": 2266,
      "##tas": 2267,
      "##ke": 2268,
      "##ólica": 2269,
      "início": 2270,
      "##ece": 2271,
      "##xia": 2272,
      "##ys": 2273,
      "##ft": 2274,
      "##ordo": 2275,
      "##ille": 2276,
      "##rim": 2277,
      "prop": 2278,
      "ju": 2279,
      "fundada": 2280,
      "pint": 2281,
      "Met": 2282,
      "Me": 2283,
      "quatro": 2284,
      "John": 2285,
      "person": 2286,
      "tre": 2287,
      "den": 2288,
      "San": 2289,
      "Americ": 2290,
      "importa": 2291,
      "Gl": 2292,
      "##ências": 2293,
      "professor": 2294,
      "##nto": 2295,
      "av": 2296,
      "##xim": 2297,
      "Tem": 2298,
      "##erna": 2299,
      "compositor": 2300,
      "bar": 2301,
      "ra": 2302,
      "##omb": 2303,
      "atual": 2304,
      "##tivo": 2305,
      "##mb": 2306,
      "divers": 2307,
      "##ese": 2308,
      "##rista": 2309,
      "2018": 2310,
      "origem": 2311,
      "Pat": 2312,
      "América": 2313,
      "Mat": 2314,
      "##mos": 2315,
      "##ama": 2316,
      "##ré": 2317,
      "##riormente": 2318,
      "Ent": 2319,
      "##jeto": 2320,
      "antiga": 2321,
      "inst": 2322,
      "situada": 2323,
      "tipo": 2324,
      "antigo": 2325,
      "Ra": 2326,
      "##dios": 2327,
      "criado": 2328,
      "2021": 2329,
      "horas": 2330,
      "simp": 2331,
      "##uz": 2332,
      "##rial": 2333,
      "##ença": 2334,
      "##ável": 2335,
      "estrel": 2336,
      "##guesia": 2337,
      "galá": 2338,
      "criada": 2339,
      "pessoas": 2340,
      "países": 2341,
      "já": 2342,
      "187": 2343,
      "Ho": 2344,
      "sex": 2345,
      "##cção": 2346,
      "Império": 2347,
      "Aqu": 2348,
      "atualmente": 2349,
      "##tado": 2350,
      "difer": 2351,
      "Sai": 2352,
      "2001": 2353,
      "ge": 2354,
      "del": 2355,
      "2015": 2356,
      "2014": 2357,
      "##cu": 2358,
      "186": 2359,
      "minutos": 2360,
      "Ped": 2361,
      "através": 2362,
      "2013": 2363,
      "pap": 2364,
      "Lond": 2365,
      "##rid": 2366,
      "##ash": 2367,
      "Sua": 2368,
      "centro": 2369,
      "segunda": 2370,
      "Alemanha": 2371,
      "##gent": 2372,
      "2009": 2373,
      "##ânt": 2374,
      "##undos": 2375,
      "Uma": 2376,
      "Mad": 2377,
      "científica": 2378,
      "refer": 2379,
      "##íci": 2380,
      "produzido": 2381,
      "##ann": 2382,
      "##erais": 2383,
      "Mé": 2384,
      "ep": 2385,
      "##ónia": 2386,
      "usado": 2387,
      "lon": 2388,
      "bas": 2389,
      "##ál": 2390,
      "conj": 2391,
      "##ruz": 2392,
      "galáxia": 2393,
      "##ret": 2394,
      "##car": 2395,
      "metros": 2396,
      "déc": 2397,
      "quad": 2398,
      "##ída": 2399,
      "pal": 2400,
      "cir": 2401,
      "simples": 2402,
      "gen": 2403,
      "tor": 2404,
      "constitu": 2405,
      "prod": 2406,
      "2006": 2407,
      "cr": 2408,
      "Bat": 2409,
      "ascensão": 2410,
      "home": 2411,
      "##guns": 2412,
      "##ística": 2413,
      "##ok": 2414,
      "##êmio": 2415,
      "Ela": 2416,
      "##inte": 2417,
      "governo": 2418,
      "##itânia": 2419,
      "inv": 2420,
      "##enn": 2421,
      "2019": 2422,
      "##são": 2423,
      "apro": 2424,
      "equip": 2425,
      "Mart": 2426,
      "possui": 2427,
      "cicl": 2428,
      "Jap": 2429,
      "vida": 2430,
      "morte": 2431,
      "aut": 2432,
      "##íb": 2433,
      "algu": 2434,
      "##quist": 2435,
      "##duz": 2436,
      "Alb": 2437,
      "viv": 2438,
      "##áss": 2439,
      "2004": 2440,
      "ret": 2441,
      "Vi": 2442,
      "cada": 2443,
      "membro": 2444,
      "fe": 2445,
      "##jet": 2446,
      "tempo": 2447,
      "##vio": 2448,
      "Olímpicos": 2449,
      "la": 2450,
      "000": 2451,
      "##uel": 2452,
      "segundos": 2453,
      "##ún": 2454,
      "##lay": 2455,
      "Mic": 2456,
      "jogos": 2457,
      "Copa": 2458,
      "exib": 2459,
      "##into": 2460,
      "Fo": 2461,
      "drama": 2462,
      "ne": 2463,
      "man": 2464,
      "Pra": 2465,
      "##dep": 2466,
      "suc": 2467,
      "Ta": 2468,
      "##linação": 2469,
      "##ise": 2470,
      "oficial": 2471,
      "número": 2472,
      "presidente": 2473,
      "to": 2474,
      "##bi": 2475,
      "XV": 2476,
      "2005": 2477,
      "##pes": 2478,
      "todos": 2479,
      "outras": 2480,
      "britânico": 2481,
      "Mil": 2482,
      "política": 2483,
      "resp": 2484,
      "publicado": 2485,
      "lug": 2486,
      "##tion": 2487,
      "alt": 2488,
      "##den": 2489,
      "rev": 2490,
      "Bl": 2491,
      "Pe": 2492,
      "##lico": 2493,
      "Bu": 2494,
      "Seu": 2495,
      "##bre": 2496,
      "direcção": 2497,
      "mov": 2498,
      "Cons": 2499,
      "antes": 2500,
      "vis": 2501,
      "##ônio": 2502,
      "Carlos": 2503,
      "denom": 2504,
      "flor": 2505,
      "Saint": 2506,
      "pai": 2507,
      "Cap": 2508,
      "##orge": 2509,
      "vários": 2510,
      "##esse": 2511,
      "Pet": 2512,
      "##dic": 2513,
      "então": 2514,
      "campe": 2515,
      "TV": 2516,
      "vers": 2517,
      "##amp": 2518,
      "Ro": 2519,
      "2017": 2520,
      "Alex": 2521,
      "declinação": 2522,
      "Ha": 2523,
      "livro": 2524,
      "##ames": 2525,
      "cal": 2526,
      "carac": 2527,
      "ib": 2528,
      "Comp": 2529,
      "tot": 2530,
      "##rão": 2531,
      "mascul": 2532,
      "realizado": 2533,
      "meio": 2534,
      "##dit": 2535,
      "recta": 2536,
      "##iros": 2537,
      "##yl": 2538,
      "##eix": 2539,
      "Tur": 2540,
      "comédia": 2541,
      "acordo": 2542,
      "apar": 2543,
      "Ingl": 2544,
      "Je": 2545,
      "##ativa": 2546,
      "##rem": 2547,
      "##usa": 2548,
      "##ley": 2549,
      "##dico": 2550,
      "ép": 2551,
      "Este": 2552,
      "eletrôn": 2553,
      "##áb": 2554,
      "##adamente": 2555,
      "##ionais": 2556,
      "##íg": 2557,
      "Mal": 2558,
      "carreira": 2559,
      "pra": 2560,
      "chamada": 2561,
      "emb": 2562,
      "rela": 2563,
      "Londres": 2564,
      "##ár": 2565,
      "espécies": 2566,
      "Du": 2567,
      "Fer": 2568,
      "##sh": 2569,
      "##ili": 2570,
      "##men": 2571,
      "Dav": 2572,
      "##plo": 2573,
      "relig": 2574,
      "presente": 2575,
      "sedi": 2576,
      "univers": 2577,
      "Aust": 2578,
      "##ridade": 2579,
      "começou": 2580,
      "##rios": 2581,
      "Japão": 2582,
      "##dif": 2583,
      "##agn": 2584,
      "185": 2585,
      "##orma": 2586,
      "Mon": 2587,
      "Ter": 2588,
      "2020": 2589,
      "arm": 2590,
      "matem": 2591,
      "##ãos": 2592,
      "Verão": 2593,
      "##gem": 2594,
      "bairro": 2595,
      "##cel": 2596,
      "tota": 2597,
      "totais": 2598,
      "Mac": 2599,
      "and": 2600,
      "##ulher": 2601,
      "Bel": 2602,
      "insetos": 2603,
      "bem": 2604,
      "2025": 2605,
      "##ética": 2606,
      "##ardo": 2607,
      "ide": 2608,
      "tornou": 2609,
      "Nas": 2610,
      "##cl": 2611,
      "##ique": 2612,
      "rep": 2613,
      "principais": 2614,
      "##tes": 2615,
      "Ju": 2616,
      "chin": 2617,
      "Francisco": 2618,
      "Char": 2619,
      "Bro": 2620,
      "Go": 2621,
      "Cont": 2622,
      "##ições": 2623,
      "Hen": 2624,
      "super": 2625,
      "##ingu": 2626,
      "##reg": 2627,
      "##ândia": 2628,
      "##ity": 2629,
      "Itá": 2630,
      "##enha": 2631,
      "##aval": 2632,
      "freguesia": 2633,
      "single": 2634,
      "Med": 2635,
      "##ístico": 2636,
      "ativ": 2637,
      "##agens": 2638,
      "##neio": 2639,
      "melh": 2640,
      "##teros": 2641,
      "50": 2642,
      "ela": 2643,
      "catego": 2644,
      "ordem": 2645,
      "Her": 2646,
      "He": 2647,
      "Santo": 2648,
      "##hões": 2649,
      "2024": 2650,
      "Ste": 2651,
      "Partido": 2652,
      "Calif": 2653,
      "fin": 2654,
      "crist": 2655,
      "desenvolvido": 2656,
      "rot": 2657,
      "planta": 2658,
      "2003": 2659,
      "pat": 2660,
      "encontra": 2661,
      "Ber": 2662,
      "##ole": 2663,
      "seleção": 2664,
      "##ópteros": 2665,
      "##órm": 2666,
      "Ben": 2667,
      "##ney": 2668,
      "natural": 2669,
      "econ": 2670,
      "adv": 2671,
      "##zo": 2672,
      "Paul": 2673,
      "Europa": 2674,
      "equipe": 2675,
      "década": 2676,
      "gén": 2677,
      "1990": 2678,
      "##iais": 2679,
      "##cito": 2680,
      "ol": 2681,
      "Itália": 2682,
      "##metros": 2683,
      "##emas": 2684,
      "##eram": 2685,
      "40": 2686,
      "le": 2687,
      "##ânico": 2688,
      "##icais": 2689,
      "2022": 2690,
      "au": 2691,
      "##ços": 2692,
      "cast": 2693,
      "##aran": 2694,
      "##ect": 2695,
      "podem": 2696,
      "##ork": 2697,
      "##ren": 2698,
      "popular": 2699,
      "tri": 2700,
      "##abe": 2701,
      "utilizado": 2702,
      "cheg": 2703,
      "terceiro": 2704,
      "jogador": 2705,
      "Minas": 2706,
      "Ga": 2707,
      "Dom": 2708,
      "Bas": 2709,
      "New": 2710,
      "##ti": 2711,
      "##eses": 2712,
      "vari": 2713,
      "Pedro": 2714,
      "Sol": 2715,
      "##ioc": 2716,
      "Atu": 2717,
      "##órmula": 2718,
      "##aixa": 2719,
      "##ick": 2720,
      "programa": 2721,
      "ocorreu": 2722,
      "sal": 2723,
      "##arca": 2724,
      "183": 2725,
      "##ást": 2726,
      "##idental": 2727,
      "##onhec": 2728,
      "##amente": 2729,
      "espanhol": 2730,
      "alguns": 2731,
      "Centro": 2732,
      "##aterra": 2733,
      "institu": 2734,
      "Record": 2735,
      "baseado": 2736,
      "ens": 2737,
      "situado": 2738,
      "##ôm": 2739,
      "##erno": 2740,
      "Sc": 2741,
      "época": 2742,
      "Católica": 2743,
      "lev": 2744,
      "##onha": 2745,
      "contin": 2746,
      "2002": 2747,
      "feminino": 2748,
      "Bra": 2749,
      "oficialmente": 2750,
      "jornalista": 2751,
      "##ía": 2752,
      "leg": 2753,
      "sa": 2754,
      "##ight": 2755,
      "##eles": 2756,
      "bat": 2757,
      "##yn": 2758,
      "eram": 2759,
      "japonês": 2760,
      "conjunto": 2761,
      "lugar": 2762,
      "Atl": 2763,
      "Segunda": 2764,
      "Ph": 2765,
      "ps": 2766,
      "##duc": 2767,
      "##cas": 2768,
      "Internacional": 2769,
      "Inglaterra": 2770,
      "púb": 2771,
      "designada": 2772,
      "europeu": 2773,
      "Gra": 2774,
      "evento": 2775,
      "##ile": 2776,
      "fro": 2777,
      "##ts": 2778,
      "próp": 2779,
      "inici": 2780,
      "Af": 2781,
      "Sch": 2782,
      "##abo": 2783,
      "184": 2784,
      "III": 2785,
      "principalmente": 2786,
      "##culos": 2787,
      "mont": 2788,
      "crít": 2789,
      "##ército": 2790,
      "core": 2791,
      "1980": 2792,
      "Fern": 2793,
      "##ori": 2794,
      "Alpes": 2795,
      "Vol": 2796,
      "her": 2797,
      "fundado": 2798,
      "hom": 2799,
      "##ólogo": 2800,
      "memb": 2801,
      "formada": 2802,
      "União": 2803,
      "Terra": 2804,
      "distrib": 2805,
      "fís": 2806,
      "##ure": 2807,
      "neg": 2808,
      "dem": 2809,
      "comer": 2810,
      "prt": 2811,
      "oeste": 2812,
      "quil": 2813,
      "Sen": 2814,
      "guerra": 2815,
      "##ót": 2816,
      "1996": 2817,
      "##ya": 2818,
      "##ução": 2819,
      "##ênio": 2820,
      "##eza": 2821,
      "Har": 2822,
      "vi": 2823,
      "XI": 2824,
      "##issão": 2825,
      "estabel": 2826,
      "torneio": 2827,
      "trad": 2828,
      "##val": 2829,
      "##anas": 2830,
      "##icional": 2831,
      "ata": 2832,
      "1999": 2833,
      "##hi": 2834,
      "Silva": 2835,
      "lí": 2836,
      "Az": 2837,
      "várias": 2838,
      "Gerais": 2839,
      "China": 2840,
      "água": 2841,
      "simplesmente": 2842,
      "ave": 2843,
      "comum": 2844,
      "Arm": 2845,
      "descrita": 2846,
      "Ín": 2847,
      "##ress": 2848,
      "atuava": 2849,
      "Leste": 2850,
      "classe": 2851,
      "##liam": 2852,
      "##fa": 2853,
      "##estiv": 2854,
      "##ilidade": 2855,
      "##wa": 2856,
      "modelo": 2857,
      "##enci": 2858,
      "linha": 2859,
      "##ono": 2860,
      "##ográf": 2861,
      "comunidade": 2862,
      "eng": 2863,
      "##aria": 2864,
      "geralmente": 2865,
      "##form": 2866,
      "##onte": 2867,
      "##frica": 2868,
      "pró": 2869,
      "descob": 2870,
      "Im": 2871,
      "Santos": 2872,
      "op": 2873,
      "William": 2874,
      "##iral": 2875,
      "masculino": 2876,
      "África": 2877,
      "##ebra": 2878,
      "1998": 2879,
      "Crist": 2880,
      "##âne": 2881,
      "##olit": 2882,
      "Mu": 2883,
      "Camp": 2884,
      "dent": 2885,
      "##gar": 2886,
      "divisão": 2887,
      "##ation": 2888,
      "aqu": 2889,
      "##quanto": 2890,
      "comb": 2891,
      "poder": 2892,
      "##écn": 2893,
      "##eiras": 2894,
      "##iam": 2895,
      "##ques": 2896,
      "2023": 2897,
      "Trata": 2898,
      "##iras": 2899,
      "impera": 2900,
      "Alexand": 2901,
      "fab": 2902,
      "##ificação": 2903,
      "##ivas": 2904,
      "Cha": 2905,
      "Dem": 2906,
      "estud": 2907,
      "indi": 2908,
      "incl": 2909,
      "estabelec": 2910,
      "Hol": 2911,
      "Cu": 2912,
      "autoridade": 2913,
      "este": 2914,
      "género": 2915,
      "Polónia": 2916,
      "##ulos": 2917,
      "indep": 2918,
      "1970": 2919,
      "mulher": 2920,
      "##ex": 2921,
      "##hia": 2922,
      "##rando": 2923,
      "especi": 2924,
      "##amo": 2925,
      "##endente": 2926,
      "##reto": 2927,
      "cinema": 2928,
      "nascida": 2929,
      "##ossa": 2930,
      "##ínio": 2931,
      "##iri": 2932,
      "trabalho": 2933,
      "Luís": 2934,
      "originalmente": 2935,
      "##aceae": 2936,
      "estrelado": 2937,
      "##ificado": 2938,
      "Pap": 2939,
      "val": 2940,
      "##gio": 2941,
      "##ck": 2942,
      "romano": 2943,
      "tec": 2944,
      "Prime": 2945,
      "advog": 2946,
      "##ovi": 2947,
      "##ússia": 2948,
      "##órnia": 2949,
      "total": 2950,
      "hav": 2951,
      "Mor": 2952,
      "##vimento": 2953,
      "cinco": 2954,
      "Borg": 2955,
      "povo": 2956,
      "##tou": 2957,
      "Dis": 2958,
      "Pan": 2959,
      "ve": 2960,
      "Califórnia": 2961,
      "Costa": 2962,
      "original": 2963,
      "Ven": 2964,
      "##guas": 2965,
      "##icamente": 2966,
      "realizada": 2967,
      "##ague": 2968,
      "##arin": 2969,
      "produção": 2970,
      "bispo": 2971,
      "escrita": 2972,
      "leste": 2973,
      "trop": 2974,
      "pad": 2975,
      "1988": 2976,
      "milhões": 2977,
      "##xico": 2978,
      "##ónio": 2979,
      "Era": 2980,
      "Pres": 2981,
      "aust": 2982,
      "trabalh": 2983,
      "mult": 2984,
      "aproxim": 2985,
      "##ski": 2986,
      "Ori": 2987,
      "##ontes": 2988,
      "termin": 2989,
      "via": 2990,
      "##fre": 2991,
      "Pi": 2992,
      "Atualmente": 2993,
      "##ville": 2994,
      "pou": 2995,
      "considerado": 2996,
      "##odia": 2997,
      "##inos": 2998,
      "defin": 2999,
      "##orr": 3000,
      "Miss": 3001,
      "##atos": 3002,
      "##ativo": 3003,
      "artista": 3004,
      "1992": 3005,
      "nota": 3006,
      "produzida": 3007,
      "integra": 3008,
      "Liv": 3009,
      "##hão": 3010,
      "assim": 3011,
      "obra": 3012,
      "Wal": 3013,
      "importante": 3014,
      "##gia": 3015,
      "Unido": 3016,
      "quím": 3017,
      "##ícia": 3018,
      "Do": 3019,
      "filha": 3020,
      "britânica": 3021,
      "##maz": 3022,
      "##isó": 3023,
      "ori": 3024,
      "##perior": 3025,
      "##ogra": 3026,
      "##cimento": 3027,
      "pesqu": 3028,
      "longo": 3029,
      "todo": 3030,
      "##ber": 3031,
      "propri": 3032,
      "##rest": 3033,
      "lançada": 3034,
      "Salv": 3035,
      "##ólico": 3036,
      "Ara": 3037,
      "pont": 3038,
      "sur": 3039,
      "Cruz": 3040,
      "##arde": 3041,
      "membros": 3042,
      "Rod": 3043,
      "Dan": 3044,
      "gran": 3045,
      "182": 3046,
      "diretor": 3047,
      "Dist": 3048,
      "romance": 3049,
      "##igos": 3050,
      "inic": 3051,
      "1994": 3052,
      "##ind": 3053,
      "canal": 3054,
      "1997": 3055,
      "campeão": 3056,
      "Que": 3057,
      "prova": 3058,
      "significa": 3059,
      "##inta": 3060,
      "##ipal": 3061,
      "##estival": 3062,
      "1995": 3063,
      "##arto": 3064,
      "categoria": 3065,
      "estru": 3066,
      "100": 3067,
      "32": 3068,
      "##esp": 3069,
      "##quete": 3070,
      "personagem": 3071,
      "direção": 3072,
      "##ington": 3073,
      "ocup": 3074,
      "##ves": 3075,
      "##tar": 3076,
      "1991": 3077,
      "além": 3078,
      "Monte": 3079,
      "real": 3080,
      "desta": 3081,
      "Ior": 3082,
      "rap": 3083,
      "exem": 3084,
      "##ini": 3085,
      "##icação": 3086,
      "##aixo": 3087,
      "Tor": 3088,
      "espiral": 3089,
      "polaco": 3090,
      "cel": 3091,
      "espa": 3092,
      "Gal": 3093,
      "ibne": 3094,
      "##oiv": 3095,
      "episó": 3096,
      "##urgo": 3097,
      "Associa": 3098,
      "##egre": 3099,
      "Oliv": 3100,
      "##ene": 3101,
      "Iorque": 3102,
      "##port": 3103,
      "tradicional": 3104,
      "Casa": 3105,
      "cole": 3106,
      "##para": 3107,
      "sue": 3108,
      "Ban": 3109,
      "##ropolit": 3110,
      "Lou": 3111,
      "edit": 3112,
      "##uí": 3113,
      "##avam": 3114,
      "##ward": 3115,
      "##iocese": 3116,
      "único": 3117,
      "##iou": 3118,
      "Gre": 3119,
      "##ler": 3120,
      "##obo": 3121,
      "##III": 3122,
      "numa": 3123,
      "##una": 3124,
      "##gentina": 3125,
      "35": 3126,
      "##ars": 3127,
      "##ner": 3128,
      "estreia": 3129,
      "##enos": 3130,
      "México": 3131,
      "Munic": 3132,
      "##istro": 3133,
      "##ld": 3134,
      "Vir": 3135,
      "cláss": 3136,
      "Sam": 3137,
      "Mc": 3138,
      "Mas": 3139,
      "há": 3140,
      "ganh": 3141,
      "metal": 3142,
      "Federal": 3143,
      "1993": 3144,
      "lib": 3145,
      "1989": 3146,
      "##gust": 3147,
      "nacionais": 3148,
      "Bol": 3149,
      "prote": 3150,
      "##intes": 3151,
      "##metro": 3152,
      "##rom": 3153,
      "pelas": 3154,
      "Eg": 3155,
      "##ior": 3156,
      "reconhec": 3157,
      "estudo": 3158,
      "Franco": 3159,
      "##antino": 3160,
      "Br": 3161,
      "##ceae": 3162,
      "Clube": 3163,
      "36": 3164,
      "##mina": 3165,
      "internacional": 3166,
      "chinês": 3167,
      "##ech": 3168,
      "1987": 3169,
      "rad": 3170,
      "participou": 3171,
      "Lib": 3172,
      "arte": 3173,
      "social": 3174,
      "##tora": 3175,
      "Gar": 3176,
      "##ky": 3177,
      "junt": 3178,
      "##oivodia": 3179,
      "produtor": 3180,
      "Tom": 3181,
      "All": 3182,
      "##iado": 3183,
      "advogado": 3184,
      "Vila": 3185,
      "##ball": 3186,
      "fontes": 3187,
      "regiões": 3188,
      "##peri": 3189,
      "denomin": 3190,
      "##cer": 3191,
      "escol": 3192,
      "consist": 3193,
      "##elas": 3194,
      "##ãe": 3195,
      "##alácio": 3196,
      "che": 3197,
      "fez": 3198,
      "relação": 3199,
      "movimento": 3200,
      "seja": 3201,
      "##oração": 3202,
      "##use": 3203,
      "ação": 3204,
      "trein": 3205,
      "lim": 3206,
      "uso": 3207,
      "##ético": 3208,
      "especial": 3209,
      "##omia": 3210,
      "Records": 3211,
      "Rev": 3212,
      "1986": 3213,
      "result": 3214,
      "voivodia": 3215,
      "disputada": 3216,
      "alemã": 3217,
      "Canad": 3218,
      "maioria": 3219,
      "fede": 3220,
      "Mag": 3221,
      "lado": 3222,
      "religios": 3223,
      "algumas": 3224,
      "vo": 3225,
      "##cido": 3226,
      "devido": 3227,
      "Sim": 3228,
      "escola": 3229,
      "##ju": 3230,
      "técn": 3231,
      "##reve": 3232,
      "Ir": 3233,
      "Mos": 3234,
      "Ser": 3235,
      "1985": 3236,
      "Loi": 3237,
      "##rança": 3238,
      "disc": 3239,
      "1960": 3240,
      "branc": 3241,
      "primeiros": 3242,
      "##iram": 3243,
      "Di": 3244,
      "Gen": 3245,
      "processo": 3246,
      "Institu": 3247,
      "divid": 3248,
      "recebeu": 3249,
      "transl": 3250,
      "interior": 3251,
      "enquanto": 3252,
      "Liga": 3253,
      "Estação": 3254,
      "incluindo": 3255,
      "palav": 3256,
      "má": 3257,
      "##vid": 3258,
      "Bal": 3259,
      "##how": 3260,
      "##ínc": 3261,
      "##ídeos": 3262,
      "Salvador": 3263,
      "dup": 3264,
      "Ce": 3265,
      "##leta": 3266,
      "Real": 3267,
      "Mel": 3268,
      "médico": 3269,
      "Sou": 3270,
      "##ng": 3271,
      "posição": 3272,
      "##aca": 3273,
      "nobre": 3274,
      "indiv": 3275,
      "Los": 3276,
      "rede": 3277,
      "Aquitânia": 3278,
      "##orme": 3279,
      "fronte": 3280,
      "Div": 3281,
      "partidas": 3282,
      "hoje": 3283,
      "##ificamente": 3284,
      "passou": 3285,
      "público": 3286,
      "ta": 3287,
      "elei": 3288,
      "Rússia": 3289,
      "dados": 3290,
      "##ly": 3291,
      "##astia": 3292,
      "estação": 3293,
      "1982": 3294,
      "Sé": 3295,
      "Bahia": 3296,
      "1976": 3297,
      "seguinte": 3298,
      "Lei": 3299,
      "norm": 3300,
      "##berg": 3301,
      "referi": 3302,
      "mot": 3303,
      "##tt": 3304,
      "corpo": 3305,
      "James": 3306,
      "Dou": 3307,
      "Lin": 3308,
      "##oria": 3309,
      "versão": 3310,
      "US": 3311,
      "##pt": 3312,
      "conquist": 3313,
      "astero": 3314,
      "relacion": 3315,
      "Wor": 3316,
      "fim": 3317,
      "##ônimo": 3318,
      "Prêmio": 3319,
      "Também": 3320,
      "##óf": 3321,
      "der": 3322,
      "Din": 3323,
      "eleito": 3324,
      "Vic": 3325,
      "##rar": 3326,
      "filmes": 3327,
      "Men": 3328,
      "##ecut": 3329,
      "casa": 3330,
      "deri": 3331,
      "##ará": 3332,
      "bot": 3333,
      "##ony": 3334,
      "Res": 3335,
      "1983": 3336,
      "profissionais": 3337,
      "Rib": 3338,
      "##han": 3339,
      "anteriormente": 3340,
      "##wn": 3341,
      "##ipl": 3342,
      "seguintes": 3343,
      "##oral": 3344,
      "lança": 3345,
      "Altos": 3346,
      "181": 3347,
      "ali": 3348,
      "Robert": 3349,
      "esta": 3350,
      "##ento": 3351,
      "##reas": 3352,
      "##tural": 3353,
      "1984": 3354,
      "1972": 3355,
      "alc": 3356,
      "País": 3357,
      "Hist": 3358,
      "Da": 3359,
      "fer": 3360,
      "católico": 3361,
      "Após": 3362,
      "##ivil": 3363,
      "quais": 3364,
      "33": 3365,
      "##orreu": 3366,
      "Er": 3367,
      "camp": 3368,
      "##bl": 3369,
      "estilo": 3370,
      "dentro": 3371,
      "##gos": 3372,
      "##uss": 3373,
      "diferentes": 3374,
      "melhor": 3375,
      "exp": 3376,
      "1979": 3377,
      "##atura": 3378,
      "Borgonha": 3379,
      "##olis": 3380,
      "muitas": 3381,
      "Gran": 3382,
      "espor": 3383,
      "##vér": 3384,
      "canad": 3385,
      "Christ": 3386,
      "Alegre": 3387,
      "instru": 3388,
      "To": 3389,
      "todas": 3390,
      "composta": 3391,
      "deter": 3392,
      "Oh": 3393,
      "##mental": 3394,
      "David": 3395,
      "Índia": 3396,
      "autom": 3397,
      "aproximadamente": 3398,
      "##dores": 3399,
      "mol": 3400,
      "##deste": 3401,
      "##ografia": 3402,
      "especificamente": 3403,
      "empresário": 3404,
      "interpre": 3405,
      "japonesa": 3406,
      "##emia": 3407,
      "papel": 3408,
      "##rí": 3409,
      "##essa": 3410,
      "atua": 3411,
      "rem": 3412,
      "déci": 3413,
      "August": 3414,
      "último": 3415,
      "imperador": 3416,
      "Bur": 3417,
      "Fórmula": 3418,
      "##ood": 3419,
      "##feito": 3420,
      "##agos": 3421,
      "Fa": 3422,
      "##rina": 3423,
      "soci": 3424,
      "desenvolvimento": 3425,
      "organização": 3426,
      "refere": 3427,
      "1981": 3428,
      "cultura": 3429,
      "##endência": 3430,
      "##rique": 3431,
      "##ford": 3432,
      "##ife": 3433,
      "##landês": 3434,
      "##ark": 3435,
      "##age": 3436,
      "Stu": 3437,
      "##by": 3438,
      "Jul": 3439,
      "Mundo": 3440,
      "let": 3441,
      "Hel": 3442,
      "##uk": 3443,
      "composto": 3444,
      "envol": 3445,
      "Marin": 3446,
      "deput": 3447,
      "menos": 3448,
      "maiores": 3449,
      "##ps": 3450,
      "irmão": 3451,
      "Rei": 3452,
      "##porto": 3453,
      "seis": 3454,
      "1975": 3455,
      "mor": 3456,
      "tarde": 3457,
      "##ani": 3458,
      "Const": 3459,
      "##arina": 3460,
      "estim": 3461,
      "sec": 3462,
      "grandes": 3463,
      "Canadá": 3464,
      "##ciais": 3465,
      "##éria": 3466,
      "##omas": 3467,
      "poeta": 3468,
      "caracter": 3469,
      "##ling": 3470,
      "##FA": 3471,
      "IV": 3472,
      "Como": 3473,
      "pintor": 3474,
      "##dições": 3475,
      "alta": 3476,
      "##rimento": 3477,
      "edif": 3478,
      "outro": 3479,
      "41": 3480,
      "Ród": 3481,
      "1978": 3482,
      "Gru": 3483,
      "docu": 3484,
      "##xic": 3485,
      "central": 3486,
      "##án": 3487,
      "ir": 3488,
      "respons": 3489,
      "tex": 3490,
      "##sos": 3491,
      "Super": 3492,
      "Del": 3493,
      "##tus": 3494,
      "freque": 3495,
      "##ordeste": 3496,
      "##omo": 3497,
      "Ródano": 3498,
      "##uição": 3499,
      "Cidade": 3500,
      "artístico": 3501,
      "quarto": 3502,
      "representa": 3503,
      "mãe": 3504,
      "38": 3505,
      "igreja": 3506,
      "Sy": 3507,
      "bo": 3508,
      "projeto": 3509,
      "##ênia": 3510,
      "##rália": 3511,
      "Ros": 3512,
      "##anhia": 3513,
      "unidade": 3514,
      "Set": 3515,
      "ren": 3516,
      "Portugu": 3517,
      "esposa": 3518,
      "42": 3519,
      "My": 3520,
      "World": 3521,
      "45": 3522,
      "altitude": 3523,
      "##quim": 3524,
      "Antônio": 3525,
      "dom": 3526,
      "##letismo": 3527,
      "sediada": 3528,
      "Austrália": 3529,
      "##umb": 3530,
      "compositora": 3531,
      "Central": 3532,
      "poste": 3533,
      "volta": 3534,
      "XX": 3535,
      "##ium": 3536,
      "band": 3537,
      "##iação": 3538,
      "##tual": 3539,
      "Filho": 3540,
      "##cha": 3541,
      "líder": 3542,
      "##eceu": 3543,
      "tal": 3544,
      "34": 3545,
      "##vada": 3546,
      "##orue": 3547,
      "##omp": 3548,
      "novo": 3549,
      "37": 3550,
      "sete": 3551,
      "fol": 3552,
      "##ats": 3553,
      "##icial": 3554,
      "sin": 3555,
      "##ume": 3556,
      "##íl": 3557,
      "Escola": 3558,
      "formado": 3559,
      "sucesso": 3560,
      "jov": 3561,
      "só": 3562,
      "##hael": 3563,
      "fac": 3564,
      "##ux": 3565,
      "##ímpico": 3566,
      "##ximo": 3567,
      "única": 3568,
      "voc": 3569,
      "Manuel": 3570,
      "encontrada": 3571,
      "Dire": 3572,
      "##assa": 3573,
      "1974": 3574,
      "histori": 3575,
      "War": 3576,
      "##don": 3577,
      "##itória": 3578,
      "Alto": 3579,
      "Ci": 3580,
      "##gas": 3581,
      "qualquer": 3582,
      "##ídeo": 3583,
      "##olo": 3584,
      "plan": 3585,
      "substitu": 3586,
      "##ides": 3587,
      "##ânica": 3588,
      "Distrito": 3589,
      "##illa": 3590,
      "Tre": 3591,
      "data": 3592,
      "Tel": 3593,
      "##alo": 3594,
      "plantas": 3595,
      "1973": 3596,
      "Loire": 3597,
      "estava": 3598,
      "cres": 3599,
      "Entre": 3600,
      "indiano": 3601,
      "serviço": 3602,
      "##ish": 3603,
      "Cre": 3604,
      "##ílio": 3605,
      "Jes": 3606,
      "Argentina": 3607,
      "Democ": 3608,
      "##écia": 3609,
      "canadense": 3610,
      "39": 3611,
      "FI": 3612,
      "##âmetro": 3613,
      "havia": 3614,
      "revista": 3615,
      "nível": 3616,
      "##inh": 3617,
      "grupos": 3618,
      "turco": 3619,
      "influ": 3620,
      "##quência": 3621,
      "180": 3622,
      "##conte": 3623,
      "muitos": 3624,
      "##nes": 3625,
      "treinador": 3626,
      "lingu": 3627,
      "construído": 3628,
      "##utador": 3629,
      "gl": 3630,
      "peix": 3631,
      "##rus": 3632,
      "concelho": 3633,
      "determin": 3634,
      "##isl": 3635,
      "##eibol": 3636,
      "ciclista": 3637,
      "inclui": 3638,
      "##ey": 3639,
      "dedic": 3640,
      "Primeira": 3641,
      "sat": 3642,
      "Norm": 3643,
      "1968": 3644,
      "1964": 3645,
      "Ast": 3646,
      "##áp": 3647,
      "##amba": 3648,
      "##esar": 3649,
      "##alh": 3650,
      "##ualmente": 3651,
      "##ónoma": 3652,
      "##íncipe": 3653,
      "##éu": 3654,
      "##ics": 3655,
      "##unha": 3656,
      "asteroide": 3657,
      "60": 3658,
      "Wh": 3659,
      "##ko": 3660,
      "##dução": 3661,
      "Rich": 3662,
      "ensino": 3663,
      "Ou": 3664,
      "##mar": 3665,
      "##ker": 3666,
      "##cent": 3667,
      "##avo": 3668,
      "47": 3669,
      "Estádio": 3670,
      "vel": 3671,
      "sent": 3672,
      "##ones": 3673,
      "Trans": 3674,
      "##ães": 3675,
      "##ensis": 3676,
      "##ks": 3677,
      "têm": 3678,
      "luta": 3679,
      "##ológico": 3680,
      "prom": 3681,
      "##jas": 3682,
      "Ocidental": 3683,
      "Michael": 3684,
      "1977": 3685,
      "##augu": 3686,
      "lançamento": 3687,
      "exemplo": 3688,
      "##vérnia": 3689,
      "Acad": 3690,
      "serviu": 3691,
      "Tr": 3692,
      "##ciado": 3693,
      "publicada": 3694,
      "diversos": 3695,
      "##aga": 3696,
      "Auvérnia": 3697,
      "estrutura": 3698,
      "Arqu": 3699,
      "mesma": 3700,
      "Instituto": 3701,
      "surg": 3702,
      "Novo": 3703,
      "amp": 3704,
      "ambi": 3705,
      "##vado": 3706,
      "mant": 3707,
      "castelh": 3708,
      "##ritos": 3709,
      "músico": 3710,
      "coreano": 3711,
      "objet": 3712,
      "Festival": 3713,
      "##CA": 3714,
      "##isc": 3715,
      "Comun": 3716,
      "##ilv": 3717,
      "##xas": 3718,
      "deix": 3719,
      "##rael": 3720,
      "álbuns": 3721,
      "##peia": 3722,
      "cuja": 3723,
      "##pon": 3724,
      "##íça": 3725,
      "Sec": 3726,
      "Federação": 3727,
      "York": 3728,
      "##órios": 3729,
      "Paran": 3730,
      "Govern": 3731,
      "Loc": 3732,
      "1971": 3733,
      "tent": 3734,
      "engenh": 3735,
      "179": 3736,
      "pequena": 3737,
      "luz": 3738,
      "pré": 3739,
      "eles": 3740,
      "##ulas": 3741,
      "##anças": 3742,
      "##rac": 3743,
      "tro": 3744,
      "1969": 3745,
      "Cin": 3746,
      "##cou": 3747,
      "##uf": 3748,
      "junto": 3749,
      "##old": 3750,
      "dram": 3751,
      "##elmente": 3752,
      "Lat": 3753,
      "Mi": 3754,
      "idade": 3755,
      "Jean": 3756,
      "armas": 3757,
      "##gh": 3758,
      "contro": 3759,
      "Gon": 3760,
      "Ilha": 3761,
      "eletrônico": 3762,
      "ident": 3763,
      "Lo": 3764,
      "autor": 3765,
      "perto": 3766,
      "livre": 3767,
      "Ohio": 3768,
      "##vida": 3769,
      "diversas": 3770,
      "mundial": 3771,
      "sen": 3772,
      "##estre": 3773,
      "##burgo": 3774,
      "Tim": 3775,
      "construção": 3776,
      "##uma": 3777,
      "Angeles": 3778,
      "exibida": 3779,
      "1965": 3780,
      "expres": 3781,
      "##ger": 3782,
      "1950": 3783,
      "corre": 3784,
      "direito": 3785,
      "localiza": 3786,
      "##todo": 3787,
      "dig": 3788,
      "##izado": 3789,
      "campo": 3790,
      "##uais": 3791,
      "Gmina": 3792,
      "pessoa": 3793,
      "##deia": 3794,
      "Oliveira": 3795,
      "##eron": 3796,
      "pron": 3797,
      "##ípios": 3798,
      "Anton": 3799,
      "emiss": 3800,
      "##ji": 3801,
      "1963": 3802,
      "merc": 3803,
      "objeto": 3804,
      "bel": 3805,
      "Ram": 3806,
      "##esc": 3807,
      "SB": 3808,
      "lo": 3809,
      "George": 3810,
      "##ave": 3811,
      "##urso": 3812,
      "##eroporto": 3813,
      "educ": 3814,
      "costa": 3815,
      "terceira": 3816,
      "##osp": 3817,
      "nova": 3818,
      "Suécia": 3819,
      "domin": 3820,
      "##hora": 3821,
      "Cant": 3822,
      "apo": 3823,
      "nomes": 3824,
      "##urais": 3825,
      "gmin": 3826,
      "fabric": 3827,
      "gminy": 3828,
      "##ive": 3829,
      "contam": 3830,
      "Jorge": 3831,
      "estrela": 3832,
      "igu": 3833,
      "1967": 3834,
      "castelhano": 3835,
      "hip": 3836,
      "zona": 3837,
      "Pen": 3838,
      "##iter": 3839,
      "1966": 3840,
      "cargo": 3841,
      "nomeado": 3842,
      "##turas": 3843,
      "capac": 3844,
      "deste": 3845,
      "XIX": 3846,
      "aconte": 3847,
      "##ropolitana": 3848,
      "fronteira": 3849,
      "partido": 3850,
      "possu": 3851,
      "estados": 3852,
      "##ES": 3853,
      "Durante": 3854,
      "comprimento": 3855,
      "1945": 3856,
      "quilô": 3857,
      "##iguel": 3858,
      "Out": 3859,
      "estreou": 3860,
      "ligas": 3861,
      "##usão": 3862,
      "sueco": 3863,
      "##ilh": 3864,
      "teoria": 3865,
      "Não": 3866,
      "##ware": 3867,
      "inaugu": 3868,
      "Está": 3869,
      "most": 3870,
      "44": 3871,
      "##gon": 3872,
      "disputa": 3873,
      "obras": 3874,
      "##eia": 3875,
      "48": 3876,
      "Inc": 3877,
      "##ástica": 3878,
      "Bern": 3879,
      "##dap": 3880,
      "Sub": 3881,
      "##antas": 3882,
      "80": 3883,
      "cujo": 3884,
      "instituição": 3885,
      "43": 3886,
      "##ws": 3887,
      "##uno": 3888,
      "marca": 3889,
      "##ania": 3890,
      "Miguel": 3891,
      "##garo": 3892,
      "ado": 3893,
      "##eph": 3894,
      "Dr": 3895,
      "##ste": 3896,
      "##úst": 3897,
      "##oto": 3898,
      "55": 3899,
      "Marinha": 3900,
      "asso": 3901,
      "Pre": 3902,
      "##áveis": 3903,
      "1962": 3904,
      "Gr": 3905,
      "Oce": 3906,
      "Ao": 3907,
      "West": 3908,
      "##ãs": 3909,
      "##âmara": 3910,
      "Cri": 3911,
      "Papa": 3912,
      "##arra": 3913,
      "dinastia": 3914,
      "Marc": 3915,
      "estádio": 3916,
      "Exército": 3917,
      "##arc": 3918,
      "##ef": 3919,
      "teatro": 3920,
      "##ífico": 3921,
      "Charles": 3922,
      "Grupo": 3923,
      "Jesus": 3924,
      "##eth": 3925,
      "amb": 3926,
      "Jac": 3927,
      "##yle": 3928,
      "caus": 3929,
      "nec": 3930,
      "##melha": 3931,
      "histórica": 3932,
      "Paraná": 3933,
      "##tada": 3934,
      "ficção": 3935,
      "chefe": 3936,
      "Av": 3937,
      "52": 3938,
      "##oroeste": 3939,
      "##iago": 3940,
      "46": 3941,
      "Leg": 3942,
      "Music": 3943,
      "##ival": 3944,
      "Pas": 3945,
      "##rv": 3946,
      "basquete": 3947,
      "##CI": 3948,
      "guitar": 3949,
      "magn": 3950,
      "engenheiro": 3951,
      "ga": 3952,
      "##ntemente": 3953,
      "##ster": 3954,
      "quilômetros": 3955,
      "cidades": 3956,
      "superf": 3957,
      "mac": 3958,
      "##bra": 3959,
      "##itário": 3960,
      "persa": 3961,
      "filhos": 3962,
      "elét": 3963,
      "Sha": 3964,
      "vend": 3965,
      "##eração": 3966,
      "Sist": 3967,
      "##érea": 3968,
      "vivo": 3969,
      "conta": 3970,
      "mudo": 3971,
      "Fernando": 3972,
      "##ies": 3973,
      "resta": 3974,
      "funda": 3975,
      "##asse": 3976,
      "##onas": 3977,
      "última": 3978,
      "##doeste": 3979,
      "##íveis": 3980,
      "livros": 3981,
      "Intern": 3982,
      "superior": 3983,
      "abre": 3984,
      "usada": 3985,
      "austral": 3986,
      "Nic": 3987,
      "resid": 3988,
      "League": 3989,
      "##ilvânia": 3990,
      "##BC": 3991,
      "independente": 3992,
      "ped": 3993,
      "##orth": 3994,
      "Cul": 3995,
      "bi": 3996,
      "##lov": 3997,
      "formação": 3998,
      "Social": 3999,
      "##irm": 4000,
      "##lim": 4001,
      "##arm": 4002,
      "função": 4003,
      "National": 4004,
      "ferro": 4005,
      "mexic": 4006,
      "eventos": 4007,
      "sucess": 4008,
      "##xe": 4009,
      "1961": 4010,
      "inglesa": 4011,
      "invest": 4012,
      "##enda": 4013,
      "funcion": 4014,
      "ec": 4015,
      "##forma": 4016,
      "Globo": 4017,
      "##ring": 4018,
      "##ísticas": 4019,
      "matemático": 4020,
      "70": 4021,
      "distância": 4022,
      "arquite": 4023,
      "##way": 4024,
      "conseg": 4025,
      "vence": 4026,
      "Gro": 4027,
      "Carol": 4028,
      "##lam": 4029,
      "emissora": 4030,
      "equipes": 4031,
      "51": 4032,
      "##asta": 4033,
      "##enov": 4034,
      "Just": 4035,
      "Lima": 4036,
      "hid": 4037,
      "##nta": 4038,
      "##rich": 4039,
      "hebra": 4040,
      "mit": 4041,
      "Jack": 4042,
      "##ester": 4043,
      "##ude": 4044,
      "##sta": 4045,
      "Desde": 4046,
      "Turquia": 4047,
      "Suíça": 4048,
      "matemática": 4049,
      "fica": 4050,
      "##tica": 4051,
      "##ulg": 4052,
      "autónoma": 4053,
      "ating": 4054,
      "##pen": 4055,
      "##uras": 4056,
      "##eias": 4057,
      "execut": 4058,
      "Castelo": 4059,
      "ponto": 4060,
      "António": 4061,
      "tanto": 4062,
      "##ith": 4063,
      "Soci": 4064,
      "pen": 4065,
      "toda": 4066,
      "49": 4067,
      "56": 4068,
      "##aliza": 4069,
      "conv": 4070,
      "isso": 4071,
      "pop": 4072,
      "Wash": 4073,
      "1959": 4074,
      "Bon": 4075,
      "perman": 4076,
      "gêneros": 4077,
      "Catarina": 4078,
      "mic": 4079,
      "##leo": 4080,
      "pouco": 4081,
      "Goi": 4082,
      "pública": 4083,
      "escritora": 4084,
      "Linha": 4085,
      "rádio": 4086,
      "##posta": 4087,
      "##ergia": 4088,
      "##amília": 4089,
      "obs": 4090,
      "Ordem": 4091,
      "##rez": 4092,
      "##ortes": 4093,
      "consiste": 4094,
      "##ídu": 4095,
      "quase": 4096,
      "mud": 4097,
      "##arda": 4098,
      "Parque": 4099,
      "avent": 4100,
      "##ella": 4101,
      "##ield": 4102,
      "quadrin": 4103,
      "58": 4104,
      "##otos": 4105,
      "Ja": 4106,
      "Ob": 4107,
      "embora": 4108,
      "conte": 4109,
      "carece": 4110,
      "Occ": 4111,
      "armênio": 4112,
      "capacidade": 4113,
      "expl": 4114,
      "conce": 4115,
      "Hy": 4116,
      "línguas": 4117,
      "importantes": 4118,
      "general": 4119,
      "ess": 4120,
      "Maio": 4121,
      "Texas": 4122,
      "59": 4123,
      "empre": 4124,
      "estu": 4125,
      "Art": 4126,
      "Brasileiro": 4127,
      "Tour": 4128,
      "reinado": 4129,
      "##ceb": 4130,
      "necess": 4131,
      "Inf": 4132,
      "##ântico": 4133,
      "Além": 4134,
      "Ger": 4135,
      "##gress": 4136,
      "botânico": 4137,
      "53": 4138,
      "##ográfica": 4139,
      "promov": 4140,
      "trata": 4141,
      "Ev": 4142,
      "Mich": 4143,
      "áreas": 4144,
      "##tação": 4145,
      "Washington": 4146,
      "178": 4147,
      "Gré": 4148,
      "##any": 4149,
      "1958": 4150,
      "##igas": 4151,
      "##fic": 4152,
      "##ath": 4153,
      "##aba": 4154,
      "urb": 4155,
      "prec": 4156,
      "##oga": 4157,
      "histórico": 4158,
      "pequeno": 4159,
      "Sér": 4160,
      "##mer": 4161,
      "##arqu": 4162,
      "##iba": 4163,
      "crítica": 4164,
      "corres": 4165,
      "Romana": 4166,
      "coleópteros": 4167,
      "##adeira": 4168,
      "##posição": 4169,
      "dipl": 4170,
      "entanto": 4171,
      "palavra": 4172,
      "ficou": 4173,
      "Pac": 4174,
      "##ésia": 4175,
      "Jer": 4176,
      "##TA": 4177,
      "Gab": 4178,
      "ganhou": 4179,
      "Occitânia": 4180,
      "##orado": 4181,
      "##xo": 4182,
      "personagens": 4183,
      "Form": 4184,
      "st": 4185,
      "son": 4186,
      "Rock": 4187,
      "##sk": 4188,
      "Foot": 4189,
      "Pont": 4190,
      "##gn": 4191,
      "atuou": 4192,
      "Kar": 4193,
      "especializ": 4194,
      "Hu": 4195,
      "tom": 4196,
      "ilhas": 4197,
      "##rigo": 4198,
      "clássico": 4199,
      "##inhos": 4200,
      "##och": 4201,
      "Batalha": 4202,
      "Brasileira": 4203,
      "##cri": 4204,
      "mm": 4205,
      "Atletismo": 4206,
      "##ipél": 4207,
      "científico": 4208,
      "homen": 4209,
      "Geral": 4210,
      "Junho": 4211,
      "Dec": 4212,
      "##itt": 4213,
      "##gue": 4214,
      "Rus": 4215,
      "1940": 4216,
      "##teriz": 4217,
      "##uiu": 4218,
      "roteiro": 4219,
      "órg": 4220,
      "Cur": 4221,
      "##che": 4222,
      "feito": 4223,
      "54": 4224,
      "Fin": 4225,
      "complex": 4226,
      "Amaz": 4227,
      "sus": 4228,
      "##ógra": 4229,
      "##qui": 4230,
      "pt": 4231,
      "Barb": 4232,
      "Pode": 4233,
      "hebraico": 4234,
      "##pira": 4235,
      "##chi": 4236,
      "##ície": 4237,
      "##xima": 4238,
      "Grécia": 4239,
      "Belo": 4240,
      "Associação": 4241,
      "espaço": 4242,
      "romana": 4243,
      "fundador": 4244,
      "VI": 4245,
      "fran": 4246,
      "##rang": 4247,
      "deve": 4248,
      "transmit": 4249,
      "altura": 4250,
      "##erson": 4251,
      "Abril": 4252,
      "lar": 4253,
      "artes": 4254,
      "federal": 4255,
      "##ali": 4256,
      "viol": 4257,
      "##we": 4258,
      "estadual": 4259,
      "##rino": 4260,
      "médio": 4261,
      "cô": 4262,
      "sel": 4263,
      "Depois": 4264,
      "Frank": 4265,
      "##úde": 4266,
      "##ilha": 4267,
      "fict": 4268,
      "Sport": 4269,
      "criação": 4270,
      "##licação": 4271,
      "coloc": 4272,
      "baseada": 4273,
      "Fac": 4274,
      "caso": 4275,
      "az": 4276,
      "##ág": 4277,
      "##áticas": 4278,
      "##ipélago": 4279,
      "Cla": 4280,
      "Gros": 4281,
      "lei": 4282,
      "outra": 4283,
      "ger": 4284,
      "##guai": 4285,
      "terr": 4286,
      "flores": 4287,
      "separa": 4288,
      "dupla": 4289,
      "vide": 4290,
      "##rian": 4291,
      "##deal": 4292,
      "Ásia": 4293,
      "##gens": 4294,
      "##elle": 4295,
      "##its": 4296,
      "aldeia": 4297,
      "filiado": 4298,
      "##oco": 4299,
      "colet": 4300,
      "500": 4301,
      "bac": 4302,
      "##ônica": 4303,
      "##ópolis": 4304,
      "Revol": 4305,
      "##burg": 4306,
      "Dep": 4307,
      "King": 4308,
      "mand": 4309,
      "Egito": 4310,
      "Cou": 4311,
      "##iciais": 4312,
      "1956": 4313,
      "ministro": 4314,
      "cél": 4315,
      "lhe": 4316,
      "##rido": 4317,
      "##ced": 4318,
      "apresenta": 4319,
      "Air": 4320,
      "##xa": 4321,
      "gravadora": 4322,
      "realizados": 4323,
      "indic": 4324,
      "##porte": 4325,
      "1930": 4326,
      "objetivo": 4327,
      "forças": 4328,
      "sudoeste": 4329,
      "Champ": 4330,
      "classific": 4331,
      "##íns": 4332,
      "##estão": 4333,
      "Museu": 4334,
      "responsável": 4335,
      "abs": 4336,
      "##dica": 4337,
      "atrib": 4338,
      "##uldade": 4339,
      "Coreia": 4340,
      "Dia": 4341,
      "Tri": 4342,
      "medi": 4343,
      "contém": 4344,
      "satél": 4345,
      "marin": 4346,
      "##ulares": 4347,
      "Princ": 4348,
      "##ertain": 4349,
      "You": 4350,
      "##dust": 4351,
      "disco": 4352,
      "materi": 4353,
      "##roduz": 4354,
      "Pereira": 4355,
      "Tal": 4356,
      "vice": 4357,
      "##itura": 4358,
      "experi": 4359,
      "##taleza": 4360,
      "Henrique": 4361,
      "terra": 4362,
      "Inv": 4363,
      "1948": 4364,
      "tecn": 4365,
      "noroeste": 4366,
      "##hy": 4367,
      "continu": 4368,
      "1957": 4369,
      "pesquis": 4370,
      "quinto": 4371,
      "Conc": 4372,
      "##uco": 4373,
      "##áce": 4374,
      "afric": 4375,
      "Aç": 4376,
      "##ímbol": 4377,
      "estudos": 4378,
      "anun": 4379,
      "Fel": 4380,
      "equipa": 4381,
      "mulheres": 4382,
      "Pic": 4383,
      "##ory": 4384,
      "Baix": 4385,
      "conhecidos": 4386,
      "##ragem": 4387,
      "##nsul": 4388,
      "campeonato": 4389,
      "##atus": 4390,
      "##tanto": 4391,
      "deputado": 4392,
      "##ínsula": 4393,
      "subt": 4394,
      "1953": 4395,
      "City": 4396,
      "Prov": 4397,
      "animais": 4398,
      "br": 4399,
      "##áticos": 4400,
      "##tera": 4401,
      "naturais": 4402,
      "Ana": 4403,
      "1954": 4404,
      "1943": 4405,
      "Horiz": 4406,
      "Mes": 4407,
      "##anho": 4408,
      "Entertain": 4409,
      "##oviética": 4410,
      "##ires": 4411,
      "##andia": 4412,
      "Quando": 4413,
      "##uri": 4414,
      "Branc": 4415,
      "Mass": 4416,
      "##inhas": 4417,
      "##mentar": 4418,
      "1944": 4419,
      "er": 4420,
      "extre": 4421,
      "Entertainment": 4422,
      "morreu": 4423,
      "##zes": 4424,
      "Popul": 4425,
      "Seleção": 4426,
      "sudeste": 4427,
      "##ubl": 4428,
      "mist": 4429,
      "##endeu": 4430,
      "1946": 4431,
      "participação": 4432,
      "1955": 4433,
      "Ham": 4434,
      "símbol": 4435,
      "##óso": 4436,
      "Ita": 4437,
      "##ites": 4438,
      "bio": 4439,
      "governador": 4440,
      "90": 4441,
      "Ren": 4442,
      "Via": 4443,
      "árv": 4444,
      "quadrinhos": 4445,
      "##ors": 4446,
      "Football": 4447,
      "Jr": 4448,
      "inform": 4449,
      "fazer": 4450,
      "sac": 4451,
      "propriedade": 4452,
      "Tro": 4453,
      "Vis": 4454,
      "##li": 4455,
      "##col": 4456,
      "ouro": 4457,
      "considerada": 4458,
      "57": 4459,
      "Vale": 4460,
      "gal": 4461,
      "Deus": 4462,
      "##fil": 4463,
      "##ológica": 4464,
      "suf": 4465,
      "próprio": 4466,
      "episódios": 4467,
      "##ócia": 4468,
      "Ill": 4469,
      "Dez": 4470,
      "##ói": 4471,
      "Ale": 4472,
      "##ivamente": 4473,
      "telenov": 4474,
      "historiador": 4475,
      "##cante": 4476,
      "Som": 4477,
      "Disney": 4478,
      "liga": 4479,
      "##anta": 4480,
      "##ake": 4481,
      "##pec": 4482,
      "1947": 4483,
      "Tu": 4484,
      "posteriormente": 4485,
      "rodo": 4486,
      "##lândia": 4487,
      "##imos": 4488,
      "##enta": 4489,
      "##ove": 4490,
      "assin": 4491,
      "##estra": 4492,
      "plata": 4493,
      "curso": 4494,
      "Julho": 4495,
      "Neg": 4496,
      "show": 4497,
      "Red": 4498,
      "filóso": 4499,
      "Setembro": 4500,
      "##onst": 4501,
      "cônsul": 4502,
      "Senhora": 4503,
      "##ódigo": 4504,
      "##ântica": 4505,
      "mec": 4506,
      "##50": 4507,
      "compre": 4508,
      "Constitu": 4509,
      "Joseph": 4510,
      "##ricas": 4511,
      "process": 4512,
      "Pens": 4513,
      "Alm": 4514,
      "Dev": 4515,
      "Jun": 4516,
      "Março": 4517,
      "Sistema": 4518,
      "Berlim": 4519,
      "62": 4520,
      "caracteriz": 4521,
      "ten": 4522,
      "##rata": 4523,
      "##oland": 4524,
      "nordeste": 4525,
      "1949": 4526,
      "milit": 4527,
      "##ube": 4528,
      "indivídu": 4529,
      "##tom": 4530,
      "conde": 4531,
      "Bras": 4532,
      "oito": 4533,
      "##igh": 4534,
      "##emat": 4535,
      "Barcel": 4536,
      "Star": 4537,
      "bairros": 4538,
      "físico": 4539,
      "ilust": 4540,
      "navio": 4541,
      "diplom": 4542,
      "Bret": 4543,
      "Net": 4544,
      "pontos": 4545,
      "##uts": 4546,
      "rotei": 4547,
      "esse": 4548,
      "comercial": 4549,
      "jovem": 4550,
      "Hal": 4551,
      "Presidente": 4552,
      "conquistou": 4553,
      "##ublic": 4554,
      "sistemas": 4555,
      "Cy": 4556,
      "Equ": 4557,
      "1941": 4558,
      "Richard": 4559,
      "##cho": 4560,
      "##imin": 4561,
      "Leon": 4562,
      "solo": 4563,
      "Horizonte": 4564,
      "força": 4565,
      "correspon": 4566,
      "##pi": 4567,
      "##odos": 4568,
      "Ali": 4569,
      "Emb": 4570,
      "##arn": 4571,
      "prim": 4572,
      "##estas": 4573,
      "Peru": 4574,
      "Thomas": 4575,
      "##vos": 4576,
      "177": 4577,
      "menor": 4578,
      "Países": 4579,
      "##BA": 4580,
      "alcanç": 4581,
      "##wood": 4582,
      "corrida": 4583,
      "fase": 4584,
      "exército": 4585,
      "long": 4586,
      "1952": 4587,
      "##ridae": 4588,
      "Outubro": 4589,
      "##rados": 4590,
      "popularmente": 4591,
      "estat": 4592,
      "prem": 4593,
      "Martin": 4594,
      "civil": 4595,
      "##dados": 4596,
      "##onso": 4597,
      "##deu": 4598,
      "##TV": 4599,
      "energia": 4600,
      "Jú": 4601,
      "competições": 4602,
      "Vas": 4603,
      "ev": 4604,
      "quem": 4605,
      "orqu": 4606,
      "derro": 4607,
      "edifício": 4608,
      "##abora": 4609,
      "Nossa": 4610,
      "Romano": 4611,
      "pais": 4612,
      "##rick": 4613,
      "Ur": 4614,
      "Agosto": 4615,
      "##my": 4616,
      "##ST": 4617,
      "Park": 4618,
      "Don": 4619,
      "##ricos": 4620,
      "##ates": 4621,
      "##raniano": 4622,
      "organizada": 4623,
      "##írito": 4624,
      "colon": 4625,
      "alto": 4626,
      "eleições": 4627,
      "##ernamb": 4628,
      "##rô": 4629,
      "Academia": 4630,
      "##enção": 4631,
      "catal": 4632,
      "normalmente": 4633,
      "Virg": 4634,
      "##ender": 4635,
      "Han": 4636,
      "##itch": 4637,
      "frequentemente": 4638,
      "64": 4639,
      "##perial": 4640,
      "companhia": 4641,
      "tril": 4642,
      "##idi": 4643,
      "##omé": 4644,
      "interna": 4645,
      "próximo": 4646,
      "Serra": 4647,
      "Cro": 4648,
      "Normandia": 4649,
      "##tamente": 4650,
      "biz": 4651,
      "##ye": 4652,
      "##uros": 4653,
      "CO": 4654,
      "##ega": 4655,
      "##ogue": 4656,
      "ativo": 4657,
      "animação": 4658,
      "Carolina": 4659,
      "signific": 4660,
      "psic": 4661,
      "Divisão": 4662,
      "Mot": 4663,
      "direitos": 4664,
      "von": 4665,
      "peixe": 4666,
      "probl": 4667,
      "grega": 4668,
      "inicialmente": 4669,
      "Novembro": 4670,
      "##ização": 4671,
      "aeron": 4672,
      "##jetos": 4673,
      "Pia": 4674,
      "Europeu": 4675,
      "formato": 4676,
      "susp": 4677,
      "Edu": 4678,
      "cint": 4679,
      "##úl": 4680,
      "##entais": 4681,
      "Sin": 4682,
      "##ett": 4683,
      "Hon": 4684,
      "flu": 4685,
      "vig": 4686,
      "cultural": 4687,
      "mitologia": 4688,
      "1951": 4689,
      "##éis": 4690,
      "end": 4691,
      "On": 4692,
      "##bel": 4693,
      "gravada": 4694,
      "##tante": 4695,
      "##ênis": 4696,
      "cardeal": 4697,
      "1936": 4698,
      "figu": 4699,
      "##cente": 4700,
      "iniciou": 4701,
      "Flo": 4702,
      "Mato": 4703,
      "presid": 4704,
      "sociedade": 4705,
      "palácio": 4706,
      "##icina": 4707,
      "1942": 4708,
      "municípios": 4709,
      "competiu": 4710,
      "##elos": 4711,
      "vocal": 4712,
      "Sab": 4713,
      "##ró": 4714,
      "##ries": 4715,
      "##NA": 4716,
      "##rog": 4717,
      "aventura": 4718,
      "diss": 4719,
      "Sco": 4720,
      "##elado": 4721,
      "##iblio": 4722,
      "Band": 4723,
      "Home": 4724,
      "##encial": 4725,
      "Tow": 4726,
      "We": 4727,
      "##imentos": 4728,
      "##tagon": 4729,
      "Fu": 4730,
      "Gil": 4731,
      "Campo": 4732,
      "##ustria": 4733,
      "EU": 4734,
      "##esas": 4735,
      "acad": 4736,
      "Ru": 4737,
      "ramo": 4738,
      "Luiz": 4739,
      "1939": 4740,
      "décimo": 4741,
      "Nos": 4742,
      "##jos": 4743,
      "partes": 4744,
      "Pom": 4745,
      "##ativas": 4746,
      "##únior": 4747,
      "Bru": 4748,
      "##eratura": 4749,
      "##angue": 4750,
      "altern": 4751,
      "mal": 4752,
      "##itz": 4753,
      "Ko": 4754,
      "Conde": 4755,
      "tropicais": 4756,
      "Fab": 4757,
      "vul": 4758,
      "##rano": 4759,
      "pois": 4760,
      "##ence": 4761,
      "projet": 4762,
      "##ek": 4763,
      "##ânea": 4764,
      "##grama": 4765,
      "especialmente": 4766,
      "##anhas": 4767,
      "##cebispo": 4768,
      "Cab": 4769,
      "##ank": 4770,
      "Conselho": 4771,
      "massa": 4772,
      "assass": 4773,
      "lago": 4774,
      "Flor": 4775,
      "veí": 4776,
      "Daniel": 4777,
      "marc": 4778,
      "elementos": 4779,
      "##ftware": 4780,
      "porém": 4781,
      "rapper": 4782,
      "Fevereiro": 4783,
      "Oriental": 4784,
      "mercado": 4785,
      "indíg": 4786,
      "Israel": 4787,
      "Santiago": 4788,
      "Áustria": 4789,
      "##ull": 4790,
      "Governo": 4791,
      "Oceano": 4792,
      "Alc": 4793,
      "##ensa": 4794,
      "##ácio": 4795,
      "##elli": 4796,
      "Gol": 4797,
      "##ision": 4798,
      "forn": 4799,
      "Recife": 4800,
      "serviços": 4801,
      "editora": 4802,
      "Fló": 4803,
      "disso": 4804,
      "1920": 4805,
      "Sob": 4806,
      "oit": 4807,
      "séculos": 4808,
      "disputado": 4809,
      "##irl": 4810,
      "sempre": 4811,
      "física": 4812,
      "designação": 4813,
      "organizado": 4814,
      "ro": 4815,
      "Enc": 4816,
      "##gica": 4817,
      "histórias": 4818,
      "Baixos": 4819,
      "localidade": 4820,
      "63": 4821,
      "Açores": 4822,
      "Ly": 4823,
      "locais": 4824,
      "amar": 4825,
      "Frede": 4826,
      "legisl": 4827,
      "fu": 4828,
      "175": 4829,
      "padrão": 4830,
      "Faz": 4831,
      "##att": 4832,
      "Trabal": 4833,
      "mediev": 4834,
      "protagon": 4835,
      "##dy": 4836,
      "##óm": 4837,
      "##ilizado": 4838,
      "descoberto": 4839,
      "Municipal": 4840,
      "Portuguesa": 4841,
      "Flórida": 4842,
      "esquer": 4843,
      "##gentino": 4844,
      "##íria": 4845,
      "##portivo": 4846,
      "média": 4847,
      "revol": 4848,
      "##posit": 4849,
      "##ospital": 4850,
      "forte": 4851,
      "uc": 4852,
      "##idad": 4853,
      "Louis": 4854,
      "franquia": 4855,
      "Cle": 4856,
      "##ác": 4857,
      "Mun": 4858,
      "Soviética": 4859,
      "longa": 4860,
      "Cabo": 4861,
      "cos": 4862,
      "Bretanha": 4863,
      "melhores": 4864,
      "chegou": 4865,
      "distribuição": 4866,
      "Abu": 4867,
      "classificação": 4868,
      "confl": 4869,
      "Play": 4870,
      "##tivas": 4871,
      "atacante": 4872,
      "som": 4873,
      "telenovela": 4874,
      "Mais": 4875,
      "cart": 4876,
      "##ácia": 4877,
      "##els": 4878,
      "##las": 4879,
      "Aires": 4880,
      "seria": 4881,
      "Rede": 4882,
      "##tivos": 4883,
      "André": 4884,
      "pesquisa": 4885,
      "##jam": 4886,
      "políf": 4887,
      "ocidental": 4888,
      "1938": 4889,
      "diz": 4890,
      "militares": 4891,
      "##ny": 4892,
      "extensão": 4893,
      "Pernamb": 4894,
      "Sousa": 4895,
      "Cer": 4896,
      "Ep": 4897,
      "adap": 4898,
      "##resso": 4899,
      "organ": 4900,
      "particular": 4901,
      "EUA": 4902,
      "##ália": 4903,
      "aplic": 4904,
      "Phil": 4905,
      "redor": 4906,
      "formas": 4907,
      "quanto": 4908,
      "polífagos": 4909,
      "tam": 4910,
      "Ka": 4911,
      "PS": 4912,
      "##oles": 4913,
      "igual": 4914,
      "ru": 4915,
      "Marco": 4916,
      "##ógrafo": 4917,
      "Dezembro": 4918,
      "voleibol": 4919,
      "Let": 4920,
      "##zy": 4921,
      "termos": 4922,
      "Alexandre": 4923,
      "Câmara": 4924,
      "Fal": 4925,
      "Son": 4926,
      "##ecion": 4927,
      "##avelmente": 4928,
      "##rup": 4929,
      "Sk": 4930,
      "prat": 4931,
      "Antonio": 4932,
      "time": 4933,
      "1935": 4934,
      "opin": 4935,
      "terminou": 4936,
      "Pier": 4937,
      "Sac": 4938,
      "##AS": 4939,
      "estrada": 4940,
      "Ku": 4941,
      "Sat": 4942,
      "##urg": 4943,
      "Alme": 4944,
      "Democr": 4945,
      "##une": 4946,
      "utilizada": 4947,
      "Escócia": 4948,
      "juntamente": 4949,
      "document": 4950,
      "superfície": 4951,
      "Award": 4952,
      "Come": 4953,
      "##íba": 4954,
      "homem": 4955,
      "lep": 4956,
      "##bert": 4957,
      "Joa": 4958,
      "Camb": 4959,
      "Fri": 4960,
      "##melho": 4961,
      "eletrônicos": 4962,
      "veloc": 4963,
      "filósofo": 4964,
      "##ider": 4965,
      "Coll": 4966,
      "Ilhas": 4967,
      "Seb": 4968,
      "Opera": 4969,
      "associa": 4970,
      "Cara": 4971,
      "Mou": 4972,
      "Black": 4973,
      "química": 4974,
      "branco": 4975,
      "##ulado": 4976,
      "##obil": 4977,
      "Ferreira": 4978,
      "Barcelona": 4979,
      "##uba": 4980,
      "##emble": 4981,
      "viveu": 4982,
      "sediado": 4983,
      "##angul": 4984,
      "trib": 4985,
      "##ream": 4986,
      "##igue": 4987,
      "##mann": 4988,
      "Ib": 4989,
      "Var": 4990,
      "quarta": 4991,
      "Guil": 4992,
      "##ket": 4993,
      "##radas": 4994,
      "##iat": 4995,
      "##osofia": 4996,
      "##riano": 4997,
      "##sto": 4998,
      "##icações": 4999
    },
    "merges": [
      [
        "d",
        "##e"
      ],
      [
        "##r",
        "##a"
      ],
      [
        "##n",
        "##t"
      ],
      [
        "##a",
        "##d"
      ],
      [
        "##r",
        "##i"
      ],
      [
        "##o",
        "##s"
      ],
      [
        "##e",
        "##s"
      ],
      [
        "##o",
        "##r"
      ],
      [
        "##e",
        "##r"
      ],
      [
        "##a",
        "##n"
      ],
      [
        "##a",
        "##s"
      ],
      [
        "##a",
        "##l"
      ],
      [
        "u",
        "##m"
      ],
      [
        "##s",
        "##t"
      ],
      [
        "c",
        "##o"
      ],
      [
        "##r",
        "##o"
      ],
      [
        "##ã",
        "##o"
      ],
      [
        "##i",
        "##c"
      ],
      [
        "##a",
        "##r"
      ],
      [
        "##i",
        "##n"
      ],
      [
        "##i",
        "##d"
      ],
      [
        "##m",
        "##e"
      ],
      [
        "##e",
        "##n"
      ],
      [
        "##e",
        "##l"
      ],
      [
        "##i",
        "##a"
      ],
      [
        "##o",
        "##n"
      ],
      [
        "e",
        "##m"
      ],
      [
        "##i",
        "##s"
      ],
      [
        "d",
        "##o"
      ],
      [
        "d",
        "##a"
      ],
      [
        "co",
        "##m"
      ],
      [
        "##r",
        "##e"
      ],
      [
        "##i",
        "##t"
      ],
      [
        "##i",
        "##l"
      ],
      [
        "um",
        "##a"
      ],
      [
        "##ad",
        "##o"
      ],
      [
        "n",
        "##o"
      ],
      [
        "##u",
        "##n"
      ],
      [
        "##e",
        "##m"
      ],
      [
        "##o",
        "##l"
      ],
      [
        "##u",
        "##l"
      ],
      [
        "##nt",
        "##e"
      ],
      [
        "##ç",
        "##ão"
      ],
      [
        "##a",
        "##t"
      ],
      [
        "##d",
        "##o"
      ],
      [
        "##a",
        "##m"
      ],
      [
        "##u",
        "##e"
      ],
      [
        "s",
        "##e"
      ],
      [
        "##i",
        "##o"
      ],
      [
        "1",
        "##9"
      ],
      [
        "##e",
        "##i"
      ],
      [
        "##o",
        "##i"
      ],
      [
        "##i",
        "##st"
      ],
      [
        "n",
        "##a"
      ],
      [
        "##t",
        "##e"
      ],
      [
        "##n",
        "##c"
      ],
      [
        "##t",
        "##a"
      ],
      [
        "##t",
        "##o"
      ],
      [
        "2",
        "##0"
      ],
      [
        "##d",
        "##e"
      ],
      [
        "f",
        "##oi"
      ],
      [
        "##i",
        "##v"
      ],
      [
        "##e",
        "##c"
      ],
      [
        "##ad",
        "##a"
      ],
      [
        "q",
        "##ue"
      ],
      [
        "e",
        "##st"
      ],
      [
        "p",
        "##or"
      ],
      [
        "##a",
        "##ra"
      ],
      [
        "##ad",
        "##e"
      ],
      [
        "##ic",
        "##a"
      ],
      [
        "##t",
        "##u"
      ],
      [
        "##i",
        "##z"
      ],
      [
        "##e",
        "##g"
      ],
      [
        "##c",
        "##i"
      ],
      [
        "##u",
        "##s"
      ],
      [
        "##ra",
        "##s"
      ],
      [
        "##o",
        "##m"
      ],
      [
        "co",
        "##n"
      ],
      [
        "##a",
        "##nt"
      ],
      [
        "o",
        "##u"
      ],
      [
        "##h",
        "##a"
      ],
      [
        "##o",
        "##c"
      ],
      [
        "##d",
        "##a"
      ],
      [
        "##e",
        "##t"
      ],
      [
        "##o",
        "##u"
      ],
      [
        "e",
        "##s"
      ],
      [
        "##i",
        "##m"
      ],
      [
        "##id",
        "##ade"
      ],
      [
        "##e",
        "##nt"
      ],
      [
        "p",
        "##ro"
      ],
      [
        "##a",
        "##b"
      ],
      [
        "s",
        "##u"
      ],
      [
        "##ei",
        "##ro"
      ],
      [
        "##ic",
        "##o"
      ],
      [
        "p",
        "##el"
      ],
      [
        "##ri",
        "##c"
      ],
      [
        "##an",
        "##o"
      ],
      [
        "##id",
        "##o"
      ],
      [
        "##g",
        "##u"
      ],
      [
        "##q",
        "##u"
      ],
      [
        "##a",
        "##ção"
      ],
      [
        "##a",
        "##is"
      ],
      [
        "##me",
        "##nte"
      ],
      [
        "com",
        "##o"
      ],
      [
        "##h",
        "##o"
      ],
      [
        "##me",
        "##nt"
      ],
      [
        "i",
        "##n"
      ],
      [
        "##i",
        "##g"
      ],
      [
        "##l",
        "##e"
      ],
      [
        "##r",
        "##es"
      ],
      [
        "##en",
        "##s"
      ],
      [
        "##ras",
        "##il"
      ],
      [
        "p",
        "##ara"
      ],
      [
        "##ra",
        "##n"
      ],
      [
        "##ri",
        "##a"
      ],
      [
        "##a",
        "##c"
      ],
      [
        "##al",
        "##iz"
      ],
      [
        "##o",
        "##g"
      ],
      [
        "##p",
        "##e"
      ],
      [
        "##b",
        "##ro"
      ],
      [
        "p",
        "##o"
      ],
      [
        "d",
        "##os"
      ],
      [
        "r",
        "##e"
      ],
      [
        "##ê",
        "##s"
      ],
      [
        "##o",
        "##ra"
      ],
      [
        "##id",
        "##a"
      ],
      [
        "##u",
        "##m"
      ],
      [
        "##ist",
        "##a"
      ],
      [
        "##i",
        "##p"
      ],
      [
        "es",
        "##p"
      ],
      [
        "##ment",
        "##o"
      ],
      [
        "##c",
        "##e"
      ],
      [
        "20",
        "##1"
      ],
      [
        "##õ",
        "##es"
      ],
      [
        "de",
        "##s"
      ],
      [
        "20",
        "##0"
      ],
      [
        "##i",
        "##r"
      ],
      [
        "##u",
        "##r"
      ],
      [
        "##o",
        "##v"
      ],
      [
        "a",
        "##t"
      ],
      [
        "##a",
        "##p"
      ],
      [
        "##a",
        "##g"
      ],
      [
        "E",
        "##st"
      ],
      [
        "a",
        "##n"
      ],
      [
        "##d",
        "##i"
      ],
      [
        "##u",
        "##t"
      ],
      [
        "e",
        "##x"
      ],
      [
        "##me",
        "##ric"
      ],
      [
        "h",
        "##ab"
      ],
      [
        "a",
        "##l"
      ],
      [
        "a",
        "##s"
      ],
      [
        "##ar",
        "##t"
      ],
      [
        "##a",
        "##v"
      ],
      [
        "##é",
        "##m"
      ],
      [
        "q",
        "##u"
      ],
      [
        "A",
        "##l"
      ],
      [
        "##e",
        "##v"
      ],
      [
        "l",
        "##oc"
      ],
      [
        "p",
        "##ri"
      ],
      [
        "##i",
        "##ão"
      ],
      [
        "##ad",
        "##os"
      ],
      [
        "##em",
        "##bro"
      ],
      [
        "pel",
        "##a"
      ],
      [
        "##on",
        "##al"
      ],
      [
        "##ri",
        "##o"
      ],
      [
        "a",
        "##meric"
      ],
      [
        "##an",
        "##a"
      ],
      [
        "##er",
        "##s"
      ],
      [
        "1",
        "##8"
      ],
      [
        "d",
        "##i"
      ],
      [
        "b",
        "##rasil"
      ],
      [
        "##m",
        "##a"
      ],
      [
        "##u",
        "##b"
      ],
      [
        "##a",
        "##i"
      ],
      [
        "o",
        "##s"
      ],
      [
        "##am",
        "##b"
      ],
      [
        "##s",
        "##o"
      ],
      [
        "su",
        "##a"
      ],
      [
        "##or",
        "##te"
      ],
      [
        "##r",
        "##u"
      ],
      [
        "##h",
        "##ec"
      ],
      [
        "##u",
        "##ra"
      ],
      [
        "##o",
        "##b"
      ],
      [
        "m",
        "##ais"
      ],
      [
        "r",
        "##eg"
      ],
      [
        "##e",
        "##ra"
      ],
      [
        "##p",
        "##o"
      ],
      [
        "##ra",
        "##nc"
      ],
      [
        "##l",
        "##ia"
      ],
      [
        "##er",
        "##n"
      ],
      [
        "com",
        "##p"
      ],
      [
        "##e",
        "##d"
      ],
      [
        "e",
        "##nt"
      ],
      [
        "com",
        "##un"
      ],
      [
        "loc",
        "##aliz"
      ],
      [
        "##nc",
        "##ia"
      ],
      [
        "c",
        "##idade"
      ],
      [
        "a",
        "##r"
      ],
      [
        "##c",
        "##o"
      ],
      [
        "a",
        "##p"
      ],
      [
        "E",
        "##m"
      ],
      [
        "##m",
        "##o"
      ],
      [
        "##es",
        "##a"
      ],
      [
        "##i",
        "##ra"
      ],
      [
        "##r",
        "##os"
      ],
      [
        "f",
        "##il"
      ],
      [
        "##ç",
        "##a"
      ],
      [
        "a",
        "##o"
      ],
      [
        "americ",
        "##ano"
      ],
      [
        "d",
        "##as"
      ],
      [
        "##ant",
        "##es"
      ],
      [
        "con",
        "##hec"
      ],
      [
        "##m",
        "##in"
      ],
      [
        "##ad",
        "##or"
      ],
      [
        "##ul",
        "##o"
      ],
      [
        "##â",
        "##n"
      ],
      [
        "est",
        "##ado"
      ],
      [
        "##h",
        "##e"
      ],
      [
        "C",
        "##on"
      ],
      [
        "##o",
        "##t"
      ],
      [
        "##an",
        "##d"
      ],
      [
        "##í",
        "##t"
      ],
      [
        "##ei",
        "##ra"
      ],
      [
        "##an",
        "##do"
      ],
      [
        "##ç",
        "##ões"
      ],
      [
        "##l",
        "##a"
      ],
      [
        "##un",
        "##do"
      ],
      [
        "##p",
        "##ul"
      ],
      [
        "##o",
        "##d"
      ],
      [
        "##amb",
        "##ém"
      ],
      [
        "##q",
        "##ue"
      ],
      [
        "##in",
        "##g"
      ],
      [
        "##ri",
        "##g"
      ],
      [
        "##it",
        "##o"
      ],
      [
        "hab",
        "##it"
      ],
      [
        "##t",
        "##iv"
      ],
      [
        "comun",
        "##a"
      ],
      [
        "p",
        "##er"
      ],
      [
        "##d",
        "##u"
      ],
      [
        "##in",
        "##o"
      ],
      [
        "##a",
        "##ri"
      ],
      [
        "##i",
        "##f"
      ],
      [
        "t",
        "##ambém"
      ],
      [
        "##n",
        "##s"
      ],
      [
        "##g",
        "##o"
      ],
      [
        "t",
        "##er"
      ],
      [
        "reg",
        "##ião"
      ],
      [
        "e",
        "##ra"
      ],
      [
        "##c",
        "##a"
      ],
      [
        "brasil",
        "##eiro"
      ],
      [
        "##in",
        "##a"
      ],
      [
        "U",
        "##n"
      ],
      [
        "##it",
        "##u"
      ],
      [
        "es",
        "##c"
      ],
      [
        "habit",
        "##antes"
      ],
      [
        "##b",
        "##ol"
      ],
      [
        "po",
        "##pul"
      ],
      [
        "##as",
        "##s"
      ],
      [
        "f",
        "##or"
      ],
      [
        "##en",
        "##do"
      ],
      [
        "ent",
        "##re"
      ],
      [
        "##ri",
        "##t"
      ],
      [
        "##er",
        "##o"
      ],
      [
        "a",
        "##d"
      ],
      [
        "##al",
        "##mente"
      ],
      [
        "##d",
        "##ado"
      ],
      [
        "C",
        "##h"
      ],
      [
        "pel",
        "##o"
      ],
      [
        "19",
        "##9"
      ],
      [
        "##é",
        "##ci"
      ],
      [
        "##e",
        "##nte"
      ],
      [
        "##o",
        "##nt"
      ],
      [
        "s",
        "##é"
      ],
      [
        "p",
        "##ol"
      ],
      [
        "s",
        "##er"
      ],
      [
        "c",
        "##l"
      ],
      [
        "##ad",
        "##as"
      ],
      [
        "f",
        "##ranc"
      ],
      [
        "##m",
        "##p"
      ],
      [
        "##ci",
        "##onal"
      ],
      [
        "##es",
        "##s"
      ],
      [
        "##í",
        "##lia"
      ],
      [
        "a",
        "##b"
      ],
      [
        "f",
        "##am"
      ],
      [
        "co",
        "##nt"
      ],
      [
        "pri",
        "##me"
      ],
      [
        "se",
        "##u"
      ],
      [
        "##es",
        "##t"
      ],
      [
        "##i",
        "##on"
      ],
      [
        "##is",
        "##s"
      ],
      [
        "##c",
        "##h"
      ],
      [
        "##in",
        "##ha"
      ],
      [
        "##ç",
        "##o"
      ],
      [
        "m",
        "##ar"
      ],
      [
        "##i",
        "##b"
      ],
      [
        "##n",
        "##e"
      ],
      [
        "n",
        "##as"
      ],
      [
        "##v",
        "##e"
      ],
      [
        "localiz",
        "##ada"
      ],
      [
        "P",
        "##a"
      ],
      [
        "t",
        "##em"
      ],
      [
        "n",
        "##orte"
      ],
      [
        "19",
        "##8"
      ],
      [
        "##an",
        "##eiro"
      ],
      [
        "esp",
        "##éci"
      ],
      [
        "##ri",
        "##to"
      ],
      [
        "##í",
        "##p"
      ],
      [
        "##í",
        "##s"
      ],
      [
        "##tu",
        "##gu"
      ],
      [
        "k",
        "##m"
      ],
      [
        "P",
        "##or"
      ],
      [
        "a",
        "##tu"
      ],
      [
        "A",
        "##r"
      ],
      [
        "s",
        "##ão"
      ],
      [
        "B",
        "##rasil"
      ],
      [
        "##os",
        "##s"
      ],
      [
        "S",
        "##ão"
      ],
      [
        "A",
        "##n"
      ],
      [
        "##ô",
        "##n"
      ],
      [
        "##e",
        "##z"
      ],
      [
        "E",
        "##s"
      ],
      [
        "fam",
        "##ília"
      ],
      [
        "c",
        "##h"
      ],
      [
        "##or",
        "##es"
      ],
      [
        "##u",
        "##te"
      ],
      [
        "R",
        "##e"
      ],
      [
        "a",
        "##g"
      ],
      [
        "##as",
        "##t"
      ],
      [
        "##ist",
        "##ra"
      ],
      [
        "##un",
        "##ic"
      ],
      [
        "M",
        "##a"
      ],
      [
        "p",
        "##ar"
      ],
      [
        "##e",
        "##u"
      ],
      [
        "t",
        "##ra"
      ],
      [
        "por",
        "##tugu"
      ],
      [
        "##d",
        "##io"
      ],
      [
        "19",
        "##7"
      ],
      [
        "##at",
        "##o"
      ],
      [
        "##es",
        "##te"
      ],
      [
        "##i",
        "##ro"
      ],
      [
        "p",
        "##art"
      ],
      [
        "##ic",
        "##os"
      ],
      [
        "A",
        "##s"
      ],
      [
        "##á",
        "##rio"
      ],
      [
        "##ê",
        "##n"
      ],
      [
        "20",
        "##2"
      ],
      [
        "##ute",
        "##bol"
      ],
      [
        "##p",
        "##res"
      ],
      [
        "##ar",
        "##ta"
      ],
      [
        "##or",
        "##n"
      ],
      [
        "no",
        "##me"
      ],
      [
        "pro",
        "##v"
      ],
      [
        "##er",
        "##ra"
      ],
      [
        "de",
        "##p"
      ],
      [
        "conhec",
        "##ido"
      ],
      [
        "espéci",
        "##e"
      ],
      [
        "##tiv",
        "##a"
      ],
      [
        "c",
        "##ri"
      ],
      [
        "##an",
        "##ç"
      ],
      [
        "##i",
        "##nt"
      ],
      [
        "##os",
        "##to"
      ],
      [
        "##min",
        "##istra"
      ],
      [
        "##d",
        "##ia"
      ],
      [
        "##ens",
        "##e"
      ],
      [
        "M",
        "##ar"
      ],
      [
        "##a",
        "##z"
      ],
      [
        "##id",
        "##os"
      ],
      [
        "##j",
        "##a"
      ],
      [
        "##ens",
        "##o"
      ],
      [
        "r",
        "##om"
      ],
      [
        "##re",
        "##a"
      ],
      [
        "1",
        "##7"
      ],
      [
        "S",
        "##eg"
      ],
      [
        "##ê",
        "##ncia"
      ],
      [
        "I",
        "##n"
      ],
      [
        "at",
        "##é"
      ],
      [
        "ad",
        "##ministra"
      ],
      [
        "##t",
        "##en"
      ],
      [
        "##g",
        "##l"
      ],
      [
        "no",
        "##v"
      ],
      [
        "m",
        "##a"
      ],
      [
        "##u",
        "##i"
      ],
      [
        "m",
        "##unic"
      ],
      [
        "r",
        "##ec"
      ],
      [
        "##el",
        "##a"
      ],
      [
        "O",
        "##s"
      ],
      [
        "n",
        "##os"
      ],
      [
        "popul",
        "##ação"
      ],
      [
        "19",
        "##6"
      ],
      [
        "##ic",
        "##i"
      ],
      [
        "##ri",
        "##l"
      ],
      [
        "1",
        "##0"
      ],
      [
        "##un",
        "##d"
      ],
      [
        "##id",
        "##as"
      ],
      [
        "a",
        "##nt"
      ],
      [
        "o",
        "##r"
      ],
      [
        "##e",
        "##b"
      ],
      [
        "se",
        "##g"
      ],
      [
        "i",
        "##nt"
      ],
      [
        "##c",
        "##io"
      ],
      [
        "c",
        "##enso"
      ],
      [
        "o",
        "##f"
      ],
      [
        "##ra",
        "##l"
      ],
      [
        "C",
        "##om"
      ],
      [
        "##íp",
        "##io"
      ],
      [
        "##u",
        "##ro"
      ],
      [
        "##iv",
        "##ers"
      ],
      [
        "d",
        "##is"
      ],
      [
        "n",
        "##ão"
      ],
      [
        "##e",
        "##ri"
      ],
      [
        "##l",
        "##o"
      ],
      [
        "d",
        "##ist"
      ],
      [
        "##c",
        "##ia"
      ],
      [
        "a",
        "##c"
      ],
      [
        "1",
        "##5"
      ],
      [
        "con",
        "##s"
      ],
      [
        "e",
        "##n"
      ],
      [
        "##g",
        "##a"
      ],
      [
        "##l",
        "##ica"
      ],
      [
        "G",
        "##u"
      ],
      [
        "pro",
        "##f"
      ],
      [
        "fil",
        "##me"
      ],
      [
        "pol",
        "##ít"
      ],
      [
        "S",
        "##u"
      ],
      [
        "j",
        "##og"
      ],
      [
        "p",
        "##r"
      ],
      [
        "##arta",
        "##mento"
      ],
      [
        "c",
        "##or"
      ],
      [
        "##i",
        "##as"
      ],
      [
        "##í",
        "##n"
      ],
      [
        "##á",
        "##t"
      ],
      [
        "##an",
        "##da"
      ],
      [
        "franc",
        "##esa"
      ],
      [
        "con",
        "##st"
      ],
      [
        "##an",
        "##iz"
      ],
      [
        "s",
        "##ob"
      ],
      [
        "S",
        "##ant"
      ],
      [
        "##o",
        "##p"
      ],
      [
        "##ar",
        "##d"
      ],
      [
        "##en",
        "##de"
      ],
      [
        "##t",
        "##al"
      ],
      [
        "##l",
        "##b"
      ],
      [
        "de",
        "##ns"
      ],
      [
        "C",
        "##am"
      ],
      [
        "##ran",
        "##de"
      ],
      [
        "munic",
        "##ípio"
      ],
      [
        "dens",
        "##idade"
      ],
      [
        "e",
        "##l"
      ],
      [
        "1",
        "##6"
      ],
      [
        "R",
        "##io"
      ],
      [
        "##a",
        "##cional"
      ],
      [
        "J",
        "##o"
      ],
      [
        "dep",
        "##artamento"
      ],
      [
        "##n",
        "##a"
      ],
      [
        "##u",
        "##st"
      ],
      [
        "an",
        "##os"
      ],
      [
        "administra",
        "##tiva"
      ],
      [
        "##ic",
        "##as"
      ],
      [
        "Con",
        "##dado"
      ],
      [
        "##v",
        "##i"
      ],
      [
        "portugu",
        "##ês"
      ],
      [
        "c",
        "##ar"
      ],
      [
        "á",
        "##rea"
      ],
      [
        "r",
        "##es"
      ],
      [
        "di",
        "##re"
      ],
      [
        "##i",
        "##ção"
      ],
      [
        "f",
        "##utebol"
      ],
      [
        "ma",
        "##io"
      ],
      [
        "F",
        "##oi"
      ],
      [
        "##ul",
        "##ho"
      ],
      [
        "l",
        "##anç"
      ],
      [
        "1",
        "##2"
      ],
      [
        "t",
        "##inha"
      ],
      [
        "200",
        "##0"
      ],
      [
        "##v",
        "##el"
      ],
      [
        "á",
        "##lb"
      ],
      [
        "201",
        "##0"
      ],
      [
        "pri",
        "##nc"
      ],
      [
        "19",
        "##5"
      ],
      [
        "c",
        "##ap"
      ],
      [
        "##en",
        "##d"
      ],
      [
        "##ric",
        "##a"
      ],
      [
        "o",
        "##b"
      ],
      [
        "p",
        "##l"
      ],
      [
        "##ri",
        "##e"
      ],
      [
        "##an",
        "##h"
      ],
      [
        "##g",
        "##ra"
      ],
      [
        "##tu",
        "##bro"
      ],
      [
        "##or",
        "##d"
      ],
      [
        "Seg",
        "##undo"
      ],
      [
        "##un",
        "##ho"
      ],
      [
        "##t",
        "##er"
      ],
      [
        "##is",
        "##ão"
      ],
      [
        "##v",
        "##ol"
      ],
      [
        "p",
        "##a"
      ],
      [
        "19",
        "##4"
      ],
      [
        "N",
        "##ov"
      ],
      [
        "##ó",
        "##n"
      ],
      [
        "c",
        "##an"
      ],
      [
        "##ra",
        "##v"
      ],
      [
        "for",
        "##m"
      ],
      [
        "e",
        "##le"
      ],
      [
        "su",
        "##b"
      ],
      [
        "##u",
        "##d"
      ],
      [
        "1",
        "##1"
      ],
      [
        "##em",
        "##a"
      ],
      [
        "se",
        "##t"
      ],
      [
        "ag",
        "##osto"
      ],
      [
        "##tu",
        "##ra"
      ],
      [
        "de",
        "##z"
      ],
      [
        "pro",
        "##du"
      ],
      [
        "##i",
        "##ano"
      ],
      [
        "j",
        "##ulho"
      ],
      [
        "##el",
        "##o"
      ],
      [
        "##es",
        "##so"
      ],
      [
        "p",
        "##res"
      ],
      [
        "##an",
        "##ha"
      ],
      [
        "##as",
        "##e"
      ],
      [
        "##ran",
        "##s"
      ],
      [
        "h",
        "##ist"
      ],
      [
        "##á",
        "##ri"
      ],
      [
        "##ig",
        "##n"
      ],
      [
        "per",
        "##ten"
      ],
      [
        "T",
        "##he"
      ],
      [
        "##í",
        "##ncia"
      ],
      [
        "##iv",
        "##o"
      ],
      [
        "mar",
        "##ço"
      ],
      [
        "##ev",
        "##er"
      ],
      [
        "1",
        "##4"
      ],
      [
        "o",
        "##c"
      ],
      [
        "c",
        "##ant"
      ],
      [
        "##u",
        "##to"
      ],
      [
        "##an",
        "##g"
      ],
      [
        ":",
        "##;"
      ],
      [
        "##ura",
        "##nte"
      ],
      [
        "##pe",
        "##ra"
      ],
      [
        "##ú",
        "##s"
      ],
      [
        "##c",
        "##ulo"
      ],
      [
        "c",
        "##er"
      ],
      [
        "ou",
        "##tubro"
      ],
      [
        "A",
        "##m"
      ],
      [
        "Pa",
        "##ulo"
      ],
      [
        "álb",
        "##um"
      ],
      [
        "set",
        "##embro"
      ],
      [
        "princ",
        "##ip"
      ],
      [
        "ou",
        "##t"
      ],
      [
        "m",
        "##il"
      ],
      [
        "##it",
        "##a"
      ],
      [
        "##en",
        "##a"
      ],
      [
        "D",
        "##e"
      ],
      [
        "p",
        "##re"
      ],
      [
        "##l",
        "##es"
      ],
      [
        "##ú",
        "##b"
      ],
      [
        "##o",
        "##me"
      ],
      [
        "##ri",
        "##z"
      ],
      [
        "L",
        "##e"
      ],
      [
        "##c",
        "##ul"
      ],
      [
        "##or",
        "##m"
      ],
      [
        "##ó",
        "##s"
      ],
      [
        "##or",
        "##t"
      ],
      [
        "##0",
        "##0"
      ],
      [
        "##era",
        "##l"
      ],
      [
        "j",
        "##aneiro"
      ],
      [
        "1",
        "##3"
      ],
      [
        "A",
        "##nt"
      ],
      [
        "par",
        "##te"
      ],
      [
        "j",
        "##unho"
      ],
      [
        "o",
        "##rig"
      ],
      [
        "est",
        "##ad"
      ],
      [
        "##or",
        "##re"
      ],
      [
        "L",
        "##u"
      ],
      [
        "##ad",
        "##es"
      ],
      [
        "##ol",
        "##a"
      ],
      [
        "##i",
        "##onal"
      ],
      [
        "##b",
        "##al"
      ],
      [
        "cl",
        "##ub"
      ],
      [
        "C",
        "##ar"
      ],
      [
        "##is",
        "##mo"
      ],
      [
        "f",
        "##ora"
      ],
      [
        "prov",
        "##íncia"
      ],
      [
        "P",
        "##art"
      ],
      [
        "##ever",
        "##eiro"
      ],
      [
        "ab",
        "##ril"
      ],
      [
        "##it",
        "##al"
      ],
      [
        "##av",
        "##a"
      ],
      [
        "##ci",
        "##on"
      ],
      [
        "##l",
        "##ic"
      ],
      [
        "c",
        "##am"
      ],
      [
        "##v",
        "##a"
      ],
      [
        "m",
        "##u"
      ],
      [
        "##p",
        "##os"
      ],
      [
        "##o",
        "##do"
      ],
      [
        "brasil",
        "##eira"
      ],
      [
        "sé",
        "##rie"
      ],
      [
        "##f",
        "##er"
      ],
      [
        "##u",
        "##p"
      ],
      [
        "nov",
        "##embro"
      ],
      [
        "m",
        "##as"
      ],
      [
        "dez",
        "##embro"
      ],
      [
        "ar",
        "##t"
      ],
      [
        "as",
        "##s"
      ],
      [
        "polít",
        "##ico"
      ],
      [
        "##ri",
        "##st"
      ],
      [
        "di",
        "##rig"
      ],
      [
        "o",
        "##n"
      ],
      [
        "perten",
        "##ce"
      ],
      [
        "##é",
        "##r"
      ],
      [
        "##g",
        "##al"
      ],
      [
        "19",
        "##3"
      ],
      [
        "##un",
        "##id"
      ],
      [
        "##f",
        "##e"
      ],
      [
        "prime",
        "##iro"
      ],
      [
        "i",
        "##nc"
      ],
      [
        "##ó",
        "##p"
      ],
      [
        "##im",
        "##a"
      ],
      [
        "pa",
        "##ís"
      ],
      [
        "##i",
        "##os"
      ],
      [
        "u",
        "##s"
      ],
      [
        "##l",
        "##u"
      ],
      [
        "m",
        "##et"
      ],
      [
        "##ra",
        "##m"
      ],
      [
        "l",
        "##at"
      ],
      [
        "##é",
        "##s"
      ],
      [
        "##ri",
        "##or"
      ],
      [
        "N",
        "##o"
      ],
      [
        "##en",
        "##as"
      ],
      [
        "t",
        "##el"
      ],
      [
        "##u",
        "##nt"
      ],
      [
        "##g",
        "##e"
      ],
      [
        "C",
        "##l"
      ],
      [
        "in",
        "##gl"
      ],
      [
        "##á",
        "##s"
      ],
      [
        "ch",
        "##am"
      ],
      [
        "##ig",
        "##a"
      ],
      [
        "##b",
        "##o"
      ],
      [
        "d",
        "##urante"
      ],
      [
        "g",
        "##re"
      ],
      [
        "##unid",
        "##ense"
      ],
      [
        "##im",
        "##o"
      ],
      [
        "S",
        "##ul"
      ],
      [
        "des",
        "##c"
      ],
      [
        "J",
        "##aneiro"
      ],
      [
        "t",
        "##rans"
      ],
      [
        "des",
        "##en"
      ],
      [
        "S",
        "##t"
      ],
      [
        "pel",
        "##os"
      ],
      [
        "est",
        "##á"
      ],
      [
        "##er",
        "##t"
      ],
      [
        "##iv",
        "##a"
      ],
      [
        "m",
        "##e"
      ],
      [
        "##a",
        "##y"
      ],
      [
        "##id",
        "##e"
      ],
      [
        "f",
        "##evereiro"
      ],
      [
        "re",
        "##aliz"
      ],
      [
        "an",
        "##o"
      ],
      [
        "e",
        "##nc"
      ],
      [
        "##ri",
        "##n"
      ],
      [
        "co",
        "##l"
      ],
      [
        "g",
        "##ên"
      ],
      [
        "g",
        "##ru"
      ],
      [
        "##í",
        "##f"
      ],
      [
        "##un",
        "##da"
      ],
      [
        "##ó",
        "##ria"
      ],
      [
        "fora",
        "##m"
      ],
      [
        "##gu",
        "##a"
      ],
      [
        "conhec",
        "##ida"
      ],
      [
        "##in",
        "##al"
      ],
      [
        "##it",
        "##e"
      ],
      [
        "Por",
        "##tu"
      ],
      [
        "localiz",
        "##ado"
      ],
      [
        "##d",
        "##ade"
      ],
      [
        "Portu",
        "##gal"
      ],
      [
        "m",
        "##es"
      ],
      [
        "##é",
        "##t"
      ],
      [
        "A",
        "##b"
      ],
      [
        "Est",
        "##ados"
      ],
      [
        "##I",
        "##I"
      ],
      [
        "##a",
        "##u"
      ],
      [
        "prime",
        "##ira"
      ],
      [
        "##ar",
        "##es"
      ],
      [
        "Es",
        "##p"
      ],
      [
        "sé",
        "##culo"
      ],
      [
        "##el",
        "##l"
      ],
      [
        "m",
        "##ai"
      ],
      [
        "##in",
        "##e"
      ],
      [
        "##í",
        "##st"
      ],
      [
        "O",
        "##l"
      ],
      [
        "b",
        "##anda"
      ],
      [
        "i",
        "##tal"
      ],
      [
        "pertence",
        "##nte"
      ],
      [
        "esp",
        "##ec"
      ],
      [
        "g",
        "##ol"
      ],
      [
        "lanç",
        "##ado"
      ],
      [
        "Un",
        "##idos"
      ],
      [
        "##h",
        "##as"
      ],
      [
        "##i",
        "##ana"
      ],
      [
        "##r",
        "##m"
      ],
      [
        "##ân",
        "##ia"
      ],
      [
        "sob",
        "##re"
      ],
      [
        "co",
        "##nc"
      ],
      [
        "##ent",
        "##es"
      ],
      [
        "##ai",
        "##x"
      ],
      [
        "##i",
        "##u"
      ],
      [
        "##il",
        "##a"
      ],
      [
        "##h",
        "##os"
      ],
      [
        "dirig",
        "##ido"
      ],
      [
        "estad",
        "##unidense"
      ],
      [
        "##ov",
        "##ern"
      ],
      [
        "comp",
        "##os"
      ],
      [
        "##il",
        "##iz"
      ],
      [
        "R",
        "##om"
      ],
      [
        "dis",
        "##p"
      ],
      [
        "##ol",
        "##og"
      ],
      [
        "19",
        "##2"
      ],
      [
        "##v",
        "##ent"
      ],
      [
        "##di",
        "##ção"
      ],
      [
        "t",
        "##e"
      ],
      [
        "Nov",
        "##a"
      ],
      [
        "##u",
        "##g"
      ],
      [
        "t",
        "##endo"
      ],
      [
        "prof",
        "##iss"
      ],
      [
        "v",
        "##ez"
      ],
      [
        "in",
        "##f"
      ],
      [
        "##g",
        "##re"
      ],
      [
        "##ro",
        "##p"
      ],
      [
        "d",
        "##ia"
      ],
      [
        "##p",
        "##er"
      ],
      [
        "i",
        "##mp"
      ],
      [
        "##ul",
        "##t"
      ],
      [
        "##ci",
        "##al"
      ],
      [
        "G",
        "##rande"
      ],
      [
        "s",
        "##itu"
      ],
      [
        "u",
        "##n"
      ],
      [
        "F",
        "##ran"
      ],
      [
        "de",
        "##c"
      ],
      [
        "##ul",
        "##a"
      ],
      [
        "##il",
        "##l"
      ],
      [
        "cer",
        "##ca"
      ],
      [
        "s",
        "##endo"
      ],
      [
        "d",
        "##u"
      ],
      [
        "c",
        "##at"
      ],
      [
        "##á",
        "##ria"
      ],
      [
        "##a",
        "##k"
      ],
      [
        "se",
        "##us"
      ],
      [
        "##ida",
        "##e"
      ],
      [
        "ingl",
        "##ês"
      ],
      [
        "##ê",
        "##m"
      ],
      [
        "##ara",
        "##m"
      ],
      [
        "P",
        "##ro"
      ],
      [
        "##i",
        "##e"
      ],
      [
        "##b",
        "##e"
      ],
      [
        "##d",
        "##or"
      ],
      [
        "##ó",
        "##l"
      ],
      [
        "e",
        "##qu"
      ],
      [
        "##pe",
        "##on"
      ],
      [
        "gên",
        "##ero"
      ],
      [
        "##it",
        "##os"
      ],
      [
        "a",
        "##m"
      ],
      [
        "##el",
        "##e"
      ],
      [
        "##d",
        "##em"
      ],
      [
        "F",
        "##ranc"
      ],
      [
        "##ag",
        "##em"
      ],
      [
        "##j",
        "##e"
      ],
      [
        "dist",
        "##rito"
      ],
      [
        "##on",
        "##a"
      ],
      [
        "##i",
        "##an"
      ],
      [
        "##oss",
        "##ui"
      ],
      [
        "em",
        "##pres"
      ],
      [
        "##un",
        "##di"
      ],
      [
        "Un",
        "##ivers"
      ],
      [
        "2",
        "##5"
      ],
      [
        "##os",
        "##a"
      ],
      [
        "i",
        "##l"
      ],
      [
        "c",
        "##as"
      ],
      [
        "R",
        "##eg"
      ],
      [
        "##r",
        "##á"
      ],
      [
        "C",
        "##at"
      ],
      [
        "produ",
        "##z"
      ],
      [
        "m",
        "##in"
      ],
      [
        "rom",
        "##aniz"
      ],
      [
        "r",
        "##el"
      ],
      [
        "##id",
        "##ades"
      ],
      [
        "##ro",
        "##n"
      ],
      [
        "gre",
        "##go"
      ],
      [
        "on",
        "##de"
      ],
      [
        "al",
        "##em"
      ],
      [
        "##ig",
        "##o"
      ],
      [
        "##st",
        "##itu"
      ],
      [
        "gru",
        "##po"
      ],
      [
        "J",
        "##os"
      ],
      [
        "E",
        "##le"
      ],
      [
        "p",
        "##ub"
      ],
      [
        "f",
        "##un"
      ],
      [
        "##p",
        "##a"
      ],
      [
        "C",
        "##al"
      ],
      [
        "##peon",
        "##ato"
      ],
      [
        "n",
        "##at"
      ],
      [
        "s",
        "##o"
      ],
      [
        "m",
        "##ús"
      ],
      [
        "2",
        "##1"
      ],
      [
        "##p",
        "##ora"
      ],
      [
        "##ant",
        "##o"
      ],
      [
        "B",
        "##ar"
      ],
      [
        "seg",
        "##undo"
      ],
      [
        "##s",
        "##e"
      ],
      [
        "comp",
        "##et"
      ],
      [
        "se",
        "##gu"
      ],
      [
        "de",
        "##st"
      ],
      [
        "p",
        "##e"
      ],
      [
        "##i",
        "##k"
      ],
      [
        "##m",
        "##an"
      ],
      [
        "##ra",
        "##da"
      ],
      [
        "##í",
        "##cio"
      ],
      [
        "##é",
        "##l"
      ],
      [
        "desen",
        "##vol"
      ],
      [
        "2",
        "##4"
      ],
      [
        "19",
        "##1"
      ],
      [
        "s",
        "##em"
      ],
      [
        "s",
        "##ul"
      ],
      [
        "##er",
        "##g"
      ],
      [
        "c",
        "##i"
      ],
      [
        "##s",
        "##a"
      ],
      [
        "lat",
        "##im"
      ],
      [
        "2",
        "##2"
      ],
      [
        "##at",
        "##ro"
      ],
      [
        "##t",
        "##on"
      ],
      [
        "##h",
        "##er"
      ],
      [
        "##if",
        "##ica"
      ],
      [
        "##ce",
        "##u"
      ],
      [
        "or",
        "##g"
      ],
      [
        "##ó",
        "##rio"
      ],
      [
        "P",
        "##ara"
      ],
      [
        "##it",
        "##ar"
      ],
      [
        "##ri",
        "##b"
      ],
      [
        "##e",
        "##de"
      ],
      [
        "des",
        "##de"
      ],
      [
        "3",
        "##0"
      ],
      [
        "a",
        "##uto"
      ],
      [
        "##undi",
        "##al"
      ],
      [
        "qu",
        "##al"
      ],
      [
        "C",
        "##ol"
      ],
      [
        "f",
        "##re"
      ],
      [
        "##ári",
        "##os"
      ],
      [
        "##ment",
        "##os"
      ],
      [
        "2",
        "##3"
      ],
      [
        "##d",
        "##os"
      ],
      [
        "M",
        "##in"
      ],
      [
        "Q",
        "##u"
      ],
      [
        "##l",
        "##and"
      ],
      [
        "b",
        "##ase"
      ],
      [
        "##t",
        "##os"
      ],
      [
        "S",
        "##o"
      ],
      [
        "##on",
        "##d"
      ],
      [
        "nas",
        "##c"
      ],
      [
        "##i",
        "##x"
      ],
      [
        "N",
        "##a"
      ],
      [
        "g",
        "##overn"
      ],
      [
        "##gre",
        "##ja"
      ],
      [
        "##in",
        "##do"
      ],
      [
        "c",
        "##ent"
      ],
      [
        "##at",
        "##a"
      ],
      [
        "##nt",
        "##es"
      ],
      [
        "##if",
        "##ic"
      ],
      [
        "mai",
        "##or"
      ],
      [
        "ex",
        "##t"
      ],
      [
        "##l",
        "##in"
      ],
      [
        "##oc",
        "##k"
      ],
      [
        "part",
        "##ic"
      ],
      [
        "##ri",
        "##s"
      ],
      [
        "t",
        "##orn"
      ],
      [
        "##ic",
        "##h"
      ],
      [
        "franc",
        "##ês"
      ],
      [
        "##úb",
        "##lica"
      ],
      [
        "##m",
        "##as"
      ],
      [
        "##u",
        "##c"
      ],
      [
        "A",
        "##t"
      ],
      [
        "E",
        "##l"
      ],
      [
        "##í",
        "##mp"
      ],
      [
        "##é",
        "##rio"
      ],
      [
        "p",
        "##ass"
      ],
      [
        "d",
        "##iv"
      ],
      [
        "M",
        "##o"
      ],
      [
        "##ador",
        "##es"
      ],
      [
        "##e",
        "##p"
      ],
      [
        "gol",
        "##s"
      ],
      [
        "##o",
        "##w"
      ],
      [
        "##ic",
        "##al"
      ],
      [
        "cap",
        "##ital"
      ],
      [
        "2",
        "##6"
      ],
      [
        "m",
        "##at"
      ],
      [
        "P",
        "##ol"
      ],
      [
        "i",
        "##m"
      ],
      [
        "##r",
        "##y"
      ],
      [
        "in",
        "##d"
      ],
      [
        "##me",
        "##t"
      ],
      [
        "##rit",
        "##ân"
      ],
      [
        "p",
        "##ers"
      ],
      [
        "u",
        "##t"
      ],
      [
        "##v",
        "##ia"
      ],
      [
        "enc",
        "##ont"
      ],
      [
        "Est",
        "##ende"
      ],
      [
        "2",
        "##8"
      ],
      [
        "##ev",
        "##e"
      ],
      [
        "##z",
        "##a"
      ],
      [
        "2",
        "##7"
      ],
      [
        "##olog",
        "##ia"
      ],
      [
        "m",
        "##us"
      ],
      [
        "##c",
        "##on"
      ],
      [
        "##al",
        "##á"
      ],
      [
        "tel",
        "##ev"
      ],
      [
        "c",
        "##in"
      ],
      [
        "g",
        "##u"
      ],
      [
        "l",
        "##iv"
      ],
      [
        "pub",
        "##lic"
      ],
      [
        "americ",
        "##ana"
      ],
      [
        "A",
        "##p"
      ],
      [
        "##pres",
        "##ent"
      ],
      [
        "E",
        "##uro"
      ],
      [
        "##o",
        "##ta"
      ],
      [
        "##d",
        "##er"
      ],
      [
        "##on",
        "##g"
      ],
      [
        "##al",
        "##l"
      ],
      [
        "V",
        "##er"
      ],
      [
        "##un",
        "##s"
      ],
      [
        "co",
        "##me"
      ],
      [
        "##ent",
        "##al"
      ],
      [
        "t",
        "##r"
      ],
      [
        "##i",
        "##pe"
      ],
      [
        "se",
        "##de"
      ],
      [
        "##l",
        "##t"
      ],
      [
        "Part",
        "##idas"
      ],
      [
        "do",
        "##is"
      ],
      [
        "S",
        "##e"
      ],
      [
        ":",
        "##,"
      ],
      [
        "con",
        "##dado"
      ],
      [
        "m",
        "##od"
      ],
      [
        "Cam",
        "##peonato"
      ],
      [
        "ap",
        "##enas"
      ],
      [
        "L",
        "##a"
      ],
      [
        "##em",
        "##b"
      ],
      [
        "##é",
        "##c"
      ],
      [
        "C",
        "##or"
      ],
      [
        "tra",
        "##bal"
      ],
      [
        "i",
        "##nte"
      ],
      [
        "s",
        "##ist"
      ],
      [
        "m",
        "##é"
      ],
      [
        "##an",
        "##c"
      ],
      [
        "##u",
        "##ta"
      ],
      [
        "##ac",
        "##h"
      ],
      [
        "##a",
        "##e"
      ],
      [
        "##s",
        "##on"
      ],
      [
        "##og",
        "##os"
      ],
      [
        "ut",
        "##iliz"
      ],
      [
        "##u",
        "##al"
      ],
      [
        "##ist",
        "##as"
      ],
      [
        "##d",
        "##as"
      ],
      [
        "P",
        "##ar"
      ],
      [
        "profiss",
        "##ional"
      ],
      [
        "##i",
        "##mento"
      ],
      [
        "C",
        "##ent"
      ],
      [
        "f",
        "##und"
      ],
      [
        "2",
        "##9"
      ],
      [
        "##ra",
        "##do"
      ],
      [
        "cl",
        "##ass"
      ],
      [
        "S",
        "##al"
      ],
      [
        "##p",
        "##re"
      ],
      [
        "I",
        "##nt"
      ],
      [
        "##ra",
        "##ção"
      ],
      [
        "telev",
        "##isão"
      ],
      [
        "Fran",
        "##ça"
      ],
      [
        "O",
        "##r"
      ],
      [
        "##po",
        "##is"
      ],
      [
        "I",
        "##s"
      ],
      [
        "##p",
        "##or"
      ],
      [
        "##id",
        "##era"
      ],
      [
        "esc",
        "##rito"
      ],
      [
        "##el",
        "##h"
      ],
      [
        "##em",
        "##in"
      ],
      [
        "##er",
        "##v"
      ],
      [
        "e",
        "##dição"
      ],
      [
        "##ó",
        "##r"
      ],
      [
        "##os",
        "##t"
      ],
      [
        "for",
        "##ma"
      ],
      [
        "h",
        "##o"
      ],
      [
        "ci",
        "##ent"
      ],
      [
        "of",
        "##ici"
      ],
      [
        "##d",
        "##es"
      ],
      [
        "in",
        "##s"
      ],
      [
        "##al",
        "##e"
      ],
      [
        "##ri",
        "##ta"
      ],
      [
        "##el",
        "##ho"
      ],
      [
        "##an",
        "##os"
      ],
      [
        "##er",
        "##to"
      ],
      [
        "##n",
        "##ia"
      ],
      [
        "F",
        "##il"
      ],
      [
        "s",
        "##im"
      ],
      [
        "est",
        "##ú"
      ],
      [
        "P",
        "##er"
      ],
      [
        "E",
        "##x"
      ],
      [
        "##ou",
        "##r"
      ],
      [
        "p",
        "##esso"
      ],
      [
        "##res",
        "##ent"
      ],
      [
        "P",
        "##o"
      ],
      [
        "des",
        "##ign"
      ],
      [
        "##t",
        "##or"
      ],
      [
        "Re",
        "##p"
      ],
      [
        "f",
        "##az"
      ],
      [
        "T",
        "##ra"
      ],
      [
        "b",
        "##ritân"
      ],
      [
        "a",
        "##os"
      ],
      [
        "ap",
        "##resent"
      ],
      [
        "s",
        "##ido"
      ],
      [
        "##ado",
        "##ra"
      ],
      [
        "##gu",
        "##es"
      ],
      [
        "f",
        "##l"
      ],
      [
        "qu",
        "##ando"
      ],
      [
        "re",
        "##present"
      ],
      [
        "T",
        "##e"
      ],
      [
        "As",
        "##s"
      ],
      [
        "##k",
        "##i"
      ],
      [
        "alem",
        "##ão"
      ],
      [
        "l",
        "##ista"
      ],
      [
        "##ul",
        "##ar"
      ],
      [
        "C",
        "##a"
      ],
      [
        "J",
        "##ogos"
      ],
      [
        "c",
        "##a"
      ],
      [
        "M",
        "##undial"
      ],
      [
        "C",
        "##an"
      ],
      [
        "Sant",
        "##a"
      ],
      [
        "##át",
        "##ica"
      ],
      [
        "N",
        "##orte"
      ],
      [
        "estú",
        "##dio"
      ],
      [
        "M",
        "##an"
      ],
      [
        "m",
        "##ed"
      ],
      [
        "##ó",
        "##g"
      ],
      [
        "compos",
        "##it"
      ],
      [
        "##v",
        "##ido"
      ],
      [
        "##ç",
        "##as"
      ],
      [
        "g",
        "##rande"
      ],
      [
        "##og",
        "##o"
      ],
      [
        "##id",
        "##ente"
      ],
      [
        "##ú",
        "##m"
      ],
      [
        "partic",
        "##ip"
      ],
      [
        "cont",
        "##ra"
      ],
      [
        "##or",
        "##g"
      ],
      [
        "mes",
        "##mo"
      ],
      [
        "##qu",
        "##ia"
      ],
      [
        "##le",
        "##x"
      ],
      [
        "##ac",
        "##e"
      ],
      [
        "est",
        "##r"
      ],
      [
        "R",
        "##ec"
      ],
      [
        "Jos",
        "##é"
      ],
      [
        "tr",
        "##ês"
      ],
      [
        "##at",
        "##e"
      ],
      [
        "club",
        "##es"
      ],
      [
        "Gu",
        "##erra"
      ],
      [
        "r",
        "##us"
      ],
      [
        "na",
        "##cional"
      ],
      [
        "int",
        "##er"
      ],
      [
        "princip",
        "##al"
      ],
      [
        "cant",
        "##ora"
      ],
      [
        "U",
        "##m"
      ],
      [
        "N",
        "##e"
      ],
      [
        "v",
        "##ol"
      ],
      [
        "v",
        "##er"
      ],
      [
        "org",
        "##aniz"
      ],
      [
        "du",
        "##as"
      ],
      [
        "##os",
        "##o"
      ],
      [
        "G",
        "##e"
      ],
      [
        "##ric",
        "##o"
      ],
      [
        "p",
        "##os"
      ],
      [
        "##ap",
        "##on"
      ],
      [
        "de",
        "##f"
      ],
      [
        "##j",
        "##o"
      ],
      [
        "b",
        "##a"
      ],
      [
        "Univers",
        "##idade"
      ],
      [
        "Est",
        "##a"
      ],
      [
        "can",
        "##ção"
      ],
      [
        "##en",
        "##o"
      ],
      [
        "##ri",
        "##as"
      ],
      [
        "atu",
        "##aliz"
      ],
      [
        "##al",
        "##a"
      ],
      [
        "esc",
        "##rit"
      ],
      [
        "Jo",
        "##h"
      ],
      [
        "I",
        "##greja"
      ],
      [
        "t",
        "##ít"
      ],
      [
        "Ma",
        "##ria"
      ],
      [
        "##e",
        "##ta"
      ],
      [
        "T",
        "##h"
      ],
      [
        "su",
        "##as"
      ],
      [
        "A",
        "##c"
      ],
      [
        "L",
        "##is"
      ],
      [
        "##an",
        "##ça"
      ],
      [
        "##ut",
        "##os"
      ],
      [
        "f",
        "##ic"
      ],
      [
        "club",
        "##e"
      ],
      [
        "const",
        "##ru"
      ],
      [
        "F",
        "##l"
      ],
      [
        "l",
        "##ín"
      ],
      [
        "po",
        "##de"
      ],
      [
        "##ura",
        "##l"
      ],
      [
        "19",
        "##0"
      ],
      [
        "a",
        "##f"
      ],
      [
        "##ac",
        "##o"
      ],
      [
        "##i",
        "##al"
      ],
      [
        "cient",
        "##íf"
      ],
      [
        "Jo",
        "##ão"
      ],
      [
        "##r",
        "##ôn"
      ],
      [
        "A",
        "##d"
      ],
      [
        "##f",
        "##ia"
      ],
      [
        "g",
        "##rav"
      ],
      [
        "l",
        "##it"
      ],
      [
        "M",
        "##ari"
      ],
      [
        "An",
        "##d"
      ],
      [
        "##pora",
        "##da"
      ],
      [
        "Reg",
        "##ião"
      ],
      [
        "##é",
        "##n"
      ],
      [
        "##oc",
        "##a"
      ],
      [
        "##in",
        "##da"
      ],
      [
        "n",
        "##um"
      ],
      [
        "atualiz",
        "##adas"
      ],
      [
        "##ic",
        "##e"
      ],
      [
        "I",
        "##l"
      ],
      [
        "##or",
        "##ta"
      ],
      [
        "S",
        "##p"
      ],
      [
        "t",
        "##od"
      ],
      [
        "##nc",
        "##ias"
      ],
      [
        "re",
        "##f"
      ],
      [
        "á",
        "##ra"
      ],
      [
        "ap",
        "##ós"
      ],
      [
        "r",
        "##io"
      ],
      [
        "##ens",
        "##ão"
      ],
      [
        "##v",
        "##er"
      ],
      [
        "P",
        "##ri"
      ],
      [
        "##t",
        "##h"
      ],
      [
        "futebol",
        "##ista"
      ],
      [
        "hist",
        "##ória"
      ],
      [
        "B",
        "##o"
      ],
      [
        "I",
        "##I"
      ],
      [
        "Rep",
        "##ública"
      ],
      [
        "cons",
        "##idera"
      ],
      [
        "t",
        "##ip"
      ],
      [
        "##in",
        "##s"
      ],
      [
        "18",
        "##9"
      ],
      [
        "##en",
        "##h"
      ],
      [
        "##m",
        "##es"
      ],
      [
        "prof",
        "##ess"
      ],
      [
        "m",
        "##en"
      ],
      [
        "##i",
        "##me"
      ],
      [
        "##ut",
        "##or"
      ],
      [
        "##í",
        "##m"
      ],
      [
        "##el",
        "##ação"
      ],
      [
        "j",
        "##apon"
      ],
      [
        "##et",
        "##os"
      ],
      [
        "##it",
        "##as"
      ],
      [
        "##i",
        "##re"
      ],
      [
        "##ari",
        "##s"
      ],
      [
        "sist",
        "##ema"
      ],
      [
        "c",
        "##ul"
      ],
      [
        "##b",
        "##a"
      ],
      [
        "##bo",
        "##a"
      ],
      [
        "##orn",
        "##al"
      ],
      [
        "per",
        "##í"
      ],
      [
        "B",
        "##a"
      ],
      [
        "##me",
        "##l"
      ],
      [
        "fil",
        "##ho"
      ],
      [
        "F",
        "##re"
      ],
      [
        "ter",
        "##rit"
      ],
      [
        "##unt",
        "##o"
      ],
      [
        "S",
        "##h"
      ],
      [
        "##i",
        "##er"
      ],
      [
        "##u",
        "##do"
      ],
      [
        "de",
        "##pois"
      ],
      [
        "pl",
        "##ant"
      ],
      [
        "Lis",
        "##boa"
      ],
      [
        "3",
        "##1"
      ],
      [
        "##ri",
        "##da"
      ],
      [
        "##t",
        "##á"
      ],
      [
        "##ag",
        "##o"
      ],
      [
        "D",
        "##es"
      ],
      [
        "oc",
        "##orre"
      ],
      [
        "P",
        "##r"
      ],
      [
        "f",
        "##inal"
      ],
      [
        "ára",
        "##be"
      ],
      [
        "c",
        "##u"
      ],
      [
        "g",
        "##eral"
      ],
      [
        "##ó",
        "##d"
      ],
      [
        "loc",
        "##al"
      ],
      [
        "##ern",
        "##acional"
      ],
      [
        "##on",
        "##s"
      ],
      [
        "##v",
        "##o"
      ],
      [
        "##p",
        "##l"
      ],
      [
        "##í",
        "##vel"
      ],
      [
        "##eg",
        "##o"
      ],
      [
        "P",
        "##ossui"
      ],
      [
        "S",
        "##il"
      ],
      [
        "##ra",
        "##g"
      ],
      [
        "##ei",
        "##ros"
      ],
      [
        "##or",
        "##e"
      ],
      [
        "con",
        "##f"
      ],
      [
        "##í",
        "##de"
      ],
      [
        "##a",
        "##ções"
      ],
      [
        "const",
        "##elação"
      ],
      [
        "out",
        "##ros"
      ],
      [
        "##l",
        "##et"
      ],
      [
        "Cl",
        "##ub"
      ],
      [
        "##v",
        "##en"
      ],
      [
        "est",
        "##re"
      ],
      [
        "jog",
        "##o"
      ],
      [
        "##re",
        "##ira"
      ],
      [
        "Es",
        "##c"
      ],
      [
        "##il",
        "##o"
      ],
      [
        "##í",
        "##do"
      ],
      [
        "mús",
        "##ica"
      ],
      [
        "C",
        "##ast"
      ],
      [
        "##f",
        "##f"
      ],
      [
        "##át",
        "##ico"
      ],
      [
        "##z",
        "##e"
      ],
      [
        "##i",
        "##el"
      ],
      [
        "S",
        "##a"
      ],
      [
        "Rom",
        "##a"
      ],
      [
        "F",
        "##utebol"
      ],
      [
        "p",
        "##oss"
      ],
      [
        "##er",
        "##c"
      ],
      [
        "##an",
        "##s"
      ],
      [
        "##l",
        "##io"
      ],
      [
        "tít",
        "##ulo"
      ],
      [
        "##k",
        "##a"
      ],
      [
        "empres",
        "##a"
      ],
      [
        "##m",
        "##it"
      ],
      [
        "##s",
        "##ia"
      ],
      [
        "##é",
        "##dia"
      ],
      [
        "##os",
        "##ta"
      ],
      [
        "##é",
        "##rica"
      ],
      [
        "##oc",
        "##ia"
      ],
      [
        "##rá",
        "##f"
      ],
      [
        "t",
        "##he"
      ],
      [
        "C",
        "##as"
      ],
      [
        "A",
        "##u"
      ],
      [
        "hist",
        "##ó"
      ],
      [
        "##n",
        "##o"
      ],
      [
        "m",
        "##undo"
      ],
      [
        "est",
        "##ão"
      ],
      [
        "Por",
        "##to"
      ],
      [
        "##ra",
        "##t"
      ],
      [
        "pro",
        "##gra"
      ],
      [
        "part",
        "##ir"
      ],
      [
        "m",
        "##on"
      ],
      [
        "a",
        "##st"
      ],
      [
        "p",
        "##es"
      ],
      [
        "Est",
        "##ado"
      ],
      [
        "##in",
        "##ho"
      ],
      [
        "popul",
        "##acional"
      ],
      [
        "ser",
        "##vi"
      ],
      [
        "ter",
        "##c"
      ],
      [
        "##p",
        "##h"
      ],
      [
        "nasc",
        "##ido"
      ],
      [
        "f",
        "##al"
      ],
      [
        "rus",
        "##so"
      ],
      [
        "##f",
        "##o"
      ],
      [
        "perí",
        "##odo"
      ],
      [
        "m",
        "##o"
      ],
      [
        "ital",
        "##iano"
      ],
      [
        "orig",
        "##in"
      ],
      [
        "##ac",
        "##k"
      ],
      [
        "N",
        "##acional"
      ],
      [
        "B",
        "##e"
      ],
      [
        "18",
        "##8"
      ],
      [
        "##ro",
        "##l"
      ],
      [
        "##â",
        "##m"
      ],
      [
        "O",
        "##c"
      ],
      [
        "c",
        "##ur"
      ],
      [
        "e",
        "##vent"
      ],
      [
        "pro",
        "##c"
      ],
      [
        "e",
        "##t"
      ],
      [
        "v",
        "##en"
      ],
      [
        "ú",
        "##n"
      ],
      [
        "ital",
        "##iana"
      ],
      [
        "W",
        "##il"
      ],
      [
        "tem",
        "##porada"
      ],
      [
        "##i",
        "##gu"
      ],
      [
        "V",
        "##al"
      ],
      [
        "Re",
        "##ino"
      ],
      [
        "##ôn",
        "##ia"
      ],
      [
        "j",
        "##ornal"
      ],
      [
        "F",
        "##ede"
      ],
      [
        "at",
        "##riz"
      ],
      [
        "Esp",
        "##anha"
      ],
      [
        "r",
        "##ei"
      ],
      [
        "cham",
        "##ado"
      ],
      [
        "s",
        "##ol"
      ],
      [
        "##ra",
        "##ma"
      ],
      [
        "##ímp",
        "##icos"
      ],
      [
        "cant",
        "##or"
      ],
      [
        "I",
        "##mp"
      ],
      [
        "il",
        "##ha"
      ],
      [
        "ar",
        "##qu"
      ],
      [
        "vez",
        "##es"
      ],
      [
        "C",
        "##o"
      ],
      [
        "pe",
        "##qu"
      ],
      [
        "compet",
        "##ição"
      ],
      [
        "t",
        "##ur"
      ],
      [
        "##an",
        "##ce"
      ],
      [
        "as",
        "##c"
      ],
      [
        "portugu",
        "##esa"
      ],
      [
        "##ed",
        "##ade"
      ],
      [
        "disp",
        "##ut"
      ],
      [
        "##es",
        "##ta"
      ],
      [
        "ba",
        "##ir"
      ],
      [
        "escrit",
        "##or"
      ],
      [
        "v",
        "##ila"
      ],
      [
        "di",
        "##as"
      ],
      [
        "C",
        "##op"
      ],
      [
        "##ab",
        "##el"
      ],
      [
        "##ar",
        "##e"
      ],
      [
        "Al",
        "##em"
      ],
      [
        "##ári",
        "##as"
      ],
      [
        "##h",
        "##t"
      ],
      [
        "##is",
        "##co"
      ],
      [
        "an",
        "##im"
      ],
      [
        "at",
        "##or"
      ],
      [
        "e",
        "##uro"
      ],
      [
        "A",
        "##g"
      ],
      [
        "##b",
        "##ur"
      ],
      [
        "201",
        "##1"
      ],
      [
        "##r",
        "##g"
      ],
      [
        "##i",
        "##ões"
      ],
      [
        "F",
        "##or"
      ],
      [
        "come",
        "##ç"
      ],
      [
        "##ele",
        "##ção"
      ],
      [
        "b",
        "##ra"
      ],
      [
        "##a",
        "##mento"
      ],
      [
        "territ",
        "##ório"
      ],
      [
        "##ara",
        "##c"
      ],
      [
        "E",
        "##n"
      ],
      [
        "##al",
        "##ha"
      ],
      [
        "##c",
        "##os"
      ],
      [
        "à",
        "##s"
      ],
      [
        "a",
        "##nte"
      ],
      [
        "200",
        "##8"
      ],
      [
        "M",
        "##us"
      ],
      [
        "at",
        "##rav"
      ],
      [
        "##ve",
        "##is"
      ],
      [
        "inc",
        "##lu"
      ],
      [
        "##â",
        "##ncia"
      ],
      [
        "##in",
        "##as"
      ],
      [
        "##h",
        "##am"
      ],
      [
        "P",
        "##l"
      ],
      [
        "P",
        "##aris"
      ],
      [
        "##cion",
        "##ais"
      ],
      [
        "el",
        "##et"
      ],
      [
        "##ic",
        "##l"
      ],
      [
        "##un",
        "##g"
      ],
      [
        "a",
        "##inda"
      ],
      [
        "ú",
        "##lt"
      ],
      [
        "s",
        "##ing"
      ],
      [
        "##u",
        "##a"
      ],
      [
        "mus",
        "##ical"
      ],
      [
        "rec",
        "##eb"
      ],
      [
        "##pe",
        "##u"
      ],
      [
        "M",
        "##ont"
      ],
      [
        "##ol",
        "##óg"
      ],
      [
        "##om",
        "##a"
      ],
      [
        "N",
        "##at"
      ],
      [
        "g",
        "##ra"
      ],
      [
        "o",
        "##pera"
      ],
      [
        "##G",
        "##C"
      ],
      [
        "n",
        "##úm"
      ],
      [
        "l",
        "##ig"
      ],
      [
        "##an",
        "##e"
      ],
      [
        "##on",
        "##e"
      ],
      [
        "##is",
        "##po"
      ],
      [
        "²",
        "##,"
      ],
      [
        "Car",
        "##l"
      ],
      [
        "##a",
        "##nte"
      ],
      [
        "t",
        "##eve"
      ],
      [
        "f",
        "##emin"
      ],
      [
        "d",
        "##in"
      ],
      [
        "##in",
        "##ado"
      ],
      [
        "##ro",
        "##u"
      ],
      [
        "R",
        "##ob"
      ],
      [
        "h",
        "##um"
      ],
      [
        "##iv",
        "##os"
      ],
      [
        "mu",
        "##ito"
      ],
      [
        "esp",
        "##anh"
      ],
      [
        "201",
        "##2"
      ],
      [
        "##er",
        "##ta"
      ],
      [
        "201",
        "##6"
      ],
      [
        "ter",
        "##mo"
      ],
      [
        "##is",
        "##a"
      ],
      [
        "##or",
        "##o"
      ],
      [
        "nas",
        "##ceu"
      ],
      [
        "s",
        "##ign"
      ],
      [
        "mil",
        "##itar"
      ],
      [
        "E",
        "##d"
      ],
      [
        "N",
        "##GC"
      ],
      [
        "##er",
        "##os"
      ],
      [
        "ex",
        "##ist"
      ],
      [
        "##itu",
        "##de"
      ],
      [
        "r",
        "##ock"
      ],
      [
        "##i",
        "##us"
      ],
      [
        "lín",
        "##gua"
      ],
      [
        "i",
        "##s"
      ],
      [
        "##á",
        "##dio"
      ],
      [
        "##qu",
        "##er"
      ],
      [
        "P",
        "##al"
      ],
      [
        "i",
        "##rm"
      ],
      [
        "An",
        "##g"
      ],
      [
        "200",
        "##7"
      ],
      [
        "##r",
        "##b"
      ],
      [
        "##t",
        "##as"
      ],
      [
        "##k",
        "##e"
      ],
      [
        "##ó",
        "##lica"
      ],
      [
        "in",
        "##ício"
      ],
      [
        "##ec",
        "##e"
      ],
      [
        "##x",
        "##ia"
      ],
      [
        "##y",
        "##s"
      ],
      [
        "##f",
        "##t"
      ],
      [
        "##or",
        "##do"
      ],
      [
        "##il",
        "##le"
      ],
      [
        "##ri",
        "##m"
      ],
      [
        "pro",
        "##p"
      ],
      [
        "j",
        "##u"
      ],
      [
        "fund",
        "##ada"
      ],
      [
        "p",
        "##int"
      ],
      [
        "M",
        "##et"
      ],
      [
        "M",
        "##e"
      ],
      [
        "qu",
        "##atro"
      ],
      [
        "Joh",
        "##n"
      ],
      [
        "pers",
        "##on"
      ],
      [
        "t",
        "##re"
      ],
      [
        "de",
        "##n"
      ],
      [
        "S",
        "##an"
      ],
      [
        "A",
        "##meric"
      ],
      [
        "imp",
        "##orta"
      ],
      [
        "G",
        "##l"
      ],
      [
        "##ê",
        "##ncias"
      ],
      [
        "profess",
        "##or"
      ],
      [
        "##nt",
        "##o"
      ],
      [
        "a",
        "##v"
      ],
      [
        "##x",
        "##im"
      ],
      [
        "T",
        "##em"
      ],
      [
        "##ern",
        "##a"
      ],
      [
        "composit",
        "##or"
      ],
      [
        "b",
        "##ar"
      ],
      [
        "r",
        "##a"
      ],
      [
        "##om",
        "##b"
      ],
      [
        "atu",
        "##al"
      ],
      [
        "##tiv",
        "##o"
      ],
      [
        "##m",
        "##b"
      ],
      [
        "d",
        "##ivers"
      ],
      [
        "##es",
        "##e"
      ],
      [
        "##rist",
        "##a"
      ],
      [
        "201",
        "##8"
      ],
      [
        "orig",
        "##em"
      ],
      [
        "P",
        "##at"
      ],
      [
        "Am",
        "##érica"
      ],
      [
        "M",
        "##at"
      ],
      [
        "##m",
        "##os"
      ],
      [
        "##am",
        "##a"
      ],
      [
        "##r",
        "##é"
      ],
      [
        "##rior",
        "##mente"
      ],
      [
        "E",
        "##nt"
      ],
      [
        "##je",
        "##to"
      ],
      [
        "ant",
        "##iga"
      ],
      [
        "in",
        "##st"
      ],
      [
        "situ",
        "##ada"
      ],
      [
        "tip",
        "##o"
      ],
      [
        "ant",
        "##igo"
      ],
      [
        "R",
        "##a"
      ],
      [
        "##di",
        "##os"
      ],
      [
        "cri",
        "##ado"
      ],
      [
        "202",
        "##1"
      ],
      [
        "ho",
        "##ras"
      ],
      [
        "sim",
        "##p"
      ],
      [
        "##u",
        "##z"
      ],
      [
        "##ri",
        "##al"
      ],
      [
        "##en",
        "##ça"
      ],
      [
        "##á",
        "##vel"
      ],
      [
        "estr",
        "##el"
      ],
      [
        "##gues",
        "##ia"
      ],
      [
        "g",
        "##alá"
      ],
      [
        "cri",
        "##ada"
      ],
      [
        "pesso",
        "##as"
      ],
      [
        "país",
        "##es"
      ],
      [
        "j",
        "##á"
      ],
      [
        "18",
        "##7"
      ],
      [
        "H",
        "##o"
      ],
      [
        "se",
        "##x"
      ],
      [
        "##c",
        "##ção"
      ],
      [
        "Imp",
        "##ério"
      ],
      [
        "A",
        "##qu"
      ],
      [
        "atu",
        "##almente"
      ],
      [
        "##t",
        "##ado"
      ],
      [
        "di",
        "##fer"
      ],
      [
        "S",
        "##ai"
      ],
      [
        "200",
        "##1"
      ],
      [
        "g",
        "##e"
      ],
      [
        "de",
        "##l"
      ],
      [
        "201",
        "##5"
      ],
      [
        "201",
        "##4"
      ],
      [
        "##c",
        "##u"
      ],
      [
        "18",
        "##6"
      ],
      [
        "min",
        "##utos"
      ],
      [
        "P",
        "##ed"
      ],
      [
        "atrav",
        "##és"
      ],
      [
        "201",
        "##3"
      ],
      [
        "p",
        "##ap"
      ],
      [
        "L",
        "##ond"
      ],
      [
        "##ri",
        "##d"
      ],
      [
        "##as",
        "##h"
      ],
      [
        "Su",
        "##a"
      ],
      [
        "cent",
        "##ro"
      ],
      [
        "seg",
        "##unda"
      ],
      [
        "Alem",
        "##anha"
      ],
      [
        "##g",
        "##ent"
      ],
      [
        "200",
        "##9"
      ],
      [
        "##â",
        "##nt"
      ],
      [
        "##und",
        "##os"
      ],
      [
        "U",
        "##ma"
      ],
      [
        "M",
        "##ad"
      ],
      [
        "científ",
        "##ica"
      ],
      [
        "re",
        "##fer"
      ],
      [
        "##í",
        "##ci"
      ],
      [
        "produz",
        "##ido"
      ],
      [
        "##an",
        "##n"
      ],
      [
        "##era",
        "##is"
      ],
      [
        "M",
        "##é"
      ],
      [
        "e",
        "##p"
      ],
      [
        "##ón",
        "##ia"
      ],
      [
        "us",
        "##ado"
      ],
      [
        "l",
        "##on"
      ],
      [
        "b",
        "##as"
      ],
      [
        "##á",
        "##l"
      ],
      [
        "con",
        "##j"
      ],
      [
        "##ru",
        "##z"
      ],
      [
        "galá",
        "##xia"
      ],
      [
        "##re",
        "##t"
      ],
      [
        "##c",
        "##ar"
      ],
      [
        "met",
        "##ros"
      ],
      [
        "d",
        "##éc"
      ],
      [
        "qu",
        "##ad"
      ],
      [
        "##í",
        "##da"
      ],
      [
        "p",
        "##al"
      ],
      [
        "c",
        "##ir"
      ],
      [
        "simp",
        "##les"
      ],
      [
        "g",
        "##en"
      ],
      [
        "t",
        "##or"
      ],
      [
        "const",
        "##itu"
      ],
      [
        "pro",
        "##d"
      ],
      [
        "200",
        "##6"
      ],
      [
        "c",
        "##r"
      ],
      [
        "B",
        "##at"
      ],
      [
        "asc",
        "##ensão"
      ],
      [
        "h",
        "##ome"
      ],
      [
        "##g",
        "##uns"
      ],
      [
        "##íst",
        "##ica"
      ],
      [
        "##o",
        "##k"
      ],
      [
        "##êm",
        "##io"
      ],
      [
        "E",
        "##la"
      ],
      [
        "##i",
        "##nte"
      ],
      [
        "govern",
        "##o"
      ],
      [
        "##it",
        "##ânia"
      ],
      [
        "in",
        "##v"
      ],
      [
        "##en",
        "##n"
      ],
      [
        "201",
        "##9"
      ],
      [
        "##s",
        "##ão"
      ],
      [
        "ap",
        "##ro"
      ],
      [
        "equ",
        "##ip"
      ],
      [
        "M",
        "##art"
      ],
      [
        "p",
        "##ossui"
      ],
      [
        "c",
        "##icl"
      ],
      [
        "J",
        "##ap"
      ],
      [
        "v",
        "##ida"
      ],
      [
        "m",
        "##orte"
      ],
      [
        "a",
        "##ut"
      ],
      [
        "##í",
        "##b"
      ],
      [
        "al",
        "##gu"
      ],
      [
        "##qu",
        "##ist"
      ],
      [
        "##du",
        "##z"
      ],
      [
        "Al",
        "##b"
      ],
      [
        "v",
        "##iv"
      ],
      [
        "##ás",
        "##s"
      ],
      [
        "200",
        "##4"
      ],
      [
        "r",
        "##et"
      ],
      [
        "V",
        "##i"
      ],
      [
        "c",
        "##ada"
      ],
      [
        "m",
        "##embro"
      ],
      [
        "f",
        "##e"
      ],
      [
        "##j",
        "##et"
      ],
      [
        "tem",
        "##po"
      ],
      [
        "##v",
        "##io"
      ],
      [
        "Ol",
        "##ímpicos"
      ],
      [
        "l",
        "##a"
      ],
      [
        "0",
        "##00"
      ],
      [
        "##u",
        "##el"
      ],
      [
        "seg",
        "##undos"
      ],
      [
        "##ú",
        "##n"
      ],
      [
        "##la",
        "##y"
      ],
      [
        "M",
        "##ic"
      ],
      [
        "jog",
        "##os"
      ],
      [
        "Cop",
        "##a"
      ],
      [
        "ex",
        "##ib"
      ],
      [
        "##int",
        "##o"
      ],
      [
        "F",
        "##o"
      ],
      [
        "d",
        "##rama"
      ],
      [
        "n",
        "##e"
      ],
      [
        "m",
        "##an"
      ],
      [
        "P",
        "##ra"
      ],
      [
        "##de",
        "##p"
      ],
      [
        "su",
        "##c"
      ],
      [
        "T",
        "##a"
      ],
      [
        "##lin",
        "##ação"
      ],
      [
        "##is",
        "##e"
      ],
      [
        "ofici",
        "##al"
      ],
      [
        "núm",
        "##ero"
      ],
      [
        "pres",
        "##idente"
      ],
      [
        "t",
        "##o"
      ],
      [
        "##b",
        "##i"
      ],
      [
        "X",
        "##V"
      ],
      [
        "200",
        "##5"
      ],
      [
        "##p",
        "##es"
      ],
      [
        "tod",
        "##os"
      ],
      [
        "out",
        "##ras"
      ],
      [
        "britân",
        "##ico"
      ],
      [
        "M",
        "##il"
      ],
      [
        "polít",
        "##ica"
      ],
      [
        "res",
        "##p"
      ],
      [
        "public",
        "##ado"
      ],
      [
        "l",
        "##ug"
      ],
      [
        "##t",
        "##ion"
      ],
      [
        "al",
        "##t"
      ],
      [
        "##d",
        "##en"
      ],
      [
        "re",
        "##v"
      ],
      [
        "B",
        "##l"
      ],
      [
        "P",
        "##e"
      ],
      [
        "##l",
        "##ico"
      ],
      [
        "B",
        "##u"
      ],
      [
        "S",
        "##eu"
      ],
      [
        "##b",
        "##re"
      ],
      [
        "dire",
        "##cção"
      ],
      [
        "m",
        "##ov"
      ],
      [
        "Con",
        "##s"
      ],
      [
        "ant",
        "##es"
      ],
      [
        "v",
        "##is"
      ],
      [
        "##ôn",
        "##io"
      ],
      [
        "Carl",
        "##os"
      ],
      [
        "den",
        "##om"
      ],
      [
        "fl",
        "##or"
      ],
      [
        "Sai",
        "##nt"
      ],
      [
        "p",
        "##ai"
      ],
      [
        "C",
        "##ap"
      ],
      [
        "##or",
        "##ge"
      ],
      [
        "v",
        "##ários"
      ],
      [
        "##ess",
        "##e"
      ],
      [
        "P",
        "##et"
      ],
      [
        "##d",
        "##ic"
      ],
      [
        "ent",
        "##ão"
      ],
      [
        "cam",
        "##pe"
      ],
      [
        "T",
        "##V"
      ],
      [
        "v",
        "##ers"
      ],
      [
        "##am",
        "##p"
      ],
      [
        "R",
        "##o"
      ],
      [
        "201",
        "##7"
      ],
      [
        "A",
        "##lex"
      ],
      [
        "dec",
        "##linação"
      ],
      [
        "H",
        "##a"
      ],
      [
        "liv",
        "##ro"
      ],
      [
        "##am",
        "##es"
      ],
      [
        "c",
        "##al"
      ],
      [
        "c",
        "##arac"
      ],
      [
        "i",
        "##b"
      ],
      [
        "Com",
        "##p"
      ],
      [
        "t",
        "##ot"
      ],
      [
        "##r",
        "##ão"
      ],
      [
        "mas",
        "##cul"
      ],
      [
        "realiz",
        "##ado"
      ],
      [
        "me",
        "##io"
      ],
      [
        "##d",
        "##it"
      ],
      [
        "rec",
        "##ta"
      ],
      [
        "##ir",
        "##os"
      ],
      [
        "##y",
        "##l"
      ],
      [
        "##ei",
        "##x"
      ],
      [
        "T",
        "##ur"
      ],
      [
        "com",
        "##édia"
      ],
      [
        "ac",
        "##ordo"
      ],
      [
        "ap",
        "##ar"
      ],
      [
        "In",
        "##gl"
      ],
      [
        "J",
        "##e"
      ],
      [
        "##at",
        "##iva"
      ],
      [
        "##re",
        "##m"
      ],
      [
        "##us",
        "##a"
      ],
      [
        "##le",
        "##y"
      ],
      [
        "##d",
        "##ico"
      ],
      [
        "é",
        "##p"
      ],
      [
        "Est",
        "##e"
      ],
      [
        "elet",
        "##rôn"
      ],
      [
        "##á",
        "##b"
      ],
      [
        "##ada",
        "##mente"
      ],
      [
        "##ion",
        "##ais"
      ],
      [
        "##í",
        "##g"
      ],
      [
        "M",
        "##al"
      ],
      [
        "car",
        "##reira"
      ],
      [
        "p",
        "##ra"
      ],
      [
        "cham",
        "##ada"
      ],
      [
        "em",
        "##b"
      ],
      [
        "r",
        "##ela"
      ],
      [
        "Lond",
        "##res"
      ],
      [
        "##á",
        "##r"
      ],
      [
        "espéci",
        "##es"
      ],
      [
        "D",
        "##u"
      ],
      [
        "F",
        "##er"
      ],
      [
        "##s",
        "##h"
      ],
      [
        "##il",
        "##i"
      ],
      [
        "##me",
        "##n"
      ],
      [
        "D",
        "##av"
      ],
      [
        "##p",
        "##lo"
      ],
      [
        "rel",
        "##ig"
      ],
      [
        "pres",
        "##ente"
      ],
      [
        "se",
        "##di"
      ],
      [
        "un",
        "##ivers"
      ],
      [
        "A",
        "##ust"
      ],
      [
        "##ri",
        "##dade"
      ],
      [
        "começ",
        "##ou"
      ],
      [
        "##ri",
        "##os"
      ],
      [
        "Jap",
        "##ão"
      ],
      [
        "##di",
        "##f"
      ],
      [
        "##ag",
        "##n"
      ],
      [
        "18",
        "##5"
      ],
      [
        "##or",
        "##ma"
      ],
      [
        "M",
        "##on"
      ],
      [
        "T",
        "##er"
      ],
      [
        "202",
        "##0"
      ],
      [
        "ar",
        "##m"
      ],
      [
        "mat",
        "##em"
      ],
      [
        "##ã",
        "##os"
      ],
      [
        "Ver",
        "##ão"
      ],
      [
        "##g",
        "##em"
      ],
      [
        "bair",
        "##ro"
      ],
      [
        "##c",
        "##el"
      ],
      [
        "t",
        "##ota"
      ],
      [
        "tota",
        "##is"
      ],
      [
        "M",
        "##ac"
      ],
      [
        "an",
        "##d"
      ],
      [
        "##ul",
        "##her"
      ],
      [
        "B",
        "##el"
      ],
      [
        "ins",
        "##etos"
      ],
      [
        "b",
        "##em"
      ],
      [
        "202",
        "##5"
      ],
      [
        "##ét",
        "##ica"
      ],
      [
        "##ar",
        "##do"
      ],
      [
        "i",
        "##de"
      ],
      [
        "torn",
        "##ou"
      ],
      [
        "N",
        "##as"
      ],
      [
        "##c",
        "##l"
      ],
      [
        "##i",
        "##que"
      ],
      [
        "re",
        "##p"
      ],
      [
        "princip",
        "##ais"
      ],
      [
        "##t",
        "##es"
      ],
      [
        "J",
        "##u"
      ],
      [
        "ch",
        "##in"
      ],
      [
        "Franc",
        "##isco"
      ],
      [
        "Ch",
        "##ar"
      ],
      [
        "B",
        "##ro"
      ],
      [
        "G",
        "##o"
      ],
      [
        "C",
        "##ont"
      ],
      [
        "##i",
        "##ções"
      ],
      [
        "H",
        "##en"
      ],
      [
        "su",
        "##per"
      ],
      [
        "##in",
        "##gu"
      ],
      [
        "##re",
        "##g"
      ],
      [
        "##ân",
        "##dia"
      ],
      [
        "##it",
        "##y"
      ],
      [
        "I",
        "##tá"
      ],
      [
        "##en",
        "##ha"
      ],
      [
        "##av",
        "##al"
      ],
      [
        "fre",
        "##guesia"
      ],
      [
        "sing",
        "##le"
      ],
      [
        "M",
        "##ed"
      ],
      [
        "##íst",
        "##ico"
      ],
      [
        "at",
        "##iv"
      ],
      [
        "##ag",
        "##ens"
      ],
      [
        "##ne",
        "##io"
      ],
      [
        "m",
        "##elh"
      ],
      [
        "##ter",
        "##os"
      ],
      [
        "5",
        "##0"
      ],
      [
        "e",
        "##la"
      ],
      [
        "cat",
        "##ego"
      ],
      [
        "or",
        "##dem"
      ],
      [
        "H",
        "##er"
      ],
      [
        "H",
        "##e"
      ],
      [
        "Sant",
        "##o"
      ],
      [
        "##h",
        "##ões"
      ],
      [
        "202",
        "##4"
      ],
      [
        "S",
        "##te"
      ],
      [
        "Part",
        "##ido"
      ],
      [
        "Cal",
        "##if"
      ],
      [
        "f",
        "##in"
      ],
      [
        "cri",
        "##st"
      ],
      [
        "desenvol",
        "##vido"
      ],
      [
        "r",
        "##ot"
      ],
      [
        "plant",
        "##a"
      ],
      [
        "200",
        "##3"
      ],
      [
        "p",
        "##at"
      ],
      [
        "encont",
        "##ra"
      ],
      [
        "B",
        "##er"
      ],
      [
        "##ol",
        "##e"
      ],
      [
        "s",
        "##eleção"
      ],
      [
        "##óp",
        "##teros"
      ],
      [
        "##ó",
        "##rm"
      ],
      [
        "B",
        "##en"
      ],
      [
        "##ne",
        "##y"
      ],
      [
        "nat",
        "##ural"
      ],
      [
        "e",
        "##con"
      ],
      [
        "ad",
        "##v"
      ],
      [
        "##z",
        "##o"
      ],
      [
        "Pa",
        "##ul"
      ],
      [
        "Euro",
        "##pa"
      ],
      [
        "equ",
        "##ipe"
      ],
      [
        "déc",
        "##ada"
      ],
      [
        "g",
        "##én"
      ],
      [
        "199",
        "##0"
      ],
      [
        "##ia",
        "##is"
      ],
      [
        "##c",
        "##ito"
      ],
      [
        "o",
        "##l"
      ],
      [
        "Itá",
        "##lia"
      ],
      [
        "##met",
        "##ros"
      ],
      [
        "##em",
        "##as"
      ],
      [
        "##era",
        "##m"
      ],
      [
        "4",
        "##0"
      ],
      [
        "l",
        "##e"
      ],
      [
        "##ân",
        "##ico"
      ],
      [
        "##ica",
        "##is"
      ],
      [
        "202",
        "##2"
      ],
      [
        "a",
        "##u"
      ],
      [
        "##ç",
        "##os"
      ],
      [
        "c",
        "##ast"
      ],
      [
        "##ara",
        "##n"
      ],
      [
        "##ec",
        "##t"
      ],
      [
        "po",
        "##dem"
      ],
      [
        "##or",
        "##k"
      ],
      [
        "##r",
        "##en"
      ],
      [
        "popul",
        "##ar"
      ],
      [
        "t",
        "##ri"
      ],
      [
        "##ab",
        "##e"
      ],
      [
        "utiliz",
        "##ado"
      ],
      [
        "ch",
        "##eg"
      ],
      [
        "terc",
        "##eiro"
      ],
      [
        "jog",
        "##ador"
      ],
      [
        "Min",
        "##as"
      ],
      [
        "G",
        "##a"
      ],
      [
        "D",
        "##om"
      ],
      [
        "B",
        "##as"
      ],
      [
        "Ne",
        "##w"
      ],
      [
        "##t",
        "##i"
      ],
      [
        "##es",
        "##es"
      ],
      [
        "v",
        "##ari"
      ],
      [
        "Ped",
        "##ro"
      ],
      [
        "S",
        "##ol"
      ],
      [
        "##io",
        "##c"
      ],
      [
        "A",
        "##tu"
      ],
      [
        "##órm",
        "##ula"
      ],
      [
        "##aix",
        "##a"
      ],
      [
        "##ic",
        "##k"
      ],
      [
        "progra",
        "##ma"
      ],
      [
        "ocorre",
        "##u"
      ],
      [
        "s",
        "##al"
      ],
      [
        "##ar",
        "##ca"
      ],
      [
        "18",
        "##3"
      ],
      [
        "##á",
        "##st"
      ],
      [
        "##id",
        "##ental"
      ],
      [
        "##on",
        "##hec"
      ],
      [
        "##a",
        "##mente"
      ],
      [
        "espanh",
        "##ol"
      ],
      [
        "al",
        "##guns"
      ],
      [
        "Cent",
        "##ro"
      ],
      [
        "##at",
        "##erra"
      ],
      [
        "in",
        "##stitu"
      ],
      [
        "Rec",
        "##ord"
      ],
      [
        "base",
        "##ado"
      ],
      [
        "e",
        "##ns"
      ],
      [
        "situ",
        "##ado"
      ],
      [
        "##ô",
        "##m"
      ],
      [
        "##ern",
        "##o"
      ],
      [
        "S",
        "##c"
      ],
      [
        "ép",
        "##oca"
      ],
      [
        "Cat",
        "##ólica"
      ],
      [
        "l",
        "##ev"
      ],
      [
        "##on",
        "##ha"
      ],
      [
        "cont",
        "##in"
      ],
      [
        "200",
        "##2"
      ],
      [
        "femin",
        "##ino"
      ],
      [
        "B",
        "##ra"
      ],
      [
        "ofici",
        "##almente"
      ],
      [
        "jornal",
        "##ista"
      ],
      [
        "##í",
        "##a"
      ],
      [
        "l",
        "##eg"
      ],
      [
        "s",
        "##a"
      ],
      [
        "##ig",
        "##ht"
      ],
      [
        "##el",
        "##es"
      ],
      [
        "b",
        "##at"
      ],
      [
        "##y",
        "##n"
      ],
      [
        "era",
        "##m"
      ],
      [
        "japon",
        "##ês"
      ],
      [
        "conj",
        "##unto"
      ],
      [
        "lug",
        "##ar"
      ],
      [
        "At",
        "##l"
      ],
      [
        "Seg",
        "##unda"
      ],
      [
        "P",
        "##h"
      ],
      [
        "p",
        "##s"
      ],
      [
        "##du",
        "##c"
      ],
      [
        "##c",
        "##as"
      ],
      [
        "Int",
        "##ernacional"
      ],
      [
        "Ingl",
        "##aterra"
      ],
      [
        "p",
        "##úb"
      ],
      [
        "design",
        "##ada"
      ],
      [
        "euro",
        "##peu"
      ],
      [
        "G",
        "##ra"
      ],
      [
        "event",
        "##o"
      ],
      [
        "##il",
        "##e"
      ],
      [
        "f",
        "##ro"
      ],
      [
        "##t",
        "##s"
      ],
      [
        "pr",
        "##óp"
      ],
      [
        "in",
        "##ici"
      ],
      [
        "A",
        "##f"
      ],
      [
        "S",
        "##ch"
      ],
      [
        "##ab",
        "##o"
      ],
      [
        "18",
        "##4"
      ],
      [
        "I",
        "##II"
      ],
      [
        "princip",
        "##almente"
      ],
      [
        "##cul",
        "##os"
      ],
      [
        "m",
        "##ont"
      ],
      [
        "cr",
        "##ít"
      ],
      [
        "##ér",
        "##cito"
      ],
      [
        "cor",
        "##e"
      ],
      [
        "198",
        "##0"
      ],
      [
        "F",
        "##ern"
      ],
      [
        "##o",
        "##ri"
      ],
      [
        "Al",
        "##pes"
      ],
      [
        "V",
        "##ol"
      ],
      [
        "h",
        "##er"
      ],
      [
        "fun",
        "##dado"
      ],
      [
        "h",
        "##om"
      ],
      [
        "##ól",
        "##ogo"
      ],
      [
        "m",
        "##emb"
      ],
      [
        "form",
        "##ada"
      ],
      [
        "Un",
        "##ião"
      ],
      [
        "T",
        "##erra"
      ],
      [
        "dist",
        "##rib"
      ],
      [
        "f",
        "##ís"
      ],
      [
        "##u",
        "##re"
      ],
      [
        "n",
        "##eg"
      ],
      [
        "de",
        "##m"
      ],
      [
        "com",
        "##er"
      ],
      [
        "pr",
        "##t"
      ],
      [
        "o",
        "##este"
      ],
      [
        "qu",
        "##il"
      ],
      [
        "S",
        "##en"
      ],
      [
        "gu",
        "##erra"
      ],
      [
        "##ó",
        "##t"
      ],
      [
        "199",
        "##6"
      ],
      [
        "##y",
        "##a"
      ],
      [
        "##u",
        "##ção"
      ],
      [
        "##ên",
        "##io"
      ],
      [
        "##ez",
        "##a"
      ],
      [
        "H",
        "##ar"
      ],
      [
        "v",
        "##i"
      ],
      [
        "X",
        "##I"
      ],
      [
        "##iss",
        "##ão"
      ],
      [
        "est",
        "##abel"
      ],
      [
        "tor",
        "##neio"
      ],
      [
        "tra",
        "##d"
      ],
      [
        "##v",
        "##al"
      ],
      [
        "##an",
        "##as"
      ],
      [
        "##ici",
        "##onal"
      ],
      [
        "a",
        "##ta"
      ],
      [
        "199",
        "##9"
      ],
      [
        "##h",
        "##i"
      ],
      [
        "Sil",
        "##va"
      ],
      [
        "l",
        "##í"
      ],
      [
        "A",
        "##z"
      ],
      [
        "v",
        "##árias"
      ],
      [
        "G",
        "##erais"
      ],
      [
        "Ch",
        "##ina"
      ],
      [
        "á",
        "##gua"
      ],
      [
        "simples",
        "##mente"
      ],
      [
        "a",
        "##ve"
      ],
      [
        "com",
        "##um"
      ],
      [
        "Ar",
        "##m"
      ],
      [
        "desc",
        "##rita"
      ],
      [
        "Í",
        "##n"
      ],
      [
        "##res",
        "##s"
      ],
      [
        "atu",
        "##ava"
      ],
      [
        "L",
        "##este"
      ],
      [
        "class",
        "##e"
      ],
      [
        "##lia",
        "##m"
      ],
      [
        "##f",
        "##a"
      ],
      [
        "##es",
        "##tiv"
      ],
      [
        "##il",
        "##idade"
      ],
      [
        "##w",
        "##a"
      ],
      [
        "mod",
        "##elo"
      ],
      [
        "##en",
        "##ci"
      ],
      [
        "l",
        "##inha"
      ],
      [
        "##on",
        "##o"
      ],
      [
        "##og",
        "##ráf"
      ],
      [
        "comun",
        "##idade"
      ],
      [
        "en",
        "##g"
      ],
      [
        "##a",
        "##ria"
      ],
      [
        "geral",
        "##mente"
      ],
      [
        "##f",
        "##orm"
      ],
      [
        "##o",
        "##nte"
      ],
      [
        "##f",
        "##rica"
      ],
      [
        "pr",
        "##ó"
      ],
      [
        "desc",
        "##ob"
      ],
      [
        "I",
        "##m"
      ],
      [
        "Sant",
        "##os"
      ],
      [
        "o",
        "##p"
      ],
      [
        "Wil",
        "##liam"
      ],
      [
        "##ira",
        "##l"
      ],
      [
        "mascul",
        "##ino"
      ],
      [
        "Á",
        "##frica"
      ],
      [
        "##eb",
        "##ra"
      ],
      [
        "199",
        "##8"
      ],
      [
        "C",
        "##rist"
      ],
      [
        "##ân",
        "##e"
      ],
      [
        "##ol",
        "##it"
      ],
      [
        "M",
        "##u"
      ],
      [
        "Cam",
        "##p"
      ],
      [
        "de",
        "##nt"
      ],
      [
        "##g",
        "##ar"
      ],
      [
        "div",
        "##isão"
      ],
      [
        "##at",
        "##ion"
      ],
      [
        "a",
        "##qu"
      ],
      [
        "##qu",
        "##anto"
      ],
      [
        "com",
        "##b"
      ],
      [
        "po",
        "##der"
      ],
      [
        "##éc",
        "##n"
      ],
      [
        "##ei",
        "##ras"
      ],
      [
        "##ia",
        "##m"
      ],
      [
        "##qu",
        "##es"
      ],
      [
        "202",
        "##3"
      ],
      [
        "Tra",
        "##ta"
      ],
      [
        "##i",
        "##ras"
      ],
      [
        "im",
        "##pera"
      ],
      [
        "Alex",
        "##and"
      ],
      [
        "f",
        "##ab"
      ],
      [
        "##ifica",
        "##ção"
      ],
      [
        "##iv",
        "##as"
      ],
      [
        "C",
        "##ha"
      ],
      [
        "D",
        "##em"
      ],
      [
        "est",
        "##ud"
      ],
      [
        "in",
        "##di"
      ],
      [
        "inc",
        "##l"
      ],
      [
        "estabel",
        "##ec"
      ],
      [
        "H",
        "##ol"
      ],
      [
        "C",
        "##u"
      ],
      [
        "auto",
        "##ridade"
      ],
      [
        "est",
        "##e"
      ],
      [
        "gén",
        "##ero"
      ],
      [
        "Pol",
        "##ónia"
      ],
      [
        "##ul",
        "##os"
      ],
      [
[...]
